▁ 2028961000
) 559657537
( 559382251
. 521649764
, 395622738
; 307651765
= 256222605
* 229983419
- 221843305
" 206400990
NEW_LINE 175748366
' 157159513
STRNEWLINE 149368137
: 135629080
} 116947975
{ 116810164
ENDCOM 80746634
the 79452398
# 75510188
// 74220193
] 71124489
[ 70958352
_ 70117171
if 66912341
self 59446868
> 52565077
INDENT 51290590
DEDENT 51274779
< 50801249
return 49681894
0 49153155
/ 47549649
:: 45455406
-> 44758057
1 38066228
+ 31932119
to 31240578
a 30285793
@ 29441673
import 29428965
for 29118256
of 27432710
in 27186373
i 25446317
int 25155495
is 25080629
this 24807028
public 24508667
== 21861303
% 21293406
& 21014192
void 20213326
new 20032504
2 19562560
/* 19144922
*/ 19115063
and 18888891
def 18419569
s 18338369
String 18189293
name 16111668
const 16040229
_@@ 15996970
TABSYMBOL 15745123
not 14860042
or 14665173
else 14310513
org 14060487
License 14053481
! 13424668
""" 13362480
class 12996021
value 12658991
get@@ 11824244
from 11255666
null 11099423
file 11045919
x 11015922
data 10776273
3 10736507
be 10582297
with 10486468
m_@@ 10464793
static 10420315
!= 10419803
final 10098922
type 10030350
it 9934553
false 9550190
None 9539105
` 9331167
include 9240456
true 9212173
case 9099466
private 9085852
\n 8920829
h 8902368
that 8808753
id 8789455
get 8458054
p 8210602
size 8137409
c 8029387
t 8009201
<< 8000352
set@@ 7816490
code 7778810
e 7638584
The 7611022
++ 7603516
as 7535011
d 7517252
by 7359023
4 7328579
com 7299782
m@@ 7299612
path 7215245
? 7158679
&& 7145484
result 7132606
on 7017504
p@@ 7008296
an 6841120
string 6747298
param 6536912
under 6536813
b 6524281
list 6436288
y 6425189
s@@ 6399160
key 6394454
java 6368137
A 6258015
| 6168628
break 6122941
Type 6104041
std 6051990
r 5996150
True 5995708
char 5928621
f 5908354
List 5851897
f@@ 5805304
This 5755602
is@@ 5701785
/@@ 5638592
at 5552496
bool 5535769
set 5491531
Get@@ 5423427
</DOCUMENT> 5368946
+= 5238017
index 5203812
test 5180094
n 5167081
are 5160995
Exception 5134338
\ 5106045
Override 5093155
apache 5076054
context 5008980
we 4941298
n@@ 4930930
version 4928792
Name 4785309
throws 4774769
append 4756331
5 4755472
NULL 4722747
length 4678756
http 4659509
m 4613140
object 4570306
util 4569807
u 4509930
try 4506835
use 4487242
node 4463257
you 4434231
C@@ 4419676
str 4417208
|| 4415018
Object 4407611
distributed 4407119
out 4352422
will 4349780
default 4346949
Test 4327340
add 4327197
may 4310403
args 4307380
get_@@ 4267116
len 4262382
False 4234020
OR 4220489
state 4182454
8 4149552
boolean 4147974
error 4119385
Id 4114330
C 4113050
can 4106726
float 4102028
end 4092944
j 4089304
copy 4070000
v 3984003
text 3983528
all 3945276
os 3895357
Data 3835794
test_@@ 3819001
i@@ 3807270
k@@ 3784492
user 3779234
line 3772876
If 3767323
b@@ 3754089
request 3714417
c@@ 3709832
info 3705958
double 3658267
d@@ 3641484
except 3624965
OF 3611905
time 3598087
test@@ 3589982
See 3571081
Value 3538048
T 3509366
ID 3499815
count 3494005
module 3448137
Map 3443762
Info 3426050
should 3399456
ANY 3395121
2.0 3389170
message 3383911
have 3376627
6 3324271
v@@ 3313622
method 3301018
File 3253992
long 3248184
k 3230777
<DOCUMENT_ID="@@ 3214211
start 3204392
s_@@ 3175856
www 3167519
status 3157137
10 3155114
Set@@ 3139566
assert 3138218
t@@ 3137410
Node 3131399
item 3121509
To@@ 3114199
package 3097549
x@@ 3080335
assertEqual 3076699
X 3034518
GNU 3018278
one 3011312
values 3006536
format 3001096
unsigned 2995439
Public 2995160
Copyright 2980149
model 2978792
e@@ 2959608
g 2958182
add@@ 2949308
software 2949268
I@@ 2945812
a@@ 2939687
link 2938618
url 2888174
You 2886686
fields 2882504
Error 2874827
source 2864254
other 2855907
config 2839493
$ 2838921
new@@ 2831850
Set 2831741
General 2827538
any 2810157
T@@ 2794043
while 2792740
event 2790880
-@@ 2786597
7 2781750
no 2772521
Size 2764189
response 2763604
db 2751590
g@@ 2750985
r@@ 2750506
map 2743805
required 2740331
field 2731565
write 2726463
params 2715473
o 2710663
l 2691185
licenses 2672293
Context 2664271
print 2658356
client 2656763
assertEquals 2648189
S@@ 2647031
used 2644528
Index 2633784
output 2628608
number 2615999
obj 2606452
State 2598794
either 2591003
Software 2585739
h@@ 2569621
Version 2567238
msg 2566876
dict 2562694
create@@ 2561490
Q@@ 2546266
throw 2540742
instance 2537862
array 2529282
target 2527005
P@@ 2525699
input 2524818
but 2519689
function 2517055
w 2517031
2@@ 2516983
D@@ 2511407
buffer 2495118
ing 2475566
which 2472281
l@@ 2466755
endif 2462673
first 2458521
more 2457358
L 2451878
E@@ 2447880
byte 2444094
only 2433712
B@@ 2431549
~ 2429087
buf 2424639
raise 2420175
in@@ 2415714
WITHOUT 2411054
Path 2407071
Test@@ 2405906
Count 2405153
super 2384005
my@@ 2380861
re@@ 2369559
create 2368103
when 2367284
z 2364390
un@@ 2363281
G@@ 2360728
X@@ 2360503
log 2338286
B 2328801
pos 2327813
implied 2327011
j@@ 2326211
F@@ 2311899
I 2300835
group 2285398
__@@ 2285037
R@@ 2283239
protected 2275403
M@@ 2272449
S 2268728
w@@ 2252614
width 2250573
io 2249531
IS 2242765
on@@ 2234199
Manager 2209436
table 2194739
res 2192378
9 2191702
options 2191636
N@@ 2185663
Class 2184158
so 2181175
to@@ 2180965
V@@ 2173343
see 2154442
parent 2151829
LICENSE 2149548
using 2136559
must 2133560
H@@ 2132279
>= 2132056
np 2118403
models 2114209
core 2101506
L@@ 2091169
A@@ 2090839
R 2088888
In@@ 2087375
has 2082959
u@@ 2079827
catch 2073434
read 2063787
next 2056026
mode 2046546
elif 2040435
offset 2034806
val 2032554
extends 2031726
specific 2030162
o@@ 2028836
check 2024943
y@@ 2023453
ing@@ 2022046
server 2017073
Event 2007602
entry 2005216
IOException 1997766
AS 1994570
/tree/master/@@ 1992151
Apache 1989258
base 1985473
description 1981574
max 1977472
K@@ 1974891
q@@ 1971883
namespace 1961471
current 1960025
put 1953402
WARRANTIES 1952256
Foundation 1939324
Key 1935175
re 1925406
** 1906953
do 1897988
action 1897179
block 1891850
delete 1891423
stream 1889841
language 1889813
filename 1889579
Y 1888217
without 1870333
exception 1866750
16 1859418
element 1846521
z@@ 1842095
Returns 1826421
Is@@ 1824832
files 1819503
is_@@ 1817230
sys 1814148
P 1810986
height 1807983
View 1805913
join 1805625
Element 1802012
content 1800998
File@@ 1799440
J@@ 1795926
common 1794761
address 1794221
Item 1791880
update 1775558
api 1770682
token 1769542
W@@ 1768921
Integer 1758011
command 1751763
django 1751491
Result 1744305
option 1738153
Service 1735995
Text 1726714
Data@@ 1723228
E 1723139
range 1721676
ret 1721040
vector 1713305
Time 1711469
4@@ 1706686
wx@@ 1701196
equals 1698590
run 1697438
port 1695218
QString 1692709
sizeof 1686670
Type@@ 1684125
D 1681432
dir 1681061
view 1677332
__init__ 1675263
permissions 1670749
<= 1669223
row 1668187
O@@ 1664568
close 1662180
set_@@ 1661477
sub@@ 1656191
image 1655804
toString 1652392
32 1652157
query 1651531
template 1650760
define 1648703
System 1647753
N 1640795
terms 1634498
continue 1632290
s/@@ 1624295
call 1623830
match 1623740
Builder 1620675
Message 1617149
foo 1615908
begin 1611100
given 1608804
empty 1608364
M 1602114
U@@ 1590606
KIND 1588772
tag 1582688
writing 1577323
objects 1575176
program 1571312
3@@ 1568779
main 1566189
Request 1563599
kwargs 1563538
filter 1563357
^ 1561923
names 1559214
settings 1556045
date 1554511
information 1550692
Free 1547252
THE 1544520
src 1536195
de@@ 1533975
header 1528739
free 1528302
9@@ 1526791
.java"> 1524983
google 1524911
position 1524384
root 1521801
1@@ 1520975
expected 1519124
property 1514733
max@@ 1513828
bytes 1513118
pass 1512169
Entry 1510923
cache 1508317
On@@ 1507986
FOR 1503948
obtain 1503170
android 1502890
All 1497374
express 1497248
num@@ 1494531
struct 1483510
Licensed 1481704
al@@ 1481534
Model 1478009
compliance 1468537
F 1466692
Mode 1466537
applicable 1466095
found 1463935
q 1462509
For@@ 1460976
limitations 1460056
flags 1458107
Factory 1456874
8@@ 1455483
switch 1454363
governing 1452785
id@@ 1451777
CONDITIONS 1450681
parser 1449953
BASIS 1446761
Config 1440095
7@@ 1427262
5@@ 1426599
open 1426436
host 1426211
up 1425404
Unless 1419759
law 1418321
0x00 1417966
doc 1413832
arg 1412905
color 1411731
Array 1409149
agreed 1405948
level 1401926
form 1400096
boost 1396547
Handler 1393758
was 1392638
auto 1390561
Field 1390094
p_@@ 1383694
assertTrue 1382241
find 1381969
able 1381697
json 1380637
order 1379092
6@@ 1377767
er@@ 1376032
IN 1363853
g_@@ 1362282
items 1361543
its 1357119
label 1357087
''' 1355361
size_t 1354341
str@@ 1352637
left 1352526
javax 1350241
Status 1346422
Buffer 1342952
defined 1342112
Base 1340791
V 1340076
details 1339122
session 1338758
d_@@ 1336206
100 1333986
Action 1333645
remove 1332432
title 1330742
With@@ 1327336
service 1327273
body 1327125
point 1326850
connection 1325910
into 1325737
utils 1324010
debug 1323485
handler 1322048
Y@@ 1320743
12 1313396
frame 1311011
env 1310360
keys 1308022
m_p@@ 1307959
xml 1306993
Table 1301852
work 1300947
html 1298556
project 1298299
Length 1295219
0x00@@ 1293976
me 1289835
specified 1289827
Ptr 1289100
your 1287034
then 1284252
read@@ 1279684
cmd 1278556
From@@ 1277724
second 1275446
iterator 1275396
List@@ 1272590
as@@ 1272082
license 1268249
AND 1267306
copyright 1264398
types 1260902
results 1247686
has@@ 1247444
do@@ 1241688
Group 1239100
Z@@ 1237324
Base@@ 1233727
new_@@ 1233156
shape 1233086
Number 1232445
1.0 1231324
check@@ 1230090
modify 1227510
Re@@ 1225582
author 1224920
t_@@ 1224155
Color 1222604
right 1221872
following 1220580
style 1219094
file@@ 1214986
ed 1212512
build 1211743
need 1209558
tr 1208675
split 1207254
logger 1204385
app 1204068
Point 1202558
Offset 1202143
20 1202032
location 1201719
cls 1201601
ArrayList 1201250
ed@@ 1200241
net 1199895
builder 1193641
op 1193485
current@@ 1192404
prefix 1191183
handle 1188026
Get 1187707
Inc 1187211
interface 1186905
lang 1183525
And@@ 1182922
.cpp"> 1182052
child 1180552
Key@@ 1179021
\x@@ 1175506
ref 1174183
min 1172584
ui 1172514
Add@@ 1172146
page 1172087
contains 1169622
idx 1166063
part 1165224
isinstance 1164001
11 1163781
Assert 1162908
Un@@ 1162414
_id 1161713
st@@ 1157849
URL 1157478
_name 1154545
clear 1152848
last 1152454
push_back 1151026
Node@@ 1147064
same 1146447
PURPOSE 1146080
FITNESS 1144969
Source 1143636
ids 1142505
0.0 1141393
>> 1139954
PARTICULAR 1139160
MERCHANTABILITY 1137674
thread 1136659
Text@@ 1135752
even 1134690
K 1133743
device 1129938
hash 1124389
no@@ 1124221
library 1122865
attribute 1122837
each 1121762
getName 1120426
tree 1120344
c_str 1118226
uint32 1116749
num 1116390
column 1106342
er 1101815
_S@@ 1101751
Check 1100604
after 1100377
Impl 1098871
now 1097707
search 1097151
parameters 1095243
ts 1095203
there 1094148
64 1093959
For 1092765
Log 1092620
func 1090924
U 1088429
1" 1087657
Utils 1085853
Date 1082137
Event@@ 1081561
Filter 1081151
directory 1079282
ctx 1079118
ptr 1077295
lines 1075885
tests 1075631
Create@@ 1071295
to_@@ 1071129
write@@ 1070822
Value@@ 1069317
In 1068937
Sub@@ 1067053
mock 1065975
received 1065033
err 1062865
Response 1058260
nodes 1055223
init 1054437
Client 1050358
task 1049371
resource 1048615
User 1048134
0@@ 1047623
TYPE_@@ 1045728
store 1044084
ar@@ 1043596
before 1042906
key@@ 1042583
Function 1042396
does 1042262
update@@ 1040534
player 1039744
We 1036666
Width 1034037
Start 1033719
.py"> 1032422
Block 1029928
headers 1029588
Object@@ 1028976
an@@ 1028021
last@@ 1025819
Create 1024450
Pos 1024363
Code 1023962
S_@@ 1022063
Format 1021733
Command 1018670
en@@ 1018469
able@@ 1015551
add_@@ 1014718
failed 1009394
String@@ 1008080
exists 1006572
"@@ 1002569
system 1002060
NAME 1001336
tmp 1001147
Token 999103
Method 998526
start@@ 998418
Image 998212
c_@@ 997920
published 996957
static_cast 996674
stack 995670
.@@ 995320
useful 992797
timeout 992358
conf 991548
Configuration 989347
Util 988188
Map@@ 987467
domain 987430
data@@ 986857
User@@ 986795
32@@ 986257
load 986074
here 986026
Thread 985954
addr 985924
Z 984327
Qt 982528
endl 982077
Cache 981285
WARRANTY 979716
top 974259
Ref 973281
es 972492
process 971127
non 971002
Address 969257
bar 967105
than 965015
password 964004
provided 963649
returns 962532
Listener 962471
lib 961342
_t 959587
G 959491
Rect 958137
later 958058
Settings 957442
Position 956914
conditions 956436
min@@ 953496
ch@@ 950520
where 949945
Frame 949050
var 947938
ifdef 947378
Return 946734
out@@ 946148
end@@ 945170
connect 944927
returned 944621
called 942571
python 942353
hpp 940759
Timer 940418
example 936827
Button 935872
cr 934035
changed 931459
It 930723
make 929437
nullptr 929020
available 926709
se@@ 925990
instanceof 924359
insert 922481
iter 921518
errors 919081
No@@ 918758
some 917997
NOT 917907
Iterator 916978
parameter 915504
along 914670
co@@ 913782
additional 913255
assertThat 912949
internal 912927
15 912417
st 911989
_p@@ 911596
log@@ 909431
W 909395
\@@ 908254
Window 907548
Add 906077
ch 903409
intellij 903211
lock 902833
H 901730
16@@ 901669
been 901118
uid 901016
Image@@ 900209
Property 899912
Vector 899275
Line 899167
al 899092
implements 899082
ASF 898672
redistribute 897340
Item@@ 896156
println 895974
valid 895306
Default@@ 895229
parse 893673
flag 892636
Name@@ 892631
O 891046
assert@@ 890242
Field@@ 889563
datetime 888736
sp@@ 888517
1.@@ 887742
replace 883594
window 882888
db@@ 880161
configuration 879968
support 878328
LOG 878267
properties 878230
Query 877685
Message@@ 877208
Stream 877152
No 876403
attr 875692
operator 874914
li 873004
arguments 872667
isEmpty 871405
To 871382
rights 870412
don 870225
10@@ 869446
Helper 868561
encoding 868270
End 867811
a_@@ 866841
TYPE 866690
events 865592
metadata 865348
View@@ 865241
12@@ 864923
Options 864167
TODO 862779
attributes 860952
logging 860600
li@@ 860214
0.@@ 859578
already 859300
le@@ 858475
since 857584
ad@@ 857080
script 856422
document 856170
00@@ 855135
junit 854870
warranty 854322
ValueError 853956
int32_t 850518
di@@ 849695
RE@@ 849271
fail 848361
Label 847065
ac@@ 846936
Index@@ 845309
dest 843566
local 841762
Abstract@@ 837989
TestCase 837896
Resource@@ 837687
hope 837428
req 836459
execute 835780
_type 833479
hadoop 831972
Handle 830939
network 829563
Block@@ 829356
map@@ 829216
change 827893
num_@@ 827731
short 827231
Time@@ 826828
New@@ 826190
ation@@ 824931
Update@@ 824277
matrix 823524
widget 823037
ip 822705
printf 822413
_get_@@ 822402
help 822082
at@@ 818463
txt 817686
record 817095
Unit 815621
Table@@ 814975
above 814119
T_@@ 813712
unit 813006
created 811047
callback 810044
ERROR 809681
Constants 809078
Provider 809062
Widget 809003
Collection 808986
Height 808856
Long 808296
Level 808179
random 808145
Class@@ 806713
64@@ 806040
fs 802715
spec 802302
argument 801736
LETTER 801159
mask 800898
11@@ 800786
methods 800024
py 799911
py@@ 799625
open@@ 798285
dtype 797950
op@@ 796675
ACE_@@ 795559
ro@@ 795476
2" 794908
channel 794055
State@@ 792119
Resource 791725
memory 790587
col 789335
argv 788975
de 788810
points 788735
Log@@ 788271
diff 787682
ti@@ 786719
old@@ 786366
rc 784724
'@@ 784325
limit 784273
Client@@ 783546
Open@@ 783021
username 781577
-= 780931
queue 779707
Read@@ 779604
API 779369
binary 779165
two 778728
generated 778059
find@@ 777831
just 777535
rect 777283
ing_@@ 776241
the@@ 776087
temp 775928
step 774834
space 774625
pre@@ 773508
13 772936
protocol 772827
By@@ 772739
Group@@ 771944
Write@@ 771744
Service@@ 771021
cout 768113
Logger 767764
uri 766078
Check@@ 765380
Args 765227
y_@@ 765144
box 765037
axis 764931
Page 764803
like 764710
Server@@ 764499
Values 763344
component 762737
application 762080
ms 761970
user@@ 761903
Flags 761786
or@@ 761655
Header 760780
back 760077
Server 758966
Query@@ 758573
save 758364
Properties 758324
because 758068
ASSERT 758054
in_@@ 757933
Range 756022
1_@@ 755813
list@@ 754930
30 753489
Input@@ 752980
scale 752772
create_@@ 751800
Sk@@ 749822
also 748338
Parameters 747801
variable 746356
Types 745940
Parser 744489
Dir 744379
Module 744338
Path@@ 743652
account 743217
access 742843
reset 742259
Attribute 740484
socket 739336
lambda 739098
Names 738786
2_@@ 738228
Target 738007
node@@ 737410
1' 736908
ation 735718
Of@@ 735640
Connection 734378
elements 734038
Load@@ 734017
n_@@ 733019
bit 732945
Info@@ 732938
el@@ 732340
SOFTWARE 731614
Local@@ 731003
ers 730837
Line@@ 730068
engine 729929
next@@ 729658
database 729331
Str 728060
reserved 727180
load@@ 727166
us 727107
reference 727000
dst 726576
te@@ 726083
Callback 725117
255 724789
impl 723832
Tag 723569
tuple 722033
sh@@ 720738
ex 720136
am@@ 719394
email 717511
ic@@ 716218
Bytes 715449
sb 712719
15@@ 712689
De@@ 712617
rule 711454
Instance 711135
pattern 710616
mp@@ 710500
on_@@ 709573
Component 707491
Request@@ 706833
stop 706557
be@@ 706015
parse@@ 705625
Web@@ 705214
base@@ 704586
Matrix 704140
Or@@ 703440
01@@ 701720
remove@@ 699958
TO 699427
operation 699403
ID@@ 699052
14 698836
select 698127
sum 697905
Column 697820
https 697686
source@@ 697317
14@@ 696427
time@@ 695769
annotation 695376
Model@@ 695073
ST@@ 694332
control 694272
check_@@ 694050
it@@ 693697
pool 693198
Task 692781
13@@ 692222
Property@@ 691719
Code@@ 690386
manager 689288
uint32_t 689014
Style 688319
sql 687774
notice 687531
INCLUDING 687260
NotNull 687234
type@@ 685548
done 683813
graph 683418
Stream@@ 683341
Note 683204
Update 682583
from_@@ 682285
gl@@ 681827
max_@@ 679988
Document 679840
Expression 679492
24 679101
__ 678737
Num 676594
Container 676575
elasticsearch 675435
exit 675367
invalid 675119
success 674665
SPELL_@@ 673755
send 673241
Boolean 672525
ri@@ 672308
Simple@@ 671822
ds 671334
getValue 671285
loop 670635
Use 670286
int@@ 670155
ce@@ 669707
enabled 669202
Source@@ 668947
security 668544
Config@@ 668368
OK 668019
l_@@ 667493
td 667375
UN@@ 667313
MAX_@@ 667303
cursor 665276
th@@ 664748
ops 664656
text@@ 663134
container 662832
lib@@ 662655
si@@ 662583
Layout 662164
override 662091
factory 661879
entity 660180
Color@@ 660168
value@@ 659286
Input 658646
Store 658367
0.0f 658315
er_@@ 657951
mo@@ 657655
from@@ 656878
bits 655157
-- 654851
HashMap 654263
Session 653761
Action@@ 653403
f_@@ 653399
layout 651654
Dialog 651427
18@@ 651393
Entity 651289
Cache@@ 650666
My@@ 650126
__name__ 649002
ss 648653
Element@@ 648360
Interface 645839
default@@ 645639
Description 645638
local@@ 645243
auth 645154
x_@@ 645110
Content 643886
move 643803
Location 643511
writer 643388
show 643176
1000 642897
eclipse 642552
USE 641227
ab@@ 640319
Output 639848
present 639647
IN@@ 639537
display 639531
section 639475
Reader 638748
Task@@ 638670
based 636926
target@@ 636090
Read 634896
reader 634851
added 634180
Id@@ 634045
expression 633741
Array@@ 633382
layer 633153
job 631739
gnu 631638
cur@@ 631541
50 631359
want 630592
use@@ 629167
register 629112
line@@ 628527
lo@@ 628200
19@@ 628131
conn 627378
exec 627021
distribution 626744
src@@ 626431
button 625629
ap@@ 625614
children 625163
up@@ 625135
FALSE 625071
le 624237
Tests 624045
app@@ 623390
Frame@@ 623064
All@@ 622122
rows 621555
run@@ 621261
Len 620168
single 619076
ly 618918
Page@@ 618597
modules 617420
Multi@@ 617383
Op@@ 616221
Start@@ 616108
Tree 615647
con@@ 615344
res@@ 615069
arg@@ 613921
input@@ 613894
current_@@ 613445
ui@@ 612903
implementation 612151
fp 611925
show@@ 610929
Params 610775
Error@@ 610708
ted 610399
optional 609554
zero 609149
integer 608774
uint8_t 608161
admin 607663
sub 606760
data_@@ 606594
04@@ 606385
name@@ 606114
old 605609
index@@ 604448
po@@ 604318
Filter@@ 603714
tags 603640
As@@ 602298
first@@ 602297
2.@@ 602268
Project 601446
DE@@ 601407
lower 600820
pop 600444
tx 600347
they 600027
cluster 599694
ec@@ 599285
dw@@ 599199
sure 598428
20@@ 597891
00 597457
Record 597164
ps 597117
DEFAULT_@@ 596451
|= 596249
Method@@ 596066
NOTICE 595952
all@@ 595650
total 595646
cpp 594532
C_@@ 594351
getInstance 592989
se 592942
variables 591825
ul@@ 590930
meta 590795
Output@@ 589714
abstract 588182
LATIN 587227
02@@ 586750
25@@ 585767
Target@@ 585746
messages 585712
sequence 585479
Player 584571
them 584436
sample 584202
build@@ 584197
ownership 584192
Pattern 584057
17@@ 583360
file_@@ 583183
0x20 583044
our 582808
block@@ 582353
fd 582134
D_@@ 581956
temp@@ 581796
Pre@@ 581554
\\ 580826
comment 580737
0" 580609
send@@ 580422
Function@@ 579247
27@@ 578491
functions 578381
Context@@ 577735
original 577648
between 577554
ag@@ 576862
me@@ 576725
et@@ 576652
Max@@ 576584
Out 576502
M_@@ 576188
SP@@ 576100
global 575408
code@@ 575321
off 575004
Do@@ 574777
Buffer@@ 574679
groups 573424
tr@@ 572243
en 572084
contributor 571729
regarding 571505
ar 571374
tt 571292
Point@@ 570714
ss@@ 570522
col@@ 570505
stats 569683
virtual 569661
stderr 569600
Control 569482
process@@ 569252
fn 569126
sc@@ 569019
ok 567116
Py@@ 566748
Window@@ 565419
font 565384
EVENT_@@ 565382
loc 565261
utf 565227
ted@@ 564807
entries 564614
cs 563672
Mask 563430
Double 562966
24@@ 562884
DATA 562431
member 562259
active 561455
unicode 560750
cl@@ 560609
01 560142
cannot 560117
platform 559304
attrs 557995
200 556879
word 556755
ent 556081
Url 556071
agreements 555539
bin 555327
ate@@ 554711
TRUE 553829
always 553532
s2 552659
doesn 552649
Int@@ 551480
image@@ 551297
Device 551068
Queue 551037
desc 550965
warning 550895
em 550838
Search@@ 550016
indices 549561
App@@ 549166
AI 549145
finally 549123
signal 549038
whether 548984
Changed 548820
v1 548520
plugin 548074
row@@ 547668
s_ 547566
2' 547174
Device@@ 546697
IllegalArgumentException 546472
ip@@ 546242
Row 546094
classes 545419
FILE 545090
Int 545013
bind 544987
init@@ 544928
alpha 544565
pre 543978
Process@@ 542590
NO 541966
Failed 541643
listener 541593
THIS 541530
tmp@@ 541316
Port 540904
var@@ 540584
br 540137
DB@@ 539746
storage 539405
KEY 539174
Q 538717
about 538264
typedef 538138
compile 538025
ON 537877
stdout 537590
IMPLIED 537321
char@@ 536871
Python 535685
region 535372
_data 535200
60 534960
Num@@ 534466
schema 533651
URI 533246
Val 532913
Op 532362
GL@@ 532074
37@@ 531675
unittest 531521
yield 531250
Engine 531210
65@@ 530620
ate 529781
character 529181
equal 528931
GL_@@ 528745
L_@@ 528474
ext 528074
permission 527734
os@@ 527292
group@@ 527291
Result@@ 526956
Enabled 526807
pair 526754
e_@@ 526487
Script@@ 525378
enum 525332
sort 525314
ns 525166
documentation 524748
es@@ 524725
field@@ 524646
proxy 524168
supported 523932
Command@@ 523739
contents 523515
al_@@ 523435
view@@ 522931
post 522400
Sets 522386
scope 522345
Default 522175
menu 521990
with@@ 521381
pointer 521160
E_@@ 520604
th 520178
Has@@ 519918
instead 519760
provider 519639
framework 519618
Call@@ 519066
Writer 518098
ff@@ 517152
camel 516482
25 516428
release 516424
Box 516315
s1 515940
ns3 515349
Files 514890
CC@@ 514871
34@@ 513560
course 513546
strings 513259
Controller 512958
columns 512933
per@@ 512919
Descriptor 512632
encode 512616
extension 512454
ims 512439
list_@@ 511778
Pair 511705
itr 511086
TA@@ 510938
0x0@@ 510342
DEBUG 509870
Idx 509758
these 509492
expr 509246
print@@ 508975
Attributes 508861
im@@ 508819
through 508714
Qgs@@ 508245
P_@@ 508118
getString 508071
assertFalse 507746
_re@@ 507732
springframework 507579
mapping 507172
Tree@@ 506822
Stack 506590
Write 505907
passed 505822
Not@@ 505816
what 505728
being 505314
related 504532
G_@@ 504512
commands 504268
pp@@ 504136
default_@@ 503901
USA 503746
35@@ 503429
table@@ 503345
Lesser 503324
item@@ 503032
cast 502977
67@@ 502917
0.5 502764
math 502493
33@@ 502324
Size@@ 502174
actual 501842
LE@@ 501330
31 500872
otherwise 500346
ations 500270
v2 499889
ms@@ 499445
Handle@@ 498569
over 497893
setText 497830
output@@ 497520
subject 497509
depth 497421
XML@@ 497140
hr 497125
transform 496889
draw@@ 496526
per 496379
extra 496208
45@@ 495590
Lock 495280
opts 494946
Char 494762
07@@ 494508
05@@ 494271
different 494244
Channel 493933
DI@@ 493624
END 492822
Java@@ 492448
Thread@@ 492447
28@@ 492284
auto@@ 491451
resources 491360
29@@ 490865
Parameter 490061
Arrays 489896
exist 489506
Invalid 489369
wait 489208
Panel 489120
TEST_@@ 488870
av@@ 488794
An 488333
ne@@ 487983
verify 487743
make@@ 487626
blocks 487546
Directory 487100
owner 487077
policy 486826
ref@@ 486795
path@@ 486236
LIMITED 485891
Meta 485876
cb@@ 485749
UI 485616
amount 485499
Flag 485009
expected@@ 484725
opt 484535
Parse@@ 484228
bo@@ 484178
17 483579
patch 483557
18 483478
MA 483220
skip 482889
Layer 482384
dt 482278
BUT 482260
sz@@ 482239
parts 482069
assertRaises 481934
last_@@ 481261
Template 481023
AR@@ 480924
full 480723
Content@@ 480524
WITH 480508
Attribute@@ 480095
Fields 480002
features 479973
AC@@ 479936
blank 479796
expected_@@ 479631
pro@@ 479599
Find@@ 479209
labels 479120
head 478926
llvm 478557
Invalid@@ 478406
raw 478109
23 477989
51 477982
Non@@ 477340
included 477283
ex@@ 477221
volume 477181
Only 476606
Private 476107
Math 475586
Rule 474946
System@@ 474893
LIABILITY 474812
frame@@ 474595
Instance@@ 474043
setup 473986
Param 473971
vi@@ 473831
22 473584
rs 473378
Custom@@ 473282
\t 473015
setting 472604
creature 472444
client@@ 472277
Obj 472109
matches 472081
input_@@ 471620
go 471488
55@@ 470795
0x@@ 470764
Co@@ 470391
OUT 470277
exceptions 470194
can@@ 470189
ated 470093
loader 469909
ma@@ 469778
Reference 469752
Auto@@ 469677
09@@ 469468
driver 469401
normal 469175
Open 468480
dist 468371
Proxy 467881
has_@@ 467834
Order 467784
user_@@ 467706
b_@@ 467575
23@@ 467222
result@@ 466813
web@@ 466411
inputs 466209
running 466168
event@@ 465990
Job@@ 465658
OS 465594
constructor 465131
Adapter 465061
lt 464788
Entity@@ 464720
all_@@ 464379
Call 464362
fe@@ 464354
page@@ 463308
1.0f 463017
AL@@ 462017
NO@@ 461991
Items 461892
XML 461586
such 461498
string@@ 461341
Form 461338
_s@@ 461020
ON_@@ 460888
forms 460649
InputStream 460405
ge@@ 459921
for@@ 459865
tf 459559
Float 459303
21 459290
locale 458707
03@@ 458377
Project@@ 457912
DB 457886
Render@@ 457389
End@@ 457318
ent@@ 457193
parent@@ 456903
Format@@ 456648
08@@ 456203
both 456103
Row@@ 456082
timestamp 456021
strip 455993
existing 455730
39@@ 455690
mod 455642
_m@@ 454641
p1 454546
ACE 454313
ter 453939
hashCode 453525
counter 453225
product 452970
Ch@@ 452948
multi@@ 452690
read_@@ 452622
unique 452577
Wrapper 452338
register@@ 451098
calls 450918
actions 450908
ter@@ 450697
Channel@@ 450645
DWORD 450527
red 450276
Send@@ 449884
editor 449748
44@@ 449462
ur@@ 449266
transaction 449152
sTo@@ 448639
COPYRIGHT 448542
collection 448354
users 448090
Option 447654
\\@@ 447626
could 447427
Grid@@ 447308
cp@@ 447080
38@@ 446669
year 446657
del 446435
3.@@ 446165
message@@ 446030
EVENT 445684
Mock@@ 445566
resp 445511
tools 445408
Con@@ 445360
_to_@@ 445289
would 445192
selected 444803
changes 444574
getId 444407
dictionary 443904
40 443562
profile 443110
convert 442854
identifier 442711
fi@@ 442656
so@@ 442617
getType 442165
256 441674
constant 441391
prop 441053
dev 441016
R_@@ 440783
47@@ 440432
bt@@ 440093
down 440045
k_@@ 439775
rules 439765
rate 439245
category 439107
Build@@ 439003
Menu 438523
Session@@ 438295
Ref@@ 437874
cell 437543
Out@@ 437026
characters 436887
CHECK 436773
Variable 436770
dialog 436745
BE 436703
FROM 436666
88@@ 435699
Creature 435640
report 435604
seconds 435205
environment 435103
i_@@ 435028
interval 434910
Change@@ 434899
r_@@ 434730
CharField 434473
Kind 434287
filter@@ 434034
testing 433603
possible 433469
bi@@ 433348
bit@@ 433330
Module@@ 433061
um@@ 432678
usage 432366
INFO 432163
Char@@ 431941
stream@@ 431613
Nodes 431517
Delete@@ 431492
uuid 431432
delta 431208
v_@@ 431037
task@@ 430924
decode 430563
output_@@ 430404
special 430154
TypeError 430001
multiple 429801
128 429799
Reg@@ 429497
written 429048
annotations 428781
99@@ 428665
At 428482
associated 428369
t1 428290
copy@@ 428287
vm 428150
36@@ 428116
_list 428108
update_@@ 427577
with_@@ 427425
Pool 426775
native 426728
Pointer 426640
ID_@@ 426496
JS@@ 426486
X_@@ 426246
old_@@ 426148
NONE 426057
ls 425861
Connection@@ 425791
tokens 425572
CP@@ 424521
Column@@ 424143
server@@ 423977
getattr 423975
make_@@ 423968
BOOST_CHECK 423874
way 423489
Expr 423134
needed 422891
error@@ 422558
post@@ 422296
enable 422269
vars 421808
param@@ 421572
force 421531
alias 421347
color@@ 420825
AS@@ 420722
exp 420657
total@@ 420167
IO@@ 420113
Operation 419865
cc 419573
action@@ 419259
MC@@ 419113
search@@ 418651
Generic@@ 418572
Tag@@ 418346
Current@@ 418132
ator 418107
Run@@ 417969
IP@@ 417649
as_@@ 417556
SE@@ 417374
LI@@ 417267
io@@ 417252
Windows 417223
el 417140
Desc 416960
and@@ 416892
Button@@ 416875
Policy 416725
57@@ 416653
apply 416599
web 416502
Max 416387
compute 416088
gen@@ 415886
_b@@ 415840
numpy 415610
paths 415470
Font 415384
New 414873
Control@@ 414776
Token@@ 414722
cfg 414669
reg 414597
Metadata 414023
too 413622
type_@@ 413383
day 413318
Keys 413146
tab 413008
il@@ 412912
stat 412745
Definition 412659
href 412570
19 412346
clone 412239
Generator 412223
parse_@@ 412197
TEST 411841
Next@@ 411838
if@@ 411734
Status@@ 411709
kind 411617
trace 411512
condition 411389
previous 411182
48@@ 411060
delete@@ 410812
66@@ 410796
UnicodeString 410718
Process 410357
Media@@ 410274
he@@ 409810
Audio@@ 409551
pid 409175
reg@@ 408680
distance 408665
26@@ 408634
89@@ 408423
handle@@ 408021
tx@@ 407967
signature 407874
Vector@@ 407837
xml@@ 407831
ation_@@ 407766
packet 407132
start_@@ 407106
Nullable 406296
Collections 405854
score 405703
Debug@@ 405165
3" 405017
edge 404894
Http@@ 404835
ra@@ 404790
:@@ 404768
Template@@ 404453
Entry@@ 404438
Reg 404426
Store@@ 404335
inline 403773
0x2@@ 403681
SMALL 403627
role 403441
77@@ 403371
Bundle 403266
feature 403083
real 402942
statement 402809
Registry 402798
Last@@ 402718
runtime 402606
direction 402567
allow 402514
id_@@ 402179
Copy 401948
Network@@ 401202
0' 401100
bottom 400749
Spec 400583
query@@ 400560
TI@@ 400266
origin 399767
ps@@ 399647
Oracle 399450
Xml@@ 399242
icon 399200
swing 398841
CO@@ 398758
ignore 398456
tag@@ 398436
Change 398424
STRING 398154
69@@ 398118
request@@ 397875
containing 397855
Loader 397765
world 397705
verbose 397633
Msg 397519
IP 397467
Texture@@ 397336
site 397180
selection 396853
ER@@ 396733
key_@@ 396636
Identifier 396455
49@@ 396225
F_@@ 395923
save@@ 395911
A_@@ 395879
target_@@ 395851
controller 395825
uint8 395797
synchronized 395234
22@@ 395224
age 395177
/tree/master/src/@@ 395003
Application@@ 394900
FileName 394512
Parameter@@ 394510
fill 394418
Link 394380
sets 394324
gen 394223
tor@@ 394022
symbol 393954
compare 393927
Per@@ 393639
proto 393113
atom 392996
AD@@ 392613
allowed 392352
Statement 392309
SI@@ 392257
te 392202
3_@@ 392099
SIZE 392089
choices 391942
x1 391478
service@@ 391295
indent 391269
4.@@ 391077
generator 391062
Global@@ 391051
Bit@@ 391045
ir@@ 390987
Document@@ 390958
ai@@ 390764
df 390084
within 389923
side 389718
By 389095
EN@@ 388929
When 388861
disable 388665
Root 388583
next_@@ 388162
class@@ 388043
times 387872
call@@ 387736
put@@ 387675
render 387555
First 387373
MAX 387365
gr@@ 387057
Video@@ 386794
push 386689
grid 386588
Init 386527
Storage@@ 386511
Hash 386166
ver@@ 386002
none 385813
DATA_@@ 385635
dot 385330
Boston 385291
format@@ 385034
Game@@ 384778
ic 384183
ifndef 383920
less 383586
startswith 383548
note 383473
getClass 383439
tab@@ 383294
SH@@ 383269
06@@ 383242
endpoint 383145
Json@@ 382994
Draw@@ 382889
until 382799
instances 382747
Scope 382447
Manager@@ 382330
setUp 382241
StringBuilder 382217
line_@@ 382068
Make 381895
log_@@ 381846
failure 381767
42 381431
pt 381223
AM@@ 380852
mock_@@ 380741
non@@ 380618
rc@@ 380573
Throwable 380519
Processor 380462
Internal@@ 380154
go@@ 380130
ED 379967
samples 379749
missing 379730
services 379636
Var@@ 379539
Cursor 379367
ve@@ 378873
ho@@ 378824
val@@ 378779
OP_@@ 378342
requests 378240
0x8@@ 377837
removed 377551
Symbol 377547
Left 377529
Core 377037
weight 376918
59@@ 376879
Style@@ 376872
hash@@ 376488
contact 376395
Memory@@ 376358
duration 376313
Plugin@@ 376208
AT@@ 375981
ansible 375958
Min@@ 375764
warn 375490
Edit@@ 375196
SC@@ 375030
Loc 374815
targets 374730
filters 374541
UI@@ 374540
ve 374505
_de@@ 374374
Limit 374218
initial 373911
80 373857
their 373685
name_@@ 373614
int32 373528
argc 373417
valueOf 373303
Remove@@ 373213
algorithm 372913
doc@@ 372816
fmt 372684
disclaimer 372540
mark 372258
CH@@ 372187
87@@ 372170
par@@ 372044
timer 371850
Bits 371727
angle 371580
correct 371539
Shape 371472
screen 371443
payload 371388
If@@ 371216
Editor@@ 370814
clear@@ 370527
reverse 370007
NO_@@ 369870
Di@@ 369809
KEY_@@ 369709
Stats 369669
Link@@ 369584
ING 369379
Step 369291
Header@@ 368861
Activity 368706
box@@ 368503
Region 368312
extend 368010
compiler 367924
Match 367862
uses 367240
NE@@ 367070
ER 367067
_size 366991
0xff 366907
components 366856
Library 366835
Graph 366661
mm@@ 366659
Y_@@ 366047
vo@@ 365961
obj@@ 365930
center 365906
generate 365750
state@@ 365704
abs 365688
login 365662
Script 365391
let 365325
Init@@ 365158
Component@@ 364944
pl@@ 364913
Font@@ 364879
cr@@ 364740
SIGNAL 364694
At@@ 364515
Post@@ 364266
Locale 364228
ER_@@ 363834
another 363828
Scale 363658
Basic@@ 363564
ci@@ 363430
au@@ 363386
Gr@@ 363353
Ids 363171
p2 363043
AP@@ 362838
ke@@ 362771
EC@@ 362736
Access@@ 362710
gi@@ 362613
fa@@ 362512
bounds 362352
Optional 362295
raw@@ 362227
Redistributions 362037
Not 361880
write_@@ 361831
us@@ 361405
Def 361347
primary 361023
complete 360680
unknown 360585
Range@@ 360459
reason 360442
child@@ 360141
run_@@ 359967
0x4@@ 359887
lp@@ 359772
ig@@ 359735
VALUE 359561
collect 359377
sorted 359100
\s 359054
awt 358996
chain 358948
dst@@ 358841
MA@@ 358793
ut@@ 358574
Remove 358491
Permission 358038
Bean 357956
simple 357905
Configuration@@ 357763
sp 357659
Layout@@ 357464
lookup 357383
canvas 357278
Addr 357245
zone 357092
HTTP 357015
stop@@ 356966
Version@@ 356454
0x5@@ 356069
1024 355835
link@@ 355693
Load 355692
video 355263
net@@ 355172
Byte 354939
cc@@ 354658
PATH 354593
ToString 354577
Counter 354573
field_@@ 354539
updated 354378
area 354320
ns@@ 354305
Doc@@ 354205
CAPITAL 353903
df@@ 353789
RT@@ 353611
ator@@ 353561
openapi 353551
Pro@@ 353493
Buf 352941
commit 352834
0x7@@ 352704
fileName 352539
wrapper 352519
ks 352282
Points 352261
STATE_@@ 352047
GET 351908
equalTo 351314
threads 351097
Matrix@@ 350926
Player@@ 350767
x2 350564
shared 350506
tion@@ 350271
Sh@@ 350025
Container@@ 349920
AN@@ 349872
out_@@ 349854
fprintf 349244
Transform 349189
Host 349102
wx 348938
Box@@ 348898
use_@@ 348708
0_@@ 348583
la@@ 348522
hasattr 348506
mat 348354
Prefix 348225
Str@@ 348223
or_@@ 348147
Objects 348123
mi@@ 348096
destination 347841
86@@ 347486
Holder 347131
cause 347018
m_b@@ 346930
environ 346895
dis@@ 346855
Editor 346794
J 346744
Storage 346648
words 346637
68@@ 346476
base_@@ 346420
als 346262
TO@@ 346055
Native@@ 345963
GUID 345735
cl 345672
Database@@ 345447
Exception@@ 345406
0x3@@ 345342
img 345293
Uri 345177
folder 345030
cache@@ 345000
Arg 344900
App 344893
dx 344745
der 344672
and_@@ 344591
accept 344553
getMessage 344451
cb 344308
descriptor 344136
Print@@ 344073
Please 344064
c1 343817
RO@@ 343771
defaults 343758
World 343570
From 343404
pr@@ 343396
Single@@ 343272
prev 342883
Texture 342573
rv 342539
object@@ 342393
\a 342349
validate 342200
slot 341962
remote 341930
Float@@ 341769
Renderer 341723
/src/@@ 341362
DIR 341210
my 340987
resize 340963
assert_equal 340722
find_@@ 340634
SLOT 340581
tex@@ 340171
B_@@ 339960
chunk 339901
Dict 339896
load_@@ 339895
typename 339892
ING_@@ 339839
100@@ 339836
tt@@ 339679
local_@@ 339658
JSON 339320
structure 339249
back@@ 339143
batch 339097
tasks 338988
outputs 338897
ast 338890
Part 338797
custom 338486
concurrent 338475
Run 338350
ce 338123
Rule@@ 338007
registry 337993
Response@@ 337882
top@@ 337690
fl@@ 337518
ll 337361
t2 337284
CE@@ 336841
Date@@ 336705
MI@@ 336659
85@@ 336642
79@@ 336495
Database 336290
js@@ 336132
many 335935
Layer@@ 335850
__future__ 335719
usr 335249
Memory 335186
Plugin 334979
config@@ 334941
images 334717
af@@ 334636
time_@@ 334602
we@@ 334527
TAG 334431
Param@@ 334406
Attr 334311
Transaction 334294
... 334257
factor 334112
Register@@ 333994
track 333959
end_@@ 333892
Be@@ 333811
RuntimeException 333697
cpu 333596
a/@@ 333490
Tab@@ 333417
stmt 333268
ate_@@ 332777
Var 332714
host@@ 332683
for_@@ 332658
props 332553
dest@@ 332424
prev@@ 332229
ts@@ 332002
tion 331873
Socket 331769
Title 331753
flush 331694
visit 331661
master 331651
thrift 331542
comp@@ 331312
0x6@@ 331245
cs@@ 331183
Body 331029
most 331000
warnings 330902
K_@@ 330829
point@@ 330795
Dis@@ 330786
Form@@ 330723
mat@@ 330512
Menu@@ 330481
progress 330440
du@@ 330143
priority 330090
En@@ 329912
Icon 329861
Stack@@ 329750
SS@@ 329639
model@@ 329501
element@@ 329204
maximum 329120
job@@ 328930
build_@@ 328755
LE 328654
One@@ 328649
ting 328579
how 328425
sk@@ 328360
TE@@ 328116
TO_@@ 328097
definition 328070
Double@@ 327952
ERROR_@@ 327904
span 327776
exp@@ 327405
no_@@ 327316
PO@@ 327282
goto 326752
inter@@ 326599
Ad@@ 326246
qu@@ 326104
basic 325994
once 325768
ated@@ 325160
Delete 325155
ca@@ 325015
CONTRIBUTORS 325006
Inst 324940
config_@@ 324861
Long@@ 324819
Free@@ 324818
Label@@ 324725
ly@@ 324721
setValue 324641
st_@@ 324556
Usage 324532
div 324502
vo 324367
500 324365
Display@@ 324217
Mock 324107
mb@@ 324071
main@@ 324006
means 323912
Timeout 323909
St@@ 323819
records 323724
initialize 323580
mean 323376
helper 323156
Unit@@ 322947
TH@@ 322944
su@@ 322784
info@@ 322764
Mapping 322668
content@@ 322484
ta@@ 322455
000 322383
bu@@ 322322
Geo@@ 322306
ph@@ 322293
Space 322138
ul 322069
assert_@@ 321915
standard 321823
Ex@@ 321769
upper 321647
Variable@@ 321633
28 321370
merge 321185
Mgr 321045
Parent 320752
Hash@@ 320550
Reserved 320448
Record@@ 320400
Child@@ 320264
Register 320194
during 320148
pi 320027
b2@@ 319966
pe@@ 319734
46@@ 319689
dim 319280
Show@@ 319142
token@@ 318735
Job 318519
Common 318449
Local 318420
thread@@ 318420
mock@@ 318141
hostname 318139
coding 318116
Core@@ 317902
Mem@@ 317818
kw 317810
Null@@ 317748
label@@ 317699
VERSION 317568
bucket 317535
red@@ 317527
33 317399
closed 317335
4_@@ 317266
Reset 317217
still 317116
Select@@ 317079
suffix 317060
Section 316914
cp 316688
constants 316684
exc 316640
of@@ 316361
Application 316336
radius 316319
draw 316167
channels 316159
CONTRACT 316097
facebook 316076
units 315992
pc@@ 315738
ates 315473
operations 315234
Comment 315093
Next 315071
uint 315048
psz@@ 315012
Func 314893
Elements 314844
guid 314790
Interval 314767
0x01 314344
les 314287
Child 314165
Copy@@ 314124
zip 313202
contain 313196
rest 313060
change@@ 312857
am 312820
PROVIDED 312694
sleep 312349
Byte@@ 312159
script@@ 312132
Queue@@ 312084
root@@ 311936
Floor 311677
MS@@ 311553
seq 311524
IF 311470
Environment 311131
Enum 311097
Creates 311079
eval 310821
Internal 310705
5.@@ 310546
IN_@@ 310335
do_@@ 310208
Find 309987
Sample@@ 309851
rhs 309720
Address@@ 309514
DEFAULT 309375
First@@ 309203
Extension 308933
DAMAGES 308764
Decl 308747
Host@@ 308744
Events 308595
On 308578
Psi@@ 308524
err@@ 308511
26 308334
fit 308333
orm 308012
nothing 307973
Arg@@ 307750
one@@ 307532
month 307263
Lock@@ 307158
U_@@ 306985
8' 306799
MO@@ 306659
MP@@ 306636
ws 306605
SELECT 306459
Po@@ 306248
append@@ 306059
plugins 305884
ff 305498
c2 305417
edit 305312
msg@@ 305281
75@@ 305255
Save@@ 305055
renderer 305050
texture 305021
Static@@ 304942
I_@@ 304939
right@@ 304909
Order@@ 304881
lin@@ 304857
ad 304773
Number@@ 304582
including 304130
mem@@ 304127
Root@@ 304126
low 304109
sign 303815
vec 303785
Use@@ 303480
EXPRESS 303424
emit 303382
glm 303311
reinterpret_cast 303309
Area 303094
states 303066
getLogger 302978
byte@@ 302912
,@@ 302880
SHALL 302675
LIABLE 302569
binding 302423
Right 302347
Count@@ 302315
least 302214
pc 302117
_f@@ 302093
Move@@ 301785
backend 301693
resource@@ 301401
problem 301324
method@@ 301252
EXPECT_EQ 301145
etc 301142
Instruction 300993
Intent 300971
_path 300925
modified 300920
const_iterator 300760
delay 300656
Warning 300646
PRE@@ 300469
Mode@@ 300445
Selection 300398
min_@@ 300112
sources 300093
materials 300065
dt@@ 300022
Package 299863
cf@@ 299851
One 299792
yet 299549
Ty 299458
TEXT 299163
column@@ 299159
Socket@@ 299090
deleted 299085
render@@ 298876
ARISING 298837
AL_@@ 298781
form@@ 298593
Used 298446
bb@@ 298353
Position@@ 298245
123 298179
summary 298097
ted_@@ 298083
dir@@ 298061
WHETHER 298021
Results 297929
ES 297889
dc@@ 297566
OC@@ 297464
left@@ 297224
_T 297194
dom 297047
3' 296852
tor 296771
dump 296729
FILE_@@ 296710
Bar@@ 296676
BY 296629
shift 296629
Constructor 296576
ct@@ 296562
game 296546
An@@ 296359
ment@@ 296102
Schema 296020
02 296011
fd@@ 295976
Graph@@ 295815
201@@ 295765
bar@@ 295749
*= 295567
Raw@@ 295297
Display 295276
da@@ 295074
2D 295002
below 294997
Bitmap 294958
ou@@ 294932
ver 294767
currently 294719
sc 294671
sent 294646
ON@@ 294631
Remote@@ 294536
ler 294480
StringUtils 294132
Enum@@ 294011
trans 294005
pk 293874
ating 293801
speed 293723
OR@@ 293705
extensions 293682
Protocol 293676
Repository 293440
BO@@ 293369
LEFT 293019
via 292717
cases 292680
Messages 292570
_info 292477
might 292146
Cluster@@ 292066
im 292065
map_@@ 292039
2014 291958
exchange 291944
Can@@ 291860
Role 291786
Support 291764
ST 291616
dy 291372
Sequence 291216
Edge 291198
Franklin 291159
br@@ 291132
SQL@@ 291046
arr 290838
Proxy@@ 290723
charset 290711
date@@ 290668
ment 290655
OTHERWISE 290545
cols 290497
bin@@ 290425
dc 290065
27 289834
got 289658
future 289649
02110-1301 289562
sw@@ 289545
TORT 289519
Vertex@@ 289488
active@@ 289410
loaded 289361
repr 289169
visible 289076
pa@@ 289069
Up@@ 289066
AL 289033
a1 288892
um 288864
CF@@ 288796
Constant 288638
memcpy 288607
u32 288488
substring 288464
Common@@ 288432
Fifth 288296
Do 288232
Net@@ 288229
errno 288216
CL@@ 288060
should@@ 287755
term 287603
Handler@@ 287498
avoid 287162
Binary@@ 286981
QStringLiteral 286781
relative 286687
vec@@ 286662
vals 286478
_SIZE 286241
sync 286196
Rights 286176
kernel 286099
sig@@ 286076
Reference@@ 286047
never 285704
work@@ 285620
'0' 285570
phase 285396
node_@@ 285279
db_@@ 285256
copies 285224
src_@@ 285211
IC@@ 285063
repository 284837
Now 284766
vs 284298
mesh 284232
were 284139
Port@@ 284032
Empty@@ 283979
ALL 283872
200@@ 283866
total_@@ 283843
device@@ 283819
reply 283809
Back@@ 283613
pu@@ 283595
INT 283360
visit@@ 283347
sqrt 283212
0x0000 283113
def@@ 283053
wallet 283028
gt 282960
keep 282925
FF@@ 282921
LO@@ 282513
ec 282225
segment 282220
source_@@ 282090
Packet 282076
ty 281946
port@@ 281940
Operation@@ 281926
needs 281721
OP@@ 281702
Google 281651
size@@ 281289
shell 281132
ings 280987
Test.java"> 280957
seed 280900
Member@@ 280894
png 280844
TS 280826
di 280763
Resolver 280605
tables 280577
Vector3 280517
Initialize 280359
Select 280270
weights 280159
AB@@ 280056
scheme 280024
vm@@ 279948
Member 279874
chars 279782
jetbrains 279769
commons 279532
Calendar 279414
Sp@@ 279279
tool 279179
ses 279144
POST 279139
insert@@ 279077
Feature 278964
sr@@ 278959
le_@@ 278874
Bounds 278793
sun 278482
Protocol@@ 278374
cur 278112
Make@@ 278066
Operator 278032
generate@@ 278013
TR@@ 277861
geo@@ 277678
SQLException 277672
Mapper 277616
text_@@ 277449
Strategy 277319
Unknown 277305
Active@@ 277124
github 277095
display@@ 277026
plugin@@ 277010
N_@@ 276961
Dir@@ 276940
transport 276889
image_@@ 276751
stored 276628
ste@@ 276602
proc 276491
Before 276407
29 276341
auth@@ 276311
fix 276269
take 276049
ev@@ 275923
strcmp 275656
Gets 275617
CODE 275538
HashSet 275454
IS@@ 275352
yy@@ 275189
Created 275026
SuppressWarnings 274981
Random@@ 274922
2013 274807
FIXME 274799
PC@@ 274492
regex 274372
modification 274320
inst 274217
met 273975
IS_@@ 273911
Meta@@ 273853
dirname 273696
NOT_@@ 273665
my_@@ 273551
dd@@ 273508
bundle 273486
by@@ 273459
win@@ 273386
url@@ 273348
OTHER 273093
derived 273019
sIn@@ 272932
Runnable 272838
repo 272752
links 272694
versions 272417
processor 272280
ang@@ 272273
ol@@ 272220
negative 272157
Report@@ 272074
ast@@ 271847
BE@@ 271763
CD@@ 271592
ak@@ 271485
58@@ 271457
ByteBuffer 271435
DO@@ 271113
dev@@ 271063
56@@ 271032
Access 270968
NS 270950
assertNotNull 270900
sa 270790
detail 270679
int64_t 270596
GL 270429
Random 270170
FLAG_@@ 270167
place 270152
Build 270027
ren@@ 269563
error_@@ 269176
ma 269137
Visitor 269103
md@@ 269068
des 268856
led 268700
match@@ 268508
ensure 268485
Dynamic@@ 268292
LA@@ 268280
Converter 268274
Spell@@ 268243
necessary 268182
selected@@ 268065
FI@@ 268058
Api@@ 267724
sn@@ 267714
Folder 267647
members 267617
eq 267490
BYTE 267450
steps 267422
che@@ 267414
media 267349
6.@@ 267266
BOOL 267003
Filename 267000
checks 266914
mod@@ 266639
2015 266556
vertex 266520
json@@ 266402
processing 266212
metrics 266150
Arguments 266122
server_@@ 266093
first_@@ 266091
LOG_@@ 266008
unit@@ 265992
fr@@ 265816
Search 265804
geometry 265782
Ro@@ 265609
0xFF 265598
executable 265580
ap 265494
delete_@@ 265119
subprocess 265050
lo 264951
Selection@@ 264899
six 264828
install 264713
Match@@ 264668
cu@@ 264668
gl 264447
Ex 264386
init_@@ 264218
requires 264075
choice 263918
npc_@@ 263877
OS@@ 263596
\u@@ 263481
Errors 263300
direct 263292
real@@ 263214
Headers 263110
route 263028
scan 263013
version@@ 262898
state_@@ 262827
disk 262809
CS@@ 262755
ds@@ 262656
8" 262498
something 262476
dr@@ 262283
Transaction@@ 262277
Uint32 262204
fragment 262035
window@@ 261843
vertices 261794
Main@@ 261638
0x9@@ 261551
Ar@@ 261398
Min 261314
lock@@ 260917
UP 260788
suite 260692
Tool@@ 260612
abc 260427
move@@ 260322
HRESULT 260227
hi 260130
of_@@ 260125
mm 260114
history 259941
made 259727
Cur@@ 259719
man@@ 259696
Empty 259441
Bar 259439
y1 259419
Account@@ 259384
ct 259323
Details 259206
Top 259078
ob@@ 258978
tri@@ 258957
3.0 258897
snapshot 258738
cv 258727
bs 258710
count@@ 258596
marker 258590
gui 258475
Java 258327
ck@@ 258323
well 258295
3D 258076
ir 258067
36 258054
man 258003
sample@@ 257996
wrap 257903
4" 257861
elem 257847
dependencies 257826
fs@@ 257809
dataset 257764
Direction 257729
Schema@@ 257445
safe 257429
AN 257412
IO 257364
97@@ 257339
Level@@ 257334
Cell@@ 257066
cal@@ 257057
Qt@@ 257044
matching 257038
layer@@ 257009
Settings@@ 256956
der@@ 256791
person 256752
flow 256680
Icon@@ 256673
extern 256657
keyword 256563
delegate 256444
GE@@ 256402
TABLE 256152
runner 256147
Children 256131
cloud 256025
ant 255945
Scroll@@ 255930
et 255925
led@@ 255840
other@@ 255829
RI@@ 255664
Close 255559
Future 255546
edges 255496
hasNext 255465
Mouse@@ 255352
Mo@@ 255314
validation 255151
tree@@ 255103
close@@ 255063
After 255054
disabled 254998
UTF 254936
Resources 254843
Equal 254781
Security@@ 254750
Profile 254736
rec@@ 254572
wxT 254496
Decimal 254312
http@@ 254204
sh 254001
ii 253984
again 253807
Gen@@ 253759
Serializer 253756
cx 253650
command@@ 253590
__class__ 253583
request_@@ 253458
dd 253414
Provider@@ 253364
After@@ 253343
VM 253211
skip@@ 253178
Blocks 253038
bad 252940
Flow@@ 252937
paint 252926
1/@@ 252916
send_@@ 252777
mi 252775
Effect 252725
Profile@@ 252533
ba@@ 252164
Matcher 252146
expect 252127
lists 252097
corresponding 252051
model_@@ 252035
stack@@ 251913
USE_@@ 251908
Doc 251772
period 251724
api@@ 251648
bitmap 251642
Shared@@ 251522
interfaces 251344
rec 251266
Vertex 251031
mail 250904
retval 250886
tile 250864
ally 250863
strlen 250733
every 250662
Feature@@ 250470
sender 250266
m1 249967
high 249680
lu@@ 249592
js 249501
As 249495
35 249448
mem 249330
return_value 249218
Close@@ 249117
HTML@@ 249008
ignored 248996
print_@@ 248921
Encoding 248897
AV@@ 248846
push@@ 248786
requested 248709
setEnabled 248658
Offset@@ 248620
59 248539
not@@ 248521
There 248423
COUNT 248383
34 248351
fixed 248060
sig 247999
getC@@ 247924
game@@ 247874
Expression@@ 247871
activity 247831
cd@@ 247772
RIGHT 247691
rt@@ 247683
cell@@ 247644
84@@ 247581
Async@@ 247563
Found 247391
DateTime 247380
ssl 247295
Auth@@ 247182
Selector 247179
branch 246950
pi@@ 246809
imp@@ 246730
host_@@ 246682
Stop 246612
cookie 246603
Current 246571
m_n@@ 246519
Program 246306
spell_@@ 246256
ke 246184
Rate 246170
scene 246138
Db@@ 246055
CHECK_@@ 245833
Pixel@@ 245783
started 245767
CR@@ 245721
Dialog@@ 245396
The@@ 245328
se_@@ 245132
sl@@ 245089
block_@@ 245057
2012 245043
mp 245042
OutputStream 245018
Category 244954
sm@@ 244821
TIME 244782
Send 244618
Of 244576
GC@@ 244554
START 244466
colors 244440
int64 244344
calling 244298
win 244298
Interface@@ 244265
item_@@ 244261
Any 244260
48 244233
cm@@ 244097
escape 244011
machine 244008
protobuf 243909
0000@@ 243866
Stop@@ 243836
QObject 243825
2d 243798
forward 243775
cm 243732
Setting 243722
those 243682
background 243523
debug@@ 243475
Clear 243442
sec 243391
Engine@@ 243369
Expected 243006
core@@ 242987
ME@@ 242983
cnt 242913
ml@@ 242880
execution 242859
ARE 242792
gs 242664
answer 242628
fname 242599
WHERE 242541
trans@@ 242468
Fragment 242446
ones 242423
inside 242387
Scan@@ 242320
string_@@ 242305
Cannot 242289
SAY_@@ 242122
sa@@ 242041
a2 242038
Duration 242020
These 242015
SQL 241915
Insert@@ 241906
54@@ 241854
Parse 241800
not_@@ 241745
Comp@@ 241604
at_@@ 241557
free@@ 241520
ans 241278
header@@ 241230
fail_json 241207
Inter@@ 241131
dist@@ 241029
representation 240982
Platform@@ 240921
QVariant 240876
formats 240858
Validator 240842
ant@@ 240725
instruction 240719
Affero 240633
font@@ 240520
frames 240479
\t@@ 240431
Import@@ 240417
Track@@ 239886
handle_@@ 239869
cap@@ 239767
CT@@ 239748
curr@@ 239596
clean 239428
Condition 239418
asList 239254
memset 239134
directly 239095
pixel 239069
status_code 239054
con 239002
views 238964
DO 238935
IL@@ 238921
MASK 238918
value_@@ 238887
Fixed@@ 238861
getCurrent@@ 238821
edge@@ 238749
V_@@ 238742
deprecated 238674
encoded 238624
Driver 238545
attribute@@ 238449
mutex 238422
Execution@@ 238405
Region@@ 238366
Al@@ 238287
scan@@ 238283
mu@@ 238257
AP_@@ 238150
tion_@@ 238118
fabric_mod_name 238014
docs 237987
extra_@@ 237987
Col@@ 237965
ft@@ 237937
loads 237921
allow@@ 237863
FAILED 237816
round 237800
Axis 237625
Mesh@@ 237376
0.1 237079
ser@@ 236997
37 236933
translate 236932
sess 236868
ax@@ 236854
isn 236838
NPT_@@ 236708
tensor 236704
ine@@ 236547
Cell 236504
Save 236471
Program@@ 236329
90 236305
s_to_@@ 236259
Print 236206
Strings 236008
Paths 235981
CON@@ 235975
attr@@ 235944
archive 235940
2.1 235904
numbers 235784
0x30 235744
comments 235628
Tuple 235604
UChar 235540
look 235479
Shader@@ 235390
event_@@ 235379
SET 235333
ll@@ 235216
03 235177
_file 235144
vertex@@ 234939
permitted 234920
works 234857
bug 234690
know 234468
Metadata@@ 234452
Domain 234450
Information 234363
Amount 234316
Move 234293
Comparator 234244
Dictionary 234221
graphics 234193
complex 234187
ger 234187
NPC_@@ 234175
BOOST_@@ 234065
_1 234052
capacity 234049
result_@@ 234007
Sync@@ 233983
Exchange 233754
effect 233727
pos@@ 233653
module_@@ 233605
Up 233512
o_@@ 233488
ImportError 233355
Foo 233238
home 233149
cor@@ 233108
Unable 232998
Endpoint 232964
group_@@ 232921
ay@@ 232850
project@@ 232833
Policy@@ 232794
getKey 232702
sock 232697
mapper 232648
Th@@ 232641
hex 232506
API@@ 232497
HTML 232466
Se@@ 232438
GET_@@ 232417
Binding 232392
VI@@ 232381
tions 232349
pri@@ 232223
Slot 232221
parsed 232198
ins 232169
iter@@ 232156
dummy 232093
buffer@@ 231962
PR@@ 231878
URL@@ 231745
resolve 231738
bound 231659
Option@@ 231644
ber@@ 231539
Left@@ 231519
mark@@ 231518
Account 231417
threshold 231337
precision 231227
O_@@ 231198
over@@ 231048
inheritDoc 231000
Src@@ 230981
Distance 230917
custom@@ 230907
loc@@ 230828
UUID 230778
99 230601
Widget@@ 230544
handlers 230537
96@@ 230137
edit@@ 230124
face 230099
property@@ 230079
Classpath 230061
Word 230031
session@@ 229976
Direct@@ 229950
hi@@ 229814
2011 229812
ed_@@ 229780
screen@@ 229724
mon@@ 229702
Can 229665
uint64_t 229622
OP 229544
connections 229447
7.@@ 229238
thrown 229238
ACTION_@@ 229235
getProperty 229211
tile@@ 229123
_ptr 229057
"1" 229047
Report 229026
Pool@@ 228855
dirs 228820
8.@@ 228812
sz 228625
bean 228595
LINE 228591
Sql@@ 228562
starting 228558
Q_@@ 228515
QLatin1String 228496
sep 228348
0x 228342
0x01@@ 228194
instance@@ 228152
float@@ 228100
2f 228057
codes 228043
Shader 227988
retain 227932
getText 227927
Win@@ 227785
independent 227632
NAME_@@ 227631
parent_@@ 227415
tensorflow 227336
act 227329
java@@ 227309
Constraint 227308
Return@@ 227139
wxString 227038
contrib 227022
scroll@@ 227008
Virtual@@ 226968
context@@ 226686
Example 226655
Temp@@ 226619
_value 226522
url_@@ 226512
r1 226510
Pass 226471
Iter 226459
ni@@ 226434
class_@@ 226403
HEADER 226284
remove_@@ 226166
Shape@@ 226133
localhost 226097
pack 226048
2010 225742
DA@@ 225742
accompanying 225649
wrong 225425
Lookup@@ 225391
Screen@@ 225356
agent 225203
identity 225149
store@@ 225102
loading 224936
separator 224834
own 224814
Null 224711
implemented 224706
FE@@ 224681
bb 224602
actually 224521
tok 224428
45 224257
indexOf 224241
psi 224231
oo@@ 224201
invoke 224140
Top@@ 224123
Decoder 224069
partition 224020
ded 223991
initialized 223976
BB 223859
95@@ 223779
ity@@ 223750
LOG@@ 223691
cur_@@ 223667
named 223602
Ndb@@ 223558
array@@ 223509
small 223504
IM@@ 223500
Obj@@ 223395
Parser@@ 223355
codec 223346
Debug 223281
sin 223258
\d 223240
pp 223137
ED_@@ 223083
Msg@@ 223074
management 222997
BSD 222988
sy@@ 222982
json_@@ 222762
button@@ 222656
maps 222573
ep@@ 222555
0000 222542
Me@@ 222532
filter_@@ 222492
light@@ 222471
verify@@ 222369
reading 222262
topic 222248
rel 222104
isValid 222070
MD@@ 222036
ax 221958
TT@@ 221732
fo@@ 221701
Directory@@ 221689
front 221637
/src/main/java/org/@@ 221451
76@@ 221428
Standard@@ 221380
md 221331
begin@@ 221232
FS@@ 221152
msg_@@ 221091
addresses 221055
HTTP@@ 221049
itself 220791
Location@@ 220477
cluster@@ 220431
lineno 220421
Step@@ 220336
Delegate 220324
select@@ 220324
Actions 220265
pytest 220216
Clear@@ 220169
prior 220093
Parent@@ 219989
global@@ 219948
size_@@ 219805
MAP 219535
uint16_t 219511
的@@ 219504
connection@@ 219501
Tab 219468
Surface 219317
function@@ 219199
Collection@@ 219186
External@@ 219125
Screen 219103
D3D@@ 219085
Last 219023
super@@ 218969
cache_@@ 218931
ci 218818
native@@ 218718
finished 218694
fix@@ 218694
specify 218694
2000 218692
MS 218558
Entries 218442
digits 218401
Rest@@ 218352
DAMAGE 218302
download 218271
word@@ 218144
Angle 218091
Paint 218079
Character 217849
cmd@@ 217750
random@@ 217652
external 217572
Convert 217438
Right@@ 217437
HOLDERS 217415
secret 217280
Serializable 217271
plot 217234
icon@@ 217227
this@@ 217063
ForeignKey 216987
Signature 216969
Transform@@ 216964
LE_@@ 216955
ing/@@ 216951
Could 216932
ca 216897
constraint 216863
Edit 216812
Body@@ 216711
m_i@@ 216687
Main 216607
pairs 216595
SE 216578
.0 216577
d1 216540
case@@ 216518
Release 216402
ST_@@ 216399
SO@@ 216395
float32 216373
om@@ 216334
Timestamp 216326
object_@@ 216272
ext@@ 216250
MM@@ 216224
LENGTH 216178
Named@@ 216121
bl@@ 216078
s/tree/master/@@ 216034
behavior 215991
Work@@ 215945
Case 215922
FIELD 215907
includes 215808
Mat 215791
parsing 215783
light 215769
registered 215750
full@@ 215731
PREFIX 215718
mouse@@ 215689
MetaData 215666
Rows 215657
2008 215601
selector 215499
Segment 215176
emit@@ 215161
api_@@ 214697
cal 214652
return@@ 214604
uni@@ 214540
tail 214496
si 214484
destroy 214365
Play@@ 214259
DIRECT 214168
Push@@ 214164
comp 214140
ents 214128
u_@@ 214118
Failure 213958
record@@ 213957
sFor@@ 213919
order@@ 213869
Constant@@ 213845
inner 213831
ld@@ 213756
ge 213693
pixels 213621
ent_@@ 213535
configure 213321
Password 213265
UR@@ 213253
AG@@ 213252
minimum 213224
0x65 213151
rank 213115
Down 213075
SM@@ 212948
low@@ 212924
browser 212906
days 212894
t/@@ 212833
Depth 212739
op_@@ 212738
aa@@ 212728
pt@@ 212722
checked 212710
zeros 212656
MI 212584
RA@@ 212579
servlet 212460
slice 212329
BOOST_CHECK_EQUAL 212327
m2 212316
rule@@ 212166
Lines 212145
1. 212118
QWidget 212112
Edge@@ 212060
pages 212032
0. 212019
int_@@ 211997
Tool 211769
due 211769
ef@@ 211748
INVALID_@@ 211682
book 211628
WAY 211560
surface 211539
DEBUG_@@ 211386
layers 211340
KEY@@ 211325
Bool 211307
er/@@ 211231
contributors 211203
Network 211169
AST 210771
ous 210754
padding 210750
entities 210630
98@@ 210518
rand 210391
RGB 210375
ser 210349
&= 210255
norm 210222
notification 210159
loss 209968
Geometry 209934
track@@ 209934
series 209903
table_@@ 209892
da 209883
proxy@@ 209866
GP@@ 209863
compute@@ 209740
client_@@ 209684
Struct 209574
PA@@ 209558
END_@@ 209428
Begin 209187
gu@@ 209185
Package@@ 209170
let@@ 209165
erase 209139
UP@@ 209123
CM@@ 209081
DOM@@ 209079
h_@@ 209054
uint256 208993
fill@@ 208947
response@@ 208768
y2 208708
Ansible 208671
ACTION 208629
cancel 208615
Platform 208586
path_@@ 208584
instance_@@ 208532
Executor 208491
spi 208474
Le@@ 208455
SPECIAL 208453
hosts 208160
hello 208097
DS 208055
b1 207988
Consumer 207976
setName 207956
NP@@ 207875
pragma 207810
connected 207727
TION 207688
packages 207622
Def@@ 207571
ko@@ 207514
3D@@ 207499
Res@@ 207050
s\ 207021
Drag@@ 206992
3d 206985
console 206965
classmethod 206943
CA@@ 206938
InterruptedException 206935
large 206921
caller 206919
painter 206834
1L 206832
remote@@ 206817
ance 206654
sd@@ 206627
devices 206604
Extension@@ 206602
generic 206596
Callback@@ 206514
_c@@ 206486
peer 206412
Sequence@@ 206314
97 206203
opcode 206200
KeyError 206074
creating 206074
94@@ 205957
reset@@ 205731
World@@ 205654
10000 205647
Language 205605
provide 205535
CG@@ 205464
4' 205209
w_@@ 205125
ali@@ 205123
split@@ 205056
QList 205044
intent 205026
IT@@ 204985
module@@ 204967
tp 204913
trigger 204803
W_@@ 204765
Chain 204608
ATION 204596
PE@@ 204557
step@@ 204546
action_@@ 204442
entity@@ 204324
FF 204299
initial@@ 204271
0x80 204261
setup@@ 204228
US 204206
ary 204195
printStackTrace 204172
assign 203960
30@@ 203947
getNum@@ 203888
sql@@ 203874
Factory@@ 203865
Bytes@@ 203754
Mesh 203723
lex@@ 203611
2/@@ 203494
hook 203472
installed 203471
adapter 203383
Should 203336
cd 203311
together 203309
WARNING 203276
format_@@ 203219
git 203166
ls@@ 203078
Bean@@ 203015
collections 202914
PRO@@ 202873
Tex@@ 202873
78@@ 202857
y/@@ 202710
DC 202599
Methods 202583
Author 202551
Loop 202501
allocate 202494
fc@@ 202423
LIST 202397
ded@@ 202253
gc 202152
range@@ 202134
%@@ 202100
Codec 202062
Sort@@ 202029
Groups 201905
sPer@@ 201893
Normal 201876
comm 201745
original@@ 201735
player@@ 201618
ignite 201609
style@@ 201608
rel@@ 201604
quote 201492
Tr@@ 201456
message_@@ 201411
remaining 201306
constraints 201160
Section@@ 201124
Argument 201095
Scalar 201068
\0' 200916
inv 200891
spell 200867
Word@@ 200635
MIT 200500
Annotation@@ 200247
Ptr@@ 200229
1.1 200107
power 200089
39 200069
tool@@ 200047
101 200013
ac 199988
Light@@ 199941
validate@@ 199909
grid@@ 199815
\\u@@ 199776
COPYING 199553
aliases 199450
register_@@ 199443
who 199414
ru@@ 199399
iz@@ 199394
best@@ 199271
cleanup 199246
dimension 199223
tu@@ 199129
ine 199062
mer@@ 198985
Contact@@ 198824
QCOMPARE 198605
Packet@@ 198588
Pattern@@ 198564
authors 198460
Active 198368
internal@@ 198265
ind 198241
Columns 198230
monitor 198208
GO@@ 198202
Tx@@ 197935
apps 197935
trim 197895
1f 197830
Batch@@ 197791
system@@ 197672
swap 197652
Required 197629
cv@@ 197596
<DOCUMENT_ID="j@@ 197595
play@@ 197578
ev 197534
yes 197534
inner@@ 197438
DOUBLE 197368
opt@@ 197305
cos 197118
Space@@ 197059
CE 197051
fails 197040
Tile@@ 196943
0x1@@ 196929
04 196881
urllib 196856
LOSS 196843
updates 196821
MODE_@@ 196814
ari@@ 196698
cn@@ 196624
DELETE 196580
Sound@@ 196528
servers 196500
Grid 196485
ports 196474
sed 196463
ue@@ 196444
Annotation 196321
matcher 196308
ratio 196237
STRICT 196229
EVEN 196130
shutdown 196095
long@@ 196071
urls 196006
team 195664
INDIRECT 195508
FA@@ 195422
border 195407
clazz 195271
Rec@@ 195262
0.00@@ 195261
save_@@ 195243
cached 195231
UErrorCode 195138
errorCode 195073
sign@@ 195007
OF_@@ 194997
network@@ 194988
ai 194944
Valid 194893
mt@@ 194813
EL@@ 194794
_n@@ 194783
appropriate 194735
_set_@@ 194615
sort@@ 194497
search_@@ 194170
btScalar 194115
38 194094
Factor 194026
d2 193979
cert 193969
AttributeError 193944
IDs 193938
STATUS_@@ 193931
Pos@@ 193907
arrays 193872
VM@@ 193724
tm 193694
Library@@ 193650
Animation 193625
reproduce 193567
Scene 193516
3f 193494
Bad@@ 193452
r2 193396
Activity@@ 193389
rb 193369
So@@ 193340
scheduler 193265
STR 193264
Done 193204
TC@@ 193134
against 193124
DOWN 193108
CONSEQUENTIAL 193032
enable@@ 193028
Trace@@ 192992
Functions 192973
down@@ 192937
cli@@ 192922
Env 192921
publish 192921
Over@@ 192906
ie@@ 192895
FileSystem 192798
family 192789
video@@ 192604
plane 192594
ret@@ 192567
ERR 192465
multi 192404
car@@ 192364
ml 192281
ab 192264
facts 192237
allows 192180
startsWith 192165
xx 192034
OF@@ 192010
Loop@@ 191988
MAX@@ 191980
panel 191980
ity 191973
distribute 191943
QName 191885
process_@@ 191871
NOTE 191829
Ctx 191801
Safe@@ 191752
products 191744
JSON@@ 191720
Length@@ 191623
fake 191570
enough 191542
serialVersionUID 191525
are@@ 191514
align 191482
enumerate 191467
age@@ 191438
Indices 191431
PROFITS 191404
BOX 191368
9.@@ 191366
Hello 191315
notify 191315
ators 191254
Full@@ 191206
IllegalStateException 191109
_state 191055
ENABLE 190873
Area@@ 190823
Domain@@ 190822
NEGLIGENCE 190756
2009 190604
Phase 190571
best 190535
cost 190508
authentication 190456
fetch 190397
status@@ 190339
Trans@@ 190300
Try 190274
known 190236
SUCH 190234
05 190143
\xb@@ 190028
co 189974
DS@@ 189969
ack@@ 189910
Rect@@ 189852
Redistribution 189731
mode@@ 189727
fr 189602
0L 189573
_0 189550
call_@@ 189542
CONFIG_@@ 189536
WI@@ 189424
Li@@ 189420
SD@@ 189409
cat 189376
Col 189344
Origin 189309
199@@ 189289
NON 189176
provides 189156
valid@@ 189117
LoggerFactory 189111
met@@ 189071
Cmd 188912
SUBSTITUTE 188838
TextView 188834
ables 188803
edu 188802
44 188770
ach@@ 188766
slf4j 188738
finish 188716
automatically 188675
symbols 188672
show_@@ 188506
Chars 188485
margin 188482
Notification@@ 188438
Runtime@@ 188412
sion@@ 188329
TARGET_@@ 188301
credentials 188218
Transport@@ 188192
Scene@@ 188181
UM@@ 188160
STATE 188146
post_@@ 188117
SERVICES 188082
buffers 188081
Res 188067
index_@@ 188067
coordinates 187972
0f 187871
partner 187843
filesystem 187803
big@@ 187745
beans 187718
Contact 187644
member@@ 187541
boot 187531
e1 187527
clock 187378
Mutex 187369
decoder 187357
sv@@ 187328
ARRAY 187316
fin@@ 187290
cy@@ 187202
ED@@ 187166
Linear@@ 187127
port_@@ 187057
Received 186792
Admin@@ 186685
Speed 186668
Compiler 186635
\sa 186595
Cloud@@ 186546
around 186544
good 186507
qs 186476
Otherwise 186466
translation 186451
Real@@ 186434
CI@@ 186433
UL 186424
perform 186382
numberOf@@ 186355
400 186310
Team 186307
Owner 186301
Master@@ 186298
consumer 186250
ord 186156
part@@ 186117
Split@@ 186071
row_@@ 186060
MSG_@@ 186050
DF@@ 185996
pb@@ 185991
array_@@ 185960
attempt 185947
Animation@@ 185946
f1 185902
Progress 185895
Effect@@ 185800
Properties@@ 185771
absent 185761
GOODS 185756
Append 185750
callable 185668
able_@@ 185650
INCIDENTAL 185641
Go@@ 185635
0.5f 185630
graph@@ 185615
UC@@ 185593
Show 185572
dl@@ 185565
fake_@@ 185506
Verify 185487
MODE 185429
entry@@ 185419
POSSIBILITY 185379
sf 185321
ADVISED 185316
Val@@ 185145
Cap@@ 185116
cre@@ 185105
executor 185027
PP@@ 184977
widgets 184958
DISCLAIMED 184900
Contents 184762
0x74 184754
enter 184751
include@@ 184700
sprintf 184617
i1 184579
bind@@ 184532
THEORY 184497
click 184448
mar@@ 184448
EX@@ 184412
BUSINESS 184295
HOWEVER 184265
refresh 184229
dumps 184198
UL@@ 184108
'1' 184082
task_@@ 184042
FIELD_@@ 184021
CAUSED 183988
FAIL 183970
ash@@ 183936
SVG@@ 183737
layout@@ 183697
rep 183588
ons 183567
visitor 183478
0xB@@ 183474
TED 183399
INTERRUPTION 183395
41 183387
evaluate 183336
NUM_@@ 183316
extract 183316
BigInteger 183234
\x8@@ 183210
BigDecimal 183156
PROCUREMENT 183152
EXEMPLARY 182961
audio 182945
Timer@@ 182922
off@@ 182908
template_@@ 182880
Material 182829
particular 182752
Classes 182741
Case@@ 182728
nd@@ 182725
Enable 182650
den@@ 182543
dp 182506
0x03 182428
ERR_@@ 182380
query_@@ 182355
Bit 182328
Drop@@ 182312
Lib@@ 182281
metric 182182
cond 182141
nor 182098
stage 182072
feed 182041
pad 181991
Don 181990
m_h@@ 181941
Short@@ 181927
aws 181913
ix@@ 181893
sparse 181864
uint64 181857
cmd_@@ 181761
global_@@ 181698
className 181683
positive 181662
common@@ 181546
boss_@@ 181520
Enable@@ 181519
offset@@ 181504
TION_@@ 181480
Alignment 181460
literal 181375
date_@@ 181223
Cast@@ 181181
Func@@ 181174
thenReturn 181059
an_@@ 181053
try@@ 181033
CLASS 181021
gs@@ 180961
spaces 180946
32_@@ 180926
Character@@ 180868
getDefault@@ 180803
flow@@ 180770
sym 180765
revision 180747
\xe@@ 180733
persistence 180723
scalar 180698
/test/@@ 180645
Any@@ 180645
price 180628
export 180563
Lists 180531
tid 180509
sizes 180497
OR_@@ 180473
windows 180455
Pass@@ 180442
MIN@@ 180368
0x02 180331
Void 180313
did 180274
0x61 180051
reporter 179954
sum@@ 179932
Draw 179881
Dimension 179853
execute@@ 179798
indexes 179792
counts 179759
seek 179717
Ext@@ 179578
Metrics 179545
report@@ 179495
Zero 179461
Mat@@ 179282
decimal 179246
exec@@ 179168
nio 179149
LOCK 179017
_count 178934
alloc 178872
IR@@ 178838
anything 178833
sentry 178722
prepare@@ 178721
fb@@ 178690
IF@@ 178667
Person 178581
oprot 178575
Old@@ 178422
ld 178386
amazonaws 178385
simple@@ 178377
ize 178350
stub 178306
Success 178206
Mod@@ 178186
CA 178180
GR@@ 178180
orientation 178179
Other 178175
isNull 178141
queue@@ 178052
Plan@@ 178015
Sample 177987
camera 177985
require 177864
Conf 177801
Game 177790
2D@@ 177703
dump@@ 177641
Marker 177583
zip@@ 177534
adding 177483
response_@@ 177394
Url@@ 177341
force@@ 177336
serialize 177326
QStringList 177302
Real 177209
52 177009
shader 176999
give 176994
getRe@@ 176957
scale@@ 176862
ie 176775
func_@@ 176767
basename 176761
63 176695
Diff 176685
_get@@ 176661
ready 176646
really 176643
actual@@ 176605
Segment@@ 176602
eng@@ 176577
package@@ 176569
Short 176483
sin@@ 176439
division 176431
gui@@ 176359
mac 176356
Lo@@ 176317
determine 176191
qt 176145
setProperty 176122
s.py"> 175962
Volume 175961
PyObject 175956
CC 175906
pixel@@ 175905
UNKNOWN 175904
address@@ 175833
BEGIN 175823
argument_spec 175811
NotImplementedError 175768
redirect 175656
traceback 175638
res_@@ 175607
code_@@ 175592
Builder@@ 175549
Suite 175544
convert@@ 175524
strategy 175447
2d@@ 175401
tz@@ 175400
Features 175277
5" 175248
issue 175158
evt 175119
ClassName 175078
Sc@@ 175075
UnsupportedOperationException 175060
sion 174942
Complete 174878
board 174864
operand 174841
menu@@ 174763
Argument@@ 174707
Predicate 174690
ite@@ 174639
Comment@@ 174579
FLAGS 174459
handling 174428
Part@@ 174380
Switch@@ 174346
70 174323
iprot 174248
Fake@@ 174247
coords 174224
Rules 174180
Constraint@@ 174065
Off 174059
Tags 173998
TimeUnit 173994
Json 173978
\xa@@ 173903
three 173901
att@@ 173863
yp@@ 173815
Big@@ 173635
pipeline 173630
WebCore 173560
apply@@ 173558
animation 173540
StringIO 173531
Attr@@ 173298
pop@@ 173214
Mapping@@ 173210
channel@@ 173060
08 172968
affiliates 172967
gmail 172956
Partition@@ 172889
Dao 172859
GetGUID 172848
Variant 172733
stat@@ 172657
if_@@ 172600
Unicode 172541
PS@@ 172534
Std@@ 172492
FilePath 172451
pts 172362
references 172285
sel@@ 172186
instructions 172178
formatter 172173
rm@@ 172172
ee@@ 172163
SA@@ 172070
fire@@ 172067
Shadow@@ 172026
del@@ 172011
course_@@ 172007
3d@@ 171997
ordering 171979
Agent 171860
UINT 171830
mis@@ 171782
btVector3 171768
Allocator 171708
0,@@ 171693
tp@@ 171682
Progress@@ 171653
cli 171603
FORMAT 171579
2006 171485
READ 171470
Symbol@@ 171419
site@@ 171348
receive 171342
8_@@ 171248
processed 171216
std@@ 171187
foo@@ 171175
raises 171132
_test_@@ 170968
correctly 170931
Lookup 170929
Global 170910
ace 170783
war@@ 170703
previous@@ 170646
Emit@@ 170642
gets 170635
Radius 170566
ster@@ 170509
sList 170498
inf 170470
upload 170453
absolute 170424
creation 170389
Namespace 170377
async 170361
Tracker 170297
Notification 170278
requirements 170271
ments 170206
Reset@@ 170195
certificate 170119
parameter@@ 170109
Ac@@ 169992
child_@@ 169987
_check_@@ 169934
header_@@ 169868
b2 169845
Android@@ 169841
1e@@ 169774
Capacity 169734
Ho@@ 169708
nb@@ 169702
whole 169674
endswith 169660
ASSERT_@@ 169618
DataType 169571
gp@@ 169566
very 169556
rest@@ 169555
Scale@@ 169528
m_ui@@ 169523
root_@@ 169507
Mockito 169466
tl@@ 169450
Mixin 169428
0-@@ 169422
head@@ 169387
XXX 169383
variant 169330
74@@ 169313
raw_@@ 169301
ance@@ 169257
StringBuffer 169218
dom@@ 169206
lat@@ 169172
cloud@@ 169052
Spec@@ 169023
analysis 169021
Bitmap@@ 168981
Integer@@ 168968
STR@@ 168962
Volume@@ 168894
PL@@ 168881
representing 168791
Car@@ 168678
currency 168645
History@@ 168641
converter 168641
AT 168615
control@@ 168582
MenuItem 168544
resolve@@ 168541
bp 168502
Definition@@ 168465
Center 168332
clip 168312
Touch@@ 168190
scripts 168188
iteritems 168123
SET_@@ 168090
holder 168007
buff 167988
router 167966
strict 167960
Alpha 167868
saved 167836
Repository@@ 167683
tb 167672
hidden 167623
aw@@ 167610
var_@@ 167557
checking 167553
exclude 167475
Pending@@ 167454
ends 167380
Pane 167360
drop 167355
rotation 167354
0x04 167342
component@@ 167321
Street 167280
Ti@@ 167260
Corporation 167163
SUB@@ 167119
hide 167049
diff@@ 166950
getParent 166860
granted 166826
ker@@ 166771
65 166729
Skip 166642
2007 166637
az@@ 166559
07 166558
add_argument 166474
receiver 166418
x0 166413
xml_@@ 166405
ati@@ 166388
by_@@ 166317
DE 166308
conversion 166292
uint16 166258
PORT 166233
Down@@ 166226
vector@@ 166214
Elem 166202
restriction 166159
assertIn 166034
pending 165984
dat@@ 165892
Android 165878
cast@@ 165833
56 165814
inv@@ 165775
sed@@ 165769
Join@@ 165624
blue 165591
Proto 165590
configured 165528
INDEX 165482
ass@@ 165448
Units 165445
ability 165375
q_@@ 165370
300 165363
Exists 165276
ONE 165274
PsiElement 165266
wtx 165264
Called 165183
Normal@@ 165176
Endpoint@@ 165130
handled 165089
Merge@@ 165075
ft 165046
vm_@@ 165040
SU@@ 164982
101@@ 164955
Total@@ 164937
PAR@@ 164929
AI@@ 164912
replace@@ 164883
Guid 164876
examples 164861
Release@@ 164845
Bo@@ 164839
numeric 164826
/t@@ 164737
seq@@ 164726
\x9@@ 164656
Par@@ 164616
master@@ 164570
Available 164548
drop@@ 164496
ImmutableList 164467
Place 164336
generate_@@ 164239
share 164213
hit 164204
calculate 164175
1-@@ 164051
method_@@ 163998
ters 163904
serial 163886
module_utils 163870
Async 163629
calendar 163589
Const 163585
Delta 163570
coordinate 163560
Priority 163524
Checker 163511
55 163417
Put@@ 163404
With 163353
St 163325
0/@@ 163302
templates 163274
cmp 163230
thread_@@ 163083
VK_@@ 163070
s-@@ 163055
ty@@ 163005
Score 162949
greater 162938
return_@@ 162926
nested 162864
ScheduleEvent 162856
INSTANCE 162802
\xf@@ 162791
Append@@ 162785
/j@@ 162756
unused 162741
k/@@ 162691
FLOAT 162668
Literal 162664
Fi@@ 162609
SS 162579
import@@ 162576
vout 162534
"0" 162455
linear 162406
train 162391
happen 162314
vin 162314
1_0 162306
addAll 162292
Drawable 162213
nt 162194
getS@@ 162177
decode@@ 162106
06 162099
2005 162078
75 162069
CScript 162069
setup_@@ 162063
Formatter 162053
HANDLE 162038
Wait 161928
Cached@@ 161906
worker 161821
5_@@ 161779
rt 161698
Delay 161676
Valid@@ 161620
Encoder 161586
takes 161554
transactions 161545
codecs 161533
S_OK 161496
tw@@ 161495
wso2 161461
pl 161427
U_FAILURE 161391
paint@@ 161372
Chunk 161309
unchecked 161289
alignment 161185
syntax 161180
arch 161164
drag@@ 161103
thing 161054
geom 161053
position@@ 160985
view_@@ 160977
oc@@ 160878
ter_@@ 160877
texture@@ 160855
mb 160852
Transfer@@ 160824
_2 160735
Axis@@ 160734
assert_ 160673
_create_@@ 160647
browse 160623
RETURN 160615
f2 160589
Language@@ 160549
Pointer@@ 160508
43 160500
Stmt 160441
mid 160437
ze@@ 160422
meta@@ 160413
implement 160349
Checks 160307
tc 160254
cerr 160237
tz 160178
any@@ 160161
found@@ 160138
css 160120
Role@@ 160069
NLS 160056
SSL 160051
shared_ptr 159994
50@@ 159939
Term 159901
ence 159873
HAS_@@ 159869
Flag@@ 159851
ary@@ 159833
ath@@ 159827
Variables 159810
inventory 159759
ud@@ 159725
Bind@@ 159712
Reader@@ 159559
max_length 159551
Ops 159457
bad@@ 159442
staticmethod 159422
DateTime@@ 159330
sys@@ 159187
company 159182
access@@ 159071
Fragment@@ 159068
buffer_@@ 159054
info_@@ 158992
successful 158975
plt 158963
pk@@ 158920
boundary 158847
actor 158753
Paint@@ 158750
sto@@ 158740
Structure 158739
Rectangle 158711
unless 158606
pd 158605
40@@ 158596
Track 158590
positions 158561
contained 158541
Canvas 158538
History 158348
Camera 158306
addr@@ 158269
stride 158269
JSONObject 158255
Setup 158177
pentaho 158161
heap 158145
lhs 158087
sample_@@ 158085
supplied 157999
BOOST_TEST 157971
audio@@ 157909
fc 157907
container@@ 157905
document@@ 157825
green 157769
ist@@ 157718
Qu@@ 157711
QtGui 157640
i2 157583
Implementation 157580
gt@@ 157566
prop@@ 157519
Ste@@ 157503
512 157501
QByteArray 157471
deal 157448
MIN 157285
0.5@@ 157255
Insert 157245
LL@@ 157211
volatile 157198
Vec@@ 157133
Iterable 157086
restore 157028
pm 157015
ack 156956
errln 156931
RGB@@ 156876
hint 156868
Tuple@@ 156826
lookup@@ 156774
BB@@ 156766
Boolean@@ 156680
ip_@@ 156629
Authentication@@ 156623
mac@@ 156610
ranges 156601
Fix@@ 156557
Cluster 156551
Keyword 156537
yarn 156487
reduce 156429
absolute_import 156252
REF 156243
States 156229
ut 156219
He@@ 156217
seen 156199
3/@@ 156170
whitespace 156150
cached@@ 156149
netty 156143
resource_@@ 156128
CRC 156052
Opcode 156052
fn@@ 156050
v3 156048
em@@ 156016
one_@@ 155803
Z_@@ 155798
context_@@ 155770
gyp 155770
Fetch@@ 155764
Disk@@ 155657
com@@ 155652
Password@@ 155649
Also 155605
\xc@@ 155590
Each 155568
Fn 155545
ht@@ 155538
Err 155527
47 155505
sound 155445
shall 155404
program@@ 155302
completed 155147
dtypes 155114
klass 154976
Equals 154972
template@@ 154928
jo@@ 154923
TED_@@ 154920
partial 154906
Fast@@ 154870
Selected 154861
Tri@@ 154840
Imp@@ 154804
fieldName 154755
sCount 154751
Cast 154714
dst_@@ 154712
SV@@ 154703
qt@@ 154672
option@@ 154663
il 154631
converted 154624
mal@@ 154614
whose 154589
son@@ 154587
Assert@@ 154480
Route@@ 154447
SR@@ 154336
starts 154262
spec@@ 154257
Login@@ 154219
subclass 154199
LGPL 154140
active_@@ 154126
eb@@ 154092
link_@@ 154084
men@@ 154068
Cursor@@ 154040
Observer 154019
NullPointerException 154013
Fill@@ 153985
Visible 153972
applied 153959
Condition@@ 153941
Alloc@@ 153828
RC@@ 153828
digest 153820
Services 153786
px 153770
GPL 153714
Is 153688
play 153656
Te@@ 153640
segments 153588
containsKey 153549
CPU 153529
after@@ 153405
VER@@ 153389
Only@@ 153380
Revision 153368
fetch@@ 153353
len@@ 153276
lan@@ 153262
FL@@ 153239
Api 153210
ascii 153193
presto 153158
legal 153135
refresh@@ 153129
reflect 153095
logic 153054
fi 152936
ness 152925
Cmd@@ 152821
ATION_@@ 152794
Exit 152793
level@@ 152786
http_@@ 152775
Html@@ 152722
rtype 152630
count_@@ 152607
Gui@@ 152586
bus 152562
e2 152555
tors 152554
add_option 152533
ta 152435
Red 152344
findViewById 152303
blob 152252
OBJECT 152172
matched 152102
release@@ 152054
Click 152025
_Get@@ 152001
pylint 151857
Props 151853
Hint 151850
beta 151824
fail@@ 151755
dependency 151716
ordered 151671
nova 151611
file_name 151575
Sig@@ 151568
dynamic 151562
req@@ 151551
Runner 151520
other_@@ 151489
ClassLoader 151479
u8 151471
Ret 151465
GUI 151404
Snapshot@@ 151359
fun@@ 151313
assigned 151312
csv 151294
INT@@ 151292
Mark 151276
09 151268
material 151264
allocated 151239
TextField 151153
Threads 151145
Vi@@ 151097
wi@@ 151075
Weight 150938
tra@@ 150934
GET@@ 150877
Spell 150877
storage@@ 150875
CB@@ 150809
re_@@ 150676
jar 150657
INTEGER 150641
bot 150622
/src/main/java/com/@@ 150562
Selected@@ 150537
sel 150429
sq@@ 150382
Pair@@ 150381
Poly@@ 150318
Focus@@ 150243
_SH@@ 150232
listeners 150071
la 150068
offsets 150067
GUI@@ 150065
mask@@ 150049
DD@@ 149970
FC@@ 149969
Temp 149895
freq 149823
hour 149821
MM 149741
Super@@ 149696
UTF8 149634
Authors 149592
Unicode@@ 149533
67 149531
Before@@ 149509
notes 149458
occurs 149456
_r@@ 149449
dimensions 149432
TY_@@ 149422
Identity 149398
runs 149385
currentTimeMillis 149374
Identity@@ 149315
So 149312
Power@@ 149286
setAttribute 149116
WIDTH 149077
buttons 148985
Signal 148937
loop@@ 148935
STATUS 148930
shadow@@ 148913
supports 148897
ged 148890
Declaration 148882
big 148820
46 148794
98 148776
LONG 148756
Zero@@ 148736
exact 148727
Convert@@ 148719
Src 148713
95 148710
CLASS_@@ 148638
ignore@@ 148633
copy_@@ 148621
Descriptor@@ 148534
country 148503
zz@@ 148489
Console@@ 148466
dat 148459
LEN 148383
charge 148364
Since 148357
empty_@@ 148357
img@@ 148334
Total 148303
Expr@@ 148282
Buffers 148243
NORMAL 148225
Chain@@ 148202
CONF 148157
DATE 148148
TL@@ 148120
star@@ 148087
2016 148060
Listener@@ 148001
ative 148001
Initial@@ 147987
QModelIndex 147923
stuff 147923
transform@@ 147855
Head 147835
sha@@ 147829
enum@@ 147766
ah@@ 147716
arg_@@ 147716
pow 147690
s3 147648
cpu@@ 147619
w3 147572
PRI@@ 147546
plan 147534
， 147515
BLOCK 147482
longer 147480
soap 147471
increment 147442
0x0 147429
WRITE 147425
jobs 147423
xy 147390
DATA@@ 147372
Commit@@ 147350
sid 147333
ort@@ 147329
VALUE_@@ 147322
wchar_t 147273
VE@@ 147217
Constraints 147188
Ctrl 147175
encoder 147165
Options@@ 147155
ce_@@ 147138
CS 147066
coord 147066
wn@@ 147042
it_@@ 147025
VERSION_@@ 146983
FORMAT_@@ 146975
cf 146971
LD@@ 146881
desired 146877
Diff@@ 146861
locations 146854
PI 146852
WK@@ 146833
Mar@@ 146787
Refresh@@ 146715
column_@@ 146702
TE 146698
field_name 146624
getP@@ 146615
HO@@ 146562
merge@@ 146549
bg 146489
dn@@ 146438
charAt 146406
Dest@@ 146362
Background 146316
NS_@@ 146264
final@@ 146232
Compute 146197
Elasticsearch 146197
sync@@ 146166
tabs 146151
rpc 146143
0xD@@ 146127
addWidget 146087
NS@@ 146063
ki@@ 145979
encode@@ 145929
ting@@ 145923
Channels 145885
53 145855
the_@@ 145848
book@@ 145762
ning 145749
AA@@ 145746
iterable 145741
jboss 145710
Mark@@ 145611
Modifier 145579
COM@@ 145534
Sys@@ 145483
Vector4 145466
palette 145435
alert 145417
49 145333
velocity 145325
Threshold 145309
c/@@ 145293
sd 145271
Algorithm 145235
Execute 145214
slot@@ 145186
null@@ 145163
Pa@@ 145162
ix 145138
serializer 145107
Multiple@@ 145089
cs_@@ 145088
getBytes 145070
getData@@ 145024
isIn@@ 144988
extract@@ 144979
PI@@ 144965
validate_@@ 144943
Finished 144941
Surface@@ 144838
ay 144835
Defaults 144782
DEFINE_@@ 144774
difference 144764
AUTHORS 144739
QU@@ 144603
our@@ 144583
ALL_@@ 144528
NUMBER 144455
Agent@@ 144414
compare@@ 144391
42@@ 144359
curr 144323
dep@@ 144308
z_@@ 144155
notify@@ 144114
Prop@@ 144109
rect@@ 144109
Download@@ 144102
promote 144090
interpreter 144075
\xd@@ 144061
axes 144047
ies 144015
pr 144013
socket@@ 143981
Usage@@ 143927
Trace 143892
timezone 143878
raised 143876
act@@ 143869
110 143819
Running 143806
top_@@ 143804
syn@@ 143803
underlying 143795
CHAR 143793
conf@@ 143756
Reason 143731
ck 143681
Must 143656
clicked 143608
va 143578
str_@@ 143567
m_f@@ 143550
wait@@ 143548
second@@ 143541
PER@@ 143482
Stub@@ 143446
TEXT_@@ 143443
ors 143434
commit@@ 143383
0b@@ 143340
TIME_@@ 143261
built 143261
o/@@ 143241
Atomic@@ 143195
USER 143163
user_id 143144
gn@@ 143075
Face 143002
Auto 142990
print_function 142954
son 142937
Some 142933
auth_@@ 142921
Controller@@ 142890
0xE@@ 142876
defaultValue 142795
sb@@ 142759
v8 142729
ln 142696
Lib 142689
Product@@ 142652
plus 142625
ads 142615
CONNECTION 142605
MIN_@@ 142605
ov@@ 142556
construct 142506
accompanied 142480
limits 142480
ind@@ 142478
unlock 142449
ces 142431
lic@@ 142420
ASCII 142364
getHeight 142332
getPath 142266
dest_@@ 142262
Import 142191
pass@@ 142134
others 142111
START_@@ 141968
0x69 141960
MAP_@@ 141930
signed 141889
pack@@ 141870
LINE_@@ 141855
better 141853
Span 141850
INTER@@ 141819
dy@@ 141819
_is_@@ 141808
Lexer 141796
app_@@ 141767
plan@@ 141767
Period 141754
waiting 141746
iteration 141719
Operator@@ 141699
ue 141684
END@@ 141676
MSG 141674
move_@@ 141663
Components 141638
Split 141581
Camera@@ 141563
newInstance 141524
Cl@@ 141521
compatibility 141430
allocator 141372
de_@@ 141355
shared@@ 141320
Title@@ 141175
getWidth 141162
Border 141153
wa@@ 141148
Graphics 141072
xrange 141047
compareTo 141031
obj_@@ 140969
LOGGER 140955
Transport 140942
Heap@@ 140929
ti 140921
sing 140895
major 140886
Ok 140876
This@@ 140855
retrieve 140809
handles 140768
full_@@ 140694
$@@ 140690
sm 140681
Material@@ 140615
ence@@ 140611
openerp 140600
temp_@@ 140592
ia 140588
Stats@@ 140546
ATE 140541
DER 140511
system_@@ 140508
2001 140478
CV_@@ 140468
manifest 140437
going 140428
And 140419
Rel@@ 140418
Generate@@ 140416
working 140389
Ab@@ 140372
Logical@@ 140360
title@@ 140350
normalize 140338
substr 140329
ew@@ 140278
ok@@ 140259
logs 140241
equalsIgnoreCase 140238
real_@@ 140224
Chunk@@ 140208
SWT 140185
number@@ 140165
Collector 140150
AD 140141
import_@@ 140128
malloc 140127
dx@@ 140122
ACE_OS 140112
globals 140103
represents 140029
ub@@ 139969
random_@@ 139965
amp 139895
Math@@ 139864
vp@@ 139844
ROOT 139842
43@@ 139828
less@@ 139827
DateTimeField 139778
oracle 139741
LP@@ 139740
osg 139714
Ver@@ 139646
ParseException 139636
pad@@ 139634
120 139631
\1\@@ 139629
METHOD 139603
111 139592
FS 139527
space@@ 139519
hdfs 139468
getInt 139467
Decl@@ 139459
lucene 139441
Vec 139417
comment@@ 139409
CLog 139404
ZERO 139384
uint@@ 139372
Verify@@ 139333
Binary 139331
type_ 139269
Binding@@ 139252
frame_@@ 139186
questions 139184
Alpha@@ 139154
_meta 139153
checksum 139139
aa 139115
Mask@@ 139077
TypeId 139054
exception@@ 139007
intValue 138976
fac@@ 138971
rx 138935
Dummy@@ 138929
streams 138928
flag@@ 138907
10.@@ 138894
array_ops 138807
vol 138793
Cor@@ 138792
Connect@@ 138746
baz 138621
Ob@@ 138576
PTR 138573
getContext 138560
dl 138547
status_@@ 138535
pkg 138523
Shard@@ 138496
prev_@@ 138471
resulting 138439
vol@@ 138395
regular 138321
GU@@ 138303
plain 138279
static_@@ 138180
keywords 138149
Wait@@ 138145
Connect 138131
Reply 138130
setVisible 138114
region@@ 138109
5' 138106
linked 138100
Monitor 138088
ending 138041
protocol@@ 138034
ident 138032
general 138001
vc@@ 138001
triggered 137998
ENT_@@ 137970
chunks 137946
Begin@@ 137941
file_path 137904
HI@@ 137888
CODE_@@ 137839
62 137822
sdk 137688
CreatureScript 137671
ba 137632
mouse 137615
explicit 137550
Bu@@ 137522
Ip@@ 137521
Immutable@@ 137516
rd@@ 137504
Ignore 137501
world@@ 137490
executed 137488
Course@@ 137366
sub_@@ 137330
arg1 137317
Help@@ 137316
ADD 137307
66 137209
temporary 137195
EOF 137177
ell@@ 137170
ong@@ 137163
dot@@ 137107
hold 137106
face@@ 137098
won 137057
volume_@@ 137019
WIN@@ 136960
anchor 136904
Product 136867
filenames 136775
tex 136750
tmp_@@ 136750
pindex 136737
IMAGE_@@ 136720
dispatch 136694
CSS@@ 136681
Compute@@ 136620
much 136575
DB_@@ 136574
ame@@ 136501
Signal@@ 136490
service_@@ 136461
realm 136458
0x10 136443
poly@@ 136443
Graphics@@ 136435
Slot@@ 136410
ITEM_@@ 136401
alloc@@ 136389
DoCast 136376
her@@ 136341
assume 136257
QVERIFY 136254
_SE@@ 136232
queries 136157
getOperand 136090
Operand 136085
sWith@@ 136082
__str__ 136027
mockito 136018
fx 136011
INT_@@ 136002
CONFIG 135977
ar_@@ 135975
Python@@ 135944
Missing@@ 135935
6" 135919
Clip@@ 135903
remote_@@ 135903
Sound 135889
/= 135884
Ignore@@ 135836
\x6@@ 135762
Proc 135756
section@@ 135741
Mac@@ 135703
short@@ 135700
directories 135691
Changes 135661
COR@@ 135595
open_@@ 135515
72 135509
We@@ 135465
rgb 135449
Dataset 135423
sis 135321
Added 135252
hex@@ 135201
join@@ 135173
nd 135169
HTTP_@@ 135157
COMP@@ 135140
rm 135104
waitFor@@ 135096
ry 135092
openhab 135090
l/@@ 135085
initializer 135077
Construct 135068
RM@@ 134995
000000@@ 134965
outside 134860
lang@@ 134858
ResultSet 134811
non_@@ 134807
inject 134790
alt 134749
61 134746
ML@@ 134735
Req 134735
LIN@@ 134686
SL@@ 134676
AR 134601
xs 134544
ic_@@ 134483
readonly 134433
Permission@@ 134389
Ma@@ 134374
Include@@ 134370
5000 134333
priv 134311
54 134249
QMessageBox 134248
ated_@@ 134245
Dec@@ 134233
content_@@ 134223
Operations 134220
focus 134213
tearDown 134192
ep 134159
according 134140
cells 134139
shape@@ 134123
Rec 134120
MB@@ 134119
Day 134090
day@@ 134082
Generate 134077
Separator 134066
body@@ 134025
CREATE 134024
student 134021
wrapped 133965
Tx 133918
sections 133914
frequency 133897
decl 133880
Colors 133873
0x31 133871
poll 133853
Const@@ 133827
transfer 133815
Modified 133727
declaration 133702
leaf 133684
Maps 133656
some@@ 133656
retry 133623
auto_@@ 133598
64_@@ 133582
Distance@@ 133568
_mm_@@ 133550
extra@@ 133545
Machine@@ 133519
Started 133496
Zone 133419
MESSAGE 133327
SIGN 133284
imp 133219
Bottom 133211
Finder 133210
ray 133208
en_@@ 133178
certain 133176
EV@@ 133121
allocation 133019
bc 133009
ref_@@ 132951
immediately 132931
osv 132873
pcl 132866
latest 132822
backup 132800
Driver@@ 132767
_player 132749
before@@ 132748
defines 132738
0xF@@ 132733
58 132702
properly 132690
SHA1 132627
AU@@ 132615
FLAG 132550
68 132516
poly 132484
__repr__ 132458
Ko@@ 132348
Mod 132325
Other@@ 132321
1.5 132311
assertNull 132308
Testing 132229
roles 132217
es_@@ 132205
ByName 132128
subnet 132113
tes 132084
Video 132075
Scope@@ 132070
Fail 131962
getAttribute 131902
RED 131871
length@@ 131796
6' 131791
Head@@ 131784
AST@@ 131776
Card@@ 131776
btn@@ 131745
report_@@ 131741
Vertices 131671
Atom 131624
Runtime 131497
Whether 131493
SIL@@ 131487
color_@@ 131459
clause 131441
Com@@ 131413
safe@@ 131363
ADD_@@ 131347
Basic 131345
getIn@@ 131342
_vm 131338
OBJECT_@@ 131216
85 131194
CE_@@ 131159
Limit@@ 131148
platform@@ 131124
ne 131119
install_@@ 131096
getAll@@ 131090
Listeners 131080
Summary 131080
os_@@ 131075
1e 131070
threading 131065
fu@@ 131052
Year 131043
prevent 131041
ctypes 131040
compute_@@ 131034
network_@@ 131023
ptr@@ 131015
stream_@@ 131006
candidate 130981
COLOR 130967
successfully 130942
pos_@@ 130882
ker 130794
Tools 130775
stdin 130762
patterns 130748
AS_@@ 130694
placeholder 130671
categories 130610
pres@@ 130598
force_@@ 130577
orig@@ 130566
Alias 130565
ang 130546
ven@@ 130510
HE@@ 130485
buf@@ 130447
Talk 130431
Sync 130392
TRACE 130390
strip@@ 130376
Scheduler 130366
GS@@ 130353
Criteria 130350
AM_@@ 130326
m_data 130307
assignment 130276
l2 130257
expressions 130229
0x06 130215
Extra@@ 130189
tic@@ 130186
form_@@ 130181
equivalent 130147
Cookie 130119
READ_@@ 130099
gamma 130095
Fill 129971
leave 129961
na 129949
tv 129938
duplicate 129929
Setup@@ 129904
SDL_@@ 129899
BOOST_FOREACH 129895
Signature@@ 129895
html@@ 129872
things 129826
NaN 129794
_url 129783
nan 129782
atomic 129779
PC 129607
116 129603
portal 129602
proxy_@@ 129549
Shift 129547
Tile 129496
location@@ 129470
chr 129460
locked 129424
HttpServletRequest 129404
EXT 129278
match_@@ 129272
minutes 129230
content_type 129223
Values@@ 129216
VT 129208
Two@@ 129203
Fail@@ 129179
TimeZone 129134
levels 129103
Geometry@@ 129083
96 129067
tk 129033
fast 128995
Prop 128974
projects 128971
DR@@ 128956
Unknown@@ 128956
scroll 128948
slug 128907
84 128898
high@@ 128869
helpers 128815
Exp@@ 128789
cover 128777
Pipeline@@ 128756
cy 128725
NotFound 128721
Glyph@@ 128699
card 128691
105 128669
todo 128658
sBy@@ 128638
SW@@ 128614
Loader@@ 128607
1:@@ 128556
Zone@@ 128532
enti@@ 128511
REMOVE 128510
fast@@ 128487
predicate 128414
ity_@@ 128370
returning 128359
meth 128352
High@@ 128349
0x72 128331
allow_@@ 128284
\brief 128225
DTO 128209
Switch 128205
TS_@@ 128155
makes 128123
theme 128048
acl 127968
Composite@@ 127917
2004 127898
US@@ 127896
make_pair 127886
127 127880
getMax@@ 127851
Processor@@ 127813
Skip@@ 127792
glyph@@ 127785
Preconditions 127772
Apply@@ 127756
Dump@@ 127744
Ext 127725
endorse 127707
entrySet 127685
compat 127681
ring 127640
Hex 127622
caster 127592
fixture 127528
prime 127500
setattr 127474
n1 127467
batch@@ 127465
pg@@ 127462
EventHandler 127448
toArray 127382
Spring@@ 127378
ner 127377
project_@@ 127341
Inline@@ 127313
89 127310
/src/main/java/@@ 127299
v0 127286
AT_@@ 127211
ot@@ 127211
Locator 127207
ating@@ 127186
_dir 127163
under@@ 127143
Bucket 127132
outer 127128
flink 127118
Mutable@@ 127087
Wrap 127066
sec@@ 127039
Snapshot 127011
resolver 126995
Sum 126991
ze 126990
everything 126975
Decode@@ 126954
media@@ 126945
cat@@ 126938
frappe 126937
Printf 126909
Admin 126900
lower@@ 126882
dn 126877
57 126847
__dict__ 126825
ble 126816
compression 126807
switch@@ 126752
command_@@ 126744
Stat@@ 126719
can_@@ 126703
Statistics 126681
ment_@@ 126672
delta@@ 126655
Batch 126649
ES@@ 126535
air@@ 126515
OB@@ 126453
Sign@@ 126453
ves 126437
i18n 126435
double@@ 126419
\x7@@ 126386
USER_@@ 126347
asm 126306
please 126290
Labels 126268
cross 126242
variable@@ 126184
signal@@ 126161
Notify@@ 126159
feature@@ 126139
average 126136
Bundle@@ 126126
making 126122
responses 126085
room 126063
rs@@ 126060
border@@ 126046
Sort 126009
t0 125962
Exit@@ 125884
ry@@ 125799
ra 125777
account_@@ 125750
appear 125732
fx@@ 125679
abspath 125595
fo 125581
lua_@@ 125574
Tensor 125525
Completion@@ 125521
Ag@@ 125425
middle 125392
ComboBox 125387
validator 125362
pdf 125360
UBool 125333
sink 125328
tuples 125313
hu@@ 125309
JSValue 125299
3f@@ 125295
msgs 125265
Export@@ 125233
transition 125233
repeat 125204
getData 125189
Coord 125183
rev 125181
mt 125167
prompt 125167
Ne@@ 125164
cer@@ 125150
mu 125146
Work 125132
mk@@ 125120
valid_@@ 125113
ill@@ 125104
ask 125100
Pixel 125097
did@@ 125081
UT@@ 125076
pv@@ 125057
dns 125056
TreeNode 125055
Force@@ 125019
Creator 125012
Book@@ 124972
sol@@ 124942
0xC@@ 124930
DataSource 124917
restart 124879
UInt32 124861
Managed@@ 124853
produce 124846
statistics 124846
parseInt 124820
probably 124810
exe 124805
need@@ 124755
Connector 124700
LinkedList 124662
Wallet@@ 124626
Type_@@ 124614
EE@@ 124587
resolution 124563
propertyName 124502
QAction 124492
Border@@ 124465
4f 124460
H_@@ 124460
mo 124438
further 124437
University 124419
zynamics 124415
verts 124401
Detail 124380
timedelta 124372
polygon 124367
tor_@@ 124316
hass 124274
solution 124272
explicitly 124185
Face@@ 124138
RPC 124136
parents 124126
amp@@ 124122
Visible@@ 124119
sor@@ 124070
libraries 124061
Blob@@ 124043
den 124006
checker 123992
failures 123989
BU@@ 123975
Nested@@ 123968
runtime_error 123914
original_@@ 123906
art 123879
inc@@ 123877
fully 123848
SSL@@ 123846
locator 123834
te_@@ 123827
Neither 123819
LIST_@@ 123757
WORD 123755
pe 123745
VALUES 123711
API_@@ 123689
inc 123688
YY@@ 123649
locals 123625
DC@@ 123622
clip@@ 123610
TAG_@@ 123606
pipe 123606
1,@@ 123597
signals 123569
m_current@@ 123544
param_@@ 123527
BC@@ 123521
StringRef 123517
control_@@ 123501
GLenum 123449
88 123443
wh@@ 123415
Extensions 123409
king 123409
_v@@ 123379
pitch 123362
UPDATE 123357
Calendar@@ 123312
drawable 123309
Exec@@ 123305
engine@@ 123305
256@@ 123282
Background@@ 123255
FT@@ 123248
Home 123245
BASE 123183
callbacks 123183
ATE_@@ 123120
training 123118
Pixels 123105
0c@@ 123063
rather 123048
cn 123030
Records 123028
initialization 123014
ked@@ 123014
Folder@@ 123002
Simple 122951
sen@@ 122932
Site@@ 122892
77 122886
gateway 122876
getType@@ 122870
Tokens 122865
live 122854
static@@ 122813
/test@@ 122775
yy_@@ 122762
Dev@@ 122731
STRING_@@ 122707
overflow 122653
disconnect 122618
GROUP 122603
BS@@ 122583
async_@@ 122524
custom_@@ 122524
Depth@@ 122518
Live@@ 122513
QT 122496
moves 122471
mgr 122463
record_@@ 122429
utility 122411
Low@@ 122398
getValue@@ 122377
home@@ 122375
Using 122352
ndarray 122352
ws@@ 122296
ae@@ 122295
trace@@ 122285
TER 122212
Person@@ 122197
statements 122159
partition@@ 122149
shard 122144
single@@ 122140
expand 122131
53@@ 122117
version_@@ 122106
arg0 121994
dims 121982
Light 121959
schedule 121959
Bound@@ 121954
Frames 121931
OFFSET 121912
qreal 121897
86 121894
foreach 121884
main_@@ 121882
iostream 121835
0x09 121817
ding 121790
occurred 121779
BufferSize 121770
tracker 121748
Panel@@ 121726
database@@ 121720
AutoField 121719
clang 121651
Comm@@ 121647
prepare 121579
clients 121571
indicates 121567
deps 121522
Receiver 121521
Sink 121446
Compare 121439
Sensor@@ 121405
dec 121395
cookies 121376
TEST@@ 121237
EXCEPTION 121235
Desc@@ 121221
issues 121203
Requests 121189
Replace 121182
Deprecated 121164
Int32 121136
gh@@ 121130
BooleanField 121122
Statement@@ 121064
n2 120972
mapped 120939
widget@@ 120890
label_@@ 120878
qgs@@ 120804
Zip@@ 120775
ib@@ 120732
Sprite 120729
bs@@ 120665
acc 120590
combined 120577
1f@@ 120565
pin 120564
FP@@ 120541
AND_@@ 120479
lot 120476
Seconds 120433
Ensure 120405
page_@@ 120346
NODE_@@ 120342
exactly 120327
Producer 120325
vp 120289
ALTER 120208
Cancel 120198
question 120186
square 120147
un 120120
reference@@ 120084
Destination 120076
definitions 120038
feature_@@ 120028
cursor@@ 119991
Vo 119944
nu@@ 119943
throw@@ 119935
capture 119909
KE@@ 119907
Branch 119902
Examples 119902
Backend 119888
Enter 119887
CString 119885
EP@@ 119840
dlg 119819
cycle 119806
LS 119772
UID 119767
ES_@@ 119748
ort 119730
sensor 119715
hours 119697
Controls 119695
b3@@ 119679
Environment@@ 119651
hdr 119639
ger@@ 119634
Orientation 119627
Supported 119611
unexpected 119607
FUNCTION 119593
undef 119575
span@@ 119559
relation 119552
permit 119549
Validate 119516
chunk@@ 119516
beginning 119515
channel_@@ 119514
Post 119505
verify_@@ 119471
getLocal@@ 119453
Rpc@@ 119438
Inject 119424
cassandra 119423
php 119405
Printer 119391
ur 119378
iterations 119293
ENTRY 119287
shutil 119264
fun 119250
Cost 119237
4.0 119211
Dist 119170
python@@ 119168
ignore_@@ 119152
Utility 119143
sympy 119120
getLast@@ 119108
Category@@ 119093
2.0f 119060
pb 119043
bias 119009
ch_@@ 119004
Dest 118989
hit@@ 118972
gradient 118969
Blob 118967
diag 118962
0x40 118954
Adds 118903
abort 118857
Private@@ 118854
vr@@ 118837
Cv@@ 118783
shared_@@ 118744
Mi@@ 118738
tag_@@ 118721
Inputs 118675
rot@@ 118669
ard 118666
pn@@ 118665
dr 118643
addition 118616
ENT 118581
mx@@ 118578
watch@@ 118572
Metric@@ 118548
submit 118540
Scalar@@ 118467
ListView 118445
Locale@@ 118422
IOError 118417
ling 118407
AE@@ 118373
ENABLED 118370
vectors 118369
sell 118353
Filters 118347
hs 118342
func@@ 118336
segment@@ 118239
digit 118205
sAnd@@ 118205
select_@@ 118194
DE_@@ 118173
Interval@@ 118171
ensure@@ 118146
pickle 118141
entry_@@ 118098
solver 118071
tf@@ 118049
ATTR_@@ 118013
nx 118006
TER@@ 117968
NODE 117940
Hit@@ 117937
UD@@ 117925
ME 117904
NodeId 117890
lat 117856
iv 117821
eps 117815
subset 117783
0x7f@@ 117741
rb@@ 117740
note@@ 117729
registration 117636
Prefix@@ 117622
\param 117620
INPUT 117552
MAX_VALUE 117545
tpg 117540
Enumeration 117539
WebKit@@ 117539
180 117521
Proc@@ 117517
sw 117484
dynamic_cast 117468
Put 117463
VR@@ 117425
0e@@ 117396
INDEX_@@ 117390
2017 117389
4j 117376
Stub 117360
Velocity 117320
ips 117319
ban@@ 117264
batch_size 117234
FOR@@ 117217
Ap@@ 117198
marked 117196
2f@@ 117189
Rate@@ 117151
setColor 117150
xmlns 117149
Loaded 117132
bound@@ 117110
Io@@ 117100
script_@@ 117087
ssl@@ 117087
quality 117086
hereby 117069
generation 117064
gg@@ 117062
catalog 117061
getUser@@ 117061
net_@@ 117059
1d 117054
Bi@@ 117029
transaction@@ 117028
dm@@ 117014
Serial 117013
turn 116994
lexer 116971
BIT 116937
install@@ 116909
Fl@@ 116907
vi 116904
white 116896
m_type 116884
Prev@@ 116879
par 116860
PD@@ 116826
Break@@ 116804
Cli@@ 116796
unpack 116796
Inner@@ 116795
Counter@@ 116789
00000 116785
Compare@@ 116785
yaml 116752
Phase@@ 116745
per_@@ 116739
Tasks 116731
put_@@ 116606
Dom@@ 116556
configs 116554
OFF 116543
NotFoundException 116534
ized 116518
flavor 116493
creates 116488
Polygon 116475
percent 116441
timer@@ 116428
PORT_@@ 116425
0x0000@@ 116415
lst 116401
Validation@@ 116386
scriptPubKey 116383
box_@@ 116358
tl 116330
RefPtr 116286
gr 116270
val_@@ 116264
mit 116255
LANG_@@ 116250
RuntimeError 116247
Pack@@ 116226
WM_@@ 116226
dirty 116078
empty@@ 116025
slots 116009
Bin@@ 115972
GO_@@ 115940
16_@@ 115856
Destroy@@ 115843
dict_@@ 115843
replacement 115840
bitcoin 115822
PH@@ 115813
tableName 115811
recursive 115792
Q_D 115789
REG_@@ 115762
should_@@ 115739
isEqualTo 115709
Plan 115701
Renderer@@ 115696
Off@@ 115680
EQUAL 115662
ide 115636
account@@ 115628
ded_@@ 115628
gre@@ 115611
Writer@@ 115584
RC 115556
close_@@ 115517
ron@@ 115489
clean@@ 115441
Registry@@ 115391
Ratio 115347
compressed 115346
Key_@@ 115339
GC 115336
Margin 115334
newValue 115320
rectangle 115320
normal@@ 115318
ping 115254
tive 115250
Scan 115245
selection@@ 115242
POINT 115196
0xf@@ 115187
WorldSession 115184
bucket@@ 115111
bi 115077
taken 115076
reshape 115064
orig 115025
Console 115022
nl 114989
lib/@@ 114987
COLOR_@@ 114919
glob 114900
actual_@@ 114864
tick@@ 114861
damage 114859
qDebug 114831
FB@@ 114792
Spawn@@ 114791
Width@@ 114726
opt_@@ 114717
mem_@@ 114682
mesh@@ 114661
QApplication 114640
Gen 114637
tempfile 114631
CHECK@@ 114618
INSERT 114614
EQ 114613
s_list 114597
i/@@ 114590
NE_@@ 114560
regs 114531
Mail@@ 114529
83 114503
schema@@ 114486
medi@@ 114479
RouteBuilder 114478
0x25@@ 114464
initial_@@ 114455
1d@@ 114448
this_@@ 114433
que@@ 114392
é@@ 114371
device_@@ 114347
tur@@ 114334
QColor 114327
Dot@@ 114305
atom@@ 114272
sr 114259
persons 114251
SUCCESS 114244
Collision@@ 114191
Back 114174
ans@@ 114170
sLog 114165
vertical 114147
ctxt 114139
layer_@@ 114082
regions 114075
individual 114061
mx 114037
filepath 114019
2e@@ 114007
sFrom@@ 113995
PT@@ 113988
portions 113979
150 113953
Peer 113885
Primitive@@ 113870
ostream 113854
FAILURE 113828
JetBrains 113826
comm@@ 113826
Amazon 113807
milliseconds 113794
IT 113760
k1 113726
2c@@ 113704
sal@@ 113701
modes 113672
sequences 113665
Side 113656
hy@@ 113631
Complex@@ 113629
BL@@ 113620
ING@@ 113618
CT 113593
MB 113586
systems 113572
KeyEvent 113571
obtaining 113568
Fe@@ 113553
refs 113514
Scanner 113482
gen_@@ 113482
p0 113476
Trigger 113466
minecraft 113446
external@@ 113443
404 113442
BI@@ 113403
ster 113376
getFile@@ 113369
aggregate 113333
Dispatcher 113327
DT@@ 113280
0xc@@ 113259
Archive 113245
Boost 113236
TIMEOUT 113220
parallel 113196
Notify 113155
Patch@@ 113147
utf8 113141
change_@@ 113139
cmp@@ 113128
cont@@ 113128
AuraScript 113105
Inner 113050
wiki 112908
Fee 112889
attrib 112867
newline 112846
l1 112798
Given 112786
Capture@@ 112775
Missing 112771
V2 112745
outfile 112726
TY 112702
bd@@ 112695
Fire@@ 112682
CONTROL 112642
half 112615
ther@@ 112610
startTime 112565
addon 112549
AM 112538
uniform 112531
grad 112509
rg@@ 112496
swap@@ 112457
ints 112443
bc@@ 112422
dex@@ 112387
Audio 112381
Commands 112367
keySet 112355
lab@@ 112355
product_@@ 112309
Watch@@ 112303
Tables 112281
Jo@@ 112245
long_@@ 112241
registers 112223
Browser@@ 112215
tk@@ 112206
Pr@@ 112195
Constructs 112167
controls 112154
Alloc 112142
rep@@ 112127
lp 112123
Align 112100
500@@ 112088
Chat@@ 112086
invalid@@ 112083
glGet@@ 112070
ValidationError 112065
ir_@@ 112040
nr 112036
Replace@@ 111993
Bucket@@ 111992
EventType 111989
Support@@ 111974
WITH_@@ 111974
doing 111972
limitation 111962
include_@@ 111952
chain@@ 111929
domain@@ 111926
tick 111926
comparison 111903
Without@@ 111882
Struct@@ 111857
0x000000@@ 111818
izer 111788
GI@@ 111767
330 111754
linux 111746
gc@@ 111732
m_d@@ 111713
compatible 111665
Site 111664
TypeName 111604
html_@@ 111604
pin@@ 111599
Files@@ 111572
incorrect 111549
QtCore 111524
ro 111494
76 111492
Failed@@ 111453
split_@@ 111440
retVal 111380
base64 111375
INFO_@@ 111353
roll 111346
NEW 111338
urand 111333
tell 111330
getSize 111311
Matchers 111305
Render 111262
chart 111257
ten@@ 111137
Day@@ 111116
WS@@ 111095
Cpp@@ 111091
AssertionError 111070
macro 111058
atoi 111019
performance 110992
Transition 110987
ULONG 110987
best_@@ 110982
isSet@@ 110977
Loc@@ 110963
indicating 110945
cho@@ 110937
<DOCUMENT_ID="k@@ 110912
VC@@ 110889
ical@@ 110869
addAction 110868
pan@@ 110802
primary@@ 110800
cell_@@ 110781
har@@ 110780
repo@@ 110778
DAG 110776
Email 110758
Generated 110754
REG@@ 110732
ool@@ 110722
ous@@ 110704
U_ZERO_ERROR 110684
inverse 110659
npos 110645
entire 110642
ass 110561
Generator@@ 110560
Vo@@ 110553
DONE 110548
coin 110537
sRequest 110527
Xml 110521
ACE_TEXT 110518
union 110509
mix@@ 110505
ge_@@ 110503
MR@@ 110481
Standard 110465
HttpResponse 110451
ard@@ 110447
basic@@ 110411
connect@@ 110382
DEVICE_@@ 110362
ner@@ 110354
sock@@ 110334
VE 110323
0x08 110322
BITS 110288
tol 110274
didn 110266
application@@ 110261
EN_@@ 110257
await 110255
compress 110213
Sym@@ 110189
expect@@ 110159
elt 110144
ERS 110141
When@@ 110129
logical 110115
skipped 110099
However 110095
Namespace@@ 110075
m_is@@ 110074
axis@@ 110056
clear_@@ 110030
lab 110027
qui@@ 110026
DRAWINGS 109999
NEXT 109971
VE_@@ 109965
73 109952
_h@@ 109951
Master 109947
Bind 109905
faces 109903
5f 109899
Validate@@ 109869
ase@@ 109866
_SUCCESS 109864
ran@@ 109772
Focus 109764
Marker@@ 109741
ics 109738
Particle@@ 109722
Unique@@ 109714
strong 109714
78 109710
rename 109669
sMap 109666
ACE_TRACE 109659
Dlg 109655
2-@@ 109640
yn@@ 109531
sending 109460
CALL 109435
hash_@@ 109411
debug_@@ 109406
Article 109401
sheet 109390
Worker@@ 109371
Payload 109368
Throw@@ 109366
SS_@@ 109358
magic 109345
dec@@ 109340
bytes@@ 109337
_ASSERTE 109316
dyn_cast 109262
pm@@ 109258
MP 109221
ler@@ 109195
Instances 109194
TABLE_@@ 109142
connect_@@ 109104
ani@@ 109101
ator_@@ 109066
flo@@ 109047
81 109027
52@@ 108975
getting 108970
whom 108966
sion_@@ 108957
mysql 108949
option_@@ 108913
Loading 108874
curve 108803
undefined 108799
ase 108794
trying 108780
TYPES 108721
00000000@@ 108687
team@@ 108678
83@@ 108672
TType 108666
delimiter 108641
ONLY 108625
fe 108624
ned 108614
Second 108589
DOM 108586
SP 108514
purpose 108510
cpp@@ 108441
theta 108441
INPUT_@@ 108440
LIB 108431
Pe@@ 108420
Peer@@ 108415
replaced 108414
Anim@@ 108360
Media 108332
callback@@ 108310
boo@@ 108305
npc 108294
NPC 108293
ASSERT_EQ 108244
Uri@@ 108235
strcpy 108234
ble@@ 108213
XM@@ 108205
hbase 108146
CLAIM 108130
m_creature 108130
2,@@ 108092
ram@@ 108062
ErrorCode 108037
Height@@ 108022
Addr@@ 108012
toInt 107953
Eigen 107950
roots 107950
Accessor 107937
Fixed 107935
VO@@ 107906
mov 107897
Extra 107871
HEIGHT 107868
Hook 107865
activate 107865
69 107863
modifiers 107850
used@@ 107849
filePath 107845
inspect 107842
serialization 107819
depends 107802
fabric 107789
balance 107781
completion 107781
0a@@ 107777
AF@@ 107762
g2 107741
63@@ 107728
79 107727
FEATURE_@@ 107709
profile@@ 107708
Vars 107701
ctrl 107690
Swap@@ 107682
SP_@@ 107673
Extended@@ 107662
scanner 107641
Flow 107556
Utilities 107541
BR@@ 107540
getX 107534
arange 107531
uri@@ 107519
Cancel@@ 107474
Stage 107466
MT@@ 107432
QRect 107411
attachment 107411
0xA@@ 107405
OUTPUT 107402
fp@@ 107365
extension@@ 107318
ORDER 107309
operands 107299
displayed 107255
71 107223
invoked 107220
sl 107212
Seq@@ 107179
IDC_@@ 107164
minor 107162
parser@@ 107135
attach 107105
acc@@ 107066
formatted 107059
PS 107054
py_@@ 107054
operators 107036
General@@ 106962
word_@@ 106941
и@@ 106932
Stat 106927
desc@@ 106893
Err@@ 106890
figure 106881
separate 106872
COLUMN_@@ 106857
Slice 106850
0f@@ 106840
rid 106803
criteria 106781
walk 106747
interface@@ 106695
uc@@ 106694
PU@@ 106652
fil@@ 106614
cas@@ 106593
109 106585
token_@@ 106576
ios 106554
iti@@ 106537
AN_@@ 106532
disp@@ 106525
rd 106519
problems 106465
CB 106399
__file__ 106349
HAVE_@@ 106312
BUFFER_@@ 106311
calculate@@ 106305
handler@@ 106305
е@@ 106289
fallback 106278
Inst@@ 106255
W64LIT 106243
Secret 106232
Allowed 106205
a0 106205
Cnt 106204
limit@@ 106187
OL@@ 106162
io_@@ 106159
Detail@@ 106141
Term@@ 106128
VirtualFile 106124
operation@@ 106104
ia@@ 106095
74 106088
third 106078
endObject 106063
ITEM 106039
NONINFRINGEMENT 106014
flush@@ 105986
DEALINGS 105979
TION@@ 105932
up_@@ 105930
EventListener 105927
Notes 105927
ask@@ 105858
tcp 105808
ext_@@ 105793
Users 105743
Plane 105722
ding@@ 105715
Soft@@ 105714
OPEN@@ 105710
IntegerField 105703
7" 105661
urlparse 105628
Fix 105613
simply 105606
connector 105584
DER_@@ 105545
ses@@ 105545
mul 105532
nn 105527
Opt 105513
pattern@@ 105484
DT_@@ 105449
Native 105447
mov@@ 105446
Commit 105437
\w 105389
Dist@@ 105386
Dict@@ 105385
ify 105366
echo 105343
Analysis 105331
ARM 105315
Callable 105304
minute 105298
shapes 105275
ray@@ 105272
MainWindow 105262
1b@@ 105256
Team@@ 105254
UTC 105199
xy@@ 105187
dao 105175
m_s@@ 105145
care 105144
PROPERTY_@@ 105133
power@@ 105104
MENT 105097
Smart@@ 105067
Proto@@ 105029
Changed@@ 105025
export@@ 104995
Fin@@ 104989
Metric 104946
ak 104932
scene@@ 104912
agent@@ 104909
phi 104877
indicate 104874
nb 104868
ally@@ 104831
floor 104816
eq_ 104770
ElementType 104758
was@@ 104738
TARGET 104734
Here 104683
Exchange@@ 104682
Creature@@ 104639
viewer 104638
CV@@ 104618
extent 104608
92 104591
preview 104586
mr@@ 104563
ename 104541
xpath 104526
function_@@ 104524
safe_@@ 104508
dispatch@@ 104493
JsonProperty 104476
Infos 104438
CH 104425
0d@@ 104413
seg 104376
letter 104371
Viewer 104367
Home@@ 104347
Based@@ 104340
checkpoint 104291
recv 104286
v4 104269
m/@@ 104260
width@@ 104232
Special@@ 104215
initialize@@ 104187
af 104180
Distributed 104154
CAP@@ 104129
87 104086
getNext@@ 104065
qt_@@ 104063
Two 104035
Dependency@@ 104030
Digia 104012
Man@@ 104011
T1 104011
patch@@ 103999
getTime 103997
Forward 103978
Inspector@@ 103977
Compiler@@ 103968
h1 103968
Sum@@ 103928
prob 103899
touch@@ 103894
Gui 103874
WIN32 103854
Trigger@@ 103813
Indent 103796
bindings 103744
driver@@ 103730
exc_info 103724
HOST 103722
Credentials 103717
Side@@ 103667
BASE_@@ 103657
Selector@@ 103629
(@@ 103601
EMPTY 103509
folder@@ 103485
ga@@ 103484
Padding 103472
tar 103436
ScriptedAI 103394
kw@@ 103393
ju@@ 103370
MARK 103363
Exp 103331
MouseEvent 103322
^= 103319
RE 103304
sigma 103260
Then 103240
Sy@@ 103231
fraction 103224
considered 103222
ABLE 103206
contains@@ 103188
Serial@@ 103180
ities 103175
Cal@@ 103125
dense 103117
Branch@@ 103115
Reporter 103111
GROUP_@@ 103090
vel 103083
Sec@@ 103072
follow 103059
Visual@@ 103044
Preferences 103035
WX@@ 103035
MediaType 103016
0.2 103001
SE_@@ 102977
Theme 102971
Raster@@ 102924
Curve 102915
owner@@ 102870
startObject 102840
FX_@@ 102834
Setting@@ 102832
GLint 102829
GG@@ 102824
debugger 102819
tar@@ 102817
routing 102793
curr_@@ 102733
pred 102725
Constructor@@ 102720
WRITE_@@ 102718
Metrics@@ 102714
ri 102705
furnished 102702
SY@@ 102670
ats 102664
TestSuite 102638
Wrapper@@ 102631
white@@ 102582
0xff@@ 102578
GetCurrent@@ 102573
Heap 102567
shouldn 102556
userId 102552
savedInstanceState 102540
fact 102533
Span@@ 102511
invoice 102509
HORIZONTAL 102493
Analyzer 102483
sive 102456
store_@@ 102433
ow@@ 102414
packet@@ 102413
Security 102407
rng 102383
1c@@ 102377
setter 102373
conv 102365
pat@@ 102304
INVALID 102299
sts 102242
0x73 102222
getY 102214
Subject 102194
cinfo 102153
MD 102147
Asset@@ 102129
Microsoft 102128
doctype 102128
CACHE_@@ 102090
Bound 102067
Sig 102019
OWNER 102015
various 101994
Indexes 101982
mail@@ 101974
vertical@@ 101973
convert_@@ 101958
seg@@ 101945
gtk_@@ 101917
Delta@@ 101910
vch@@ 101880
nodeId 101826
Optional@@ 101816
incoming 101804
Upload@@ 101789
skip_@@ 101785
## 101775
rand@@ 101763
substantial 101754
Describe@@ 101738
ationException 101726
mod_@@ 101716
Mem 101672
CH_@@ 101659
accepted 101650
serialized 101645
ById 101643
Gradient@@ 101625
UNIT_@@ 101600
point_@@ 101540
stor@@ 101539
82 101536
dispatcher 101533
atoms 101532
114 101526
Exceptions 101501
FileSystem@@ 101494
ets 101487
governed 101468
mc 101464
2003 101457
logical@@ 101455
unique@@ 101448
spell@@ 101445
fabs 101444
sublicense 101438
Matches 101434
product@@ 101411
choose 101408
Email@@ 101405
Quick@@ 101401
blocking 101401
Encoding@@ 101399
left_@@ 101359
mag@@ 101355
Colour 101351
MON@@ 101334
getSub@@ 101330
workspace 101323
health 101321
Help 101318
bad_@@ 101316
TRI@@ 101302
IsValid 101262
gives 101222
readline 101221
mass 101219
mappings 101209
gi 101199
normalized 101187
verbosity 101171
Under@@ 101164
Logging@@ 101160
tc@@ 101159
TP@@ 101137
EMPTY_@@ 101126
org@@ 101101
cap 101051
Self 101030
Charset 101012
processors 100999
Times 100993
dynamic@@ 100989
advance 100949
Available@@ 100922
Book 100915
Same@@ 100876
core/@@ 100863
quad@@ 100833
5.0 100828
Scheme 100801
an/@@ 100800
button_@@ 100794
VAR 100790
ss_@@ 100737
300@@ 100725
round@@ 100701
wo@@ 100699
glyph 100675
bli@@ 100674
bg@@ 100654
ssh 100647
PK@@ 100627
Failure@@ 100570
Extract@@ 100556
а@@ 100556
Instruction@@ 100551
GetName 100547
FT_@@ 100539
Sender 100500
Unexpected 100494
Initial 100489
Kernel 100472
Hot@@ 100453
acquire 100442
extended 100437
specification 100411
Apply 100395
Allow@@ 100385
mid@@ 100355
common/@@ 100339
Ms 100335
Util@@ 100282
DX@@ 100278
Aws 100274
BUFFER 100256
sing@@ 100245
nullable 100238
though 100217
viewport 100205
.0f 100188
col_@@ 100175
wd 100145
va@@ 100143
gb@@ 100139
EXPECT_TRUE 100104
copied 100080
h2 100078
Series 100070
env@@ 100061
leading 100060
Custom 100058
JPanel 100055
\fn 100042
_SUB@@ 100040
provider@@ 99996
cut 99973
HttpRequest 99958
setdefault 99953
bridge 99920
Public@@ 99912
having 99900
iso@@ 99886
Certificate@@ 99852
Updated 99844
detected 99835
0-9 99819
3-@@ 99807
Pin@@ 99773
{0 99753
Pan@@ 99732
CMD_@@ 99706
Tmp@@ 99703
91 99701
TS@@ 99679
black 99668
_manager 99651
CHAR_@@ 99650
apply_@@ 99603
pool@@ 99599
visible@@ 99584
Trans 99576
_is@@ 99571
Expected@@ 99557
pub@@ 99552
72@@ 99539
calc@@ 99519
_add_@@ 99517
sound@@ 99500
containers 99476
TOR@@ 99469
closing 99442
commercial 99442
classification 99438
sp_@@ 99437
Poly 99425
Stage@@ 99414
Worker 99370
_index 99349
gra@@ 99341
tic 99338
dv@@ 99327
math_ops 99326
Tmp 99313
compiled 99300
journal 99280
FO@@ 99277
ber 99251
ByteArrayOutputStream 99247
xyz 99242
reads 99241
quantity 99231
ath 99226
Sprite@@ 99211
reserve 99208
sli@@ 99203
Foo@@ 99167
processes 99157
HttpServletResponse 99154
OS_@@ 99143
Db 99142
APPLE 99117
Used@@ 99107
locks 99076
Relative@@ 99061
Callbacks 99047
coin@@ 99034
Codec@@ 99031
_in@@ 99003
simple_@@ 99000
der_@@ 98989
fid 98927
Rotation 98868
reached 98862
'2' 98857
FUNC 98829
SIZE_@@ 98827
far 98821
NUM 98814
test_get_@@ 98796
LL 98784
FromString 98773
markup 98714
Shell@@ 98703
ram 98700
ative@@ 98658
managed 98647
MESSAGE_@@ 98612
Pop@@ 98606
checkNotNull 98597
SkScalar 98592
licensed 98588
II 98585
BO 98579
LOAD_@@ 98578
Sorted@@ 98541
Complete@@ 98504
address_@@ 98501
tive@@ 98501
sun@@ 98481
FD 98478
opened 98469
tolerance 98468
Disabled 98462
vec3 98451
Pressed 98443
stores 98415
train_@@ 98407
Variant@@ 98392
QPoint 98385
city 98381
CU@@ 98359
insert_@@ 98348
Tele@@ 98346
prevout 98339
Bad 98324
Impl@@ 98324
о@@ 98288
lement@@ 98282
applications 98273
Compile@@ 98249
right_@@ 98211
fa 98177
final_@@ 98171
Angle@@ 98161
Raises 98142
That 98101
Note@@ 98098
dir_@@ 98092
fake@@ 98062
person@@ 98015
pay@@ 97999
Clause 97993
Generic 97950
lec@@ 97934
[@@ 97927
computed 97902
descr 97893
Positions 97887
detect 97856
Ser@@ 97844
Connector@@ 97837
fixed@@ 97825
0\@@ 97823
\c 97805
Debugger@@ 97803
115 97779
Description@@ 97776
MENT_@@ 97754
required_@@ 97753
trailing 97743
T2 97734
rgb@@ 97731
icons 97718
INC 97703
Distribution 97667
Identifier@@ 97654
Should@@ 97635
Vertical@@ 97630
Env@@ 97625
SQ@@ 97622
CastSpell 97590
asset 97581
libs 97556
tv@@ 97551
Observable 97547
Temple 97544
Monitor@@ 97525
Clock 97513
TestUtils 97508
qty 97485
visit_@@ 97478
y0 97478
common_@@ 97444
specifies 97392
math@@ 97388
fee 97383
Timeout@@ 97364
pw@@ 97362
break@@ 97339
transpose 97339
epsilon 97331
FormAttachment 97316
fer@@ 97276
250 97243
ts_@@ 97243
add_method 97241
tim@@ 97239
und@@ 97221
TR 97195
cancel@@ 97189
admin@@ 97182
Numeric@@ 97129
Visibility 97107
0.9@@ 97086
SkASSERT 97082
CONF_@@ 97048
fy 97039
128@@ 97035
svn 97020
SK_@@ 97017
Patient@@ 96972
clo@@ 96971
moved 96954
resolved 96953
Consumer@@ 96947
floating 96924
wb 96915
Si@@ 96891
namespaces 96881
CEGUI 96877
proto@@ 96875
queryset 96866
Codes 96859
const_@@ 96833
ave@@ 96797
Linux 96778
ation/@@ 96759
psi@@ 96757
REG 96732
FX@@ 96729
pix@@ 96729
described 96685
overwrite 96681
DU@@ 96675
ContentType 96667
rule_@@ 96648
XML_@@ 96632
role@@ 96624
PROP_@@ 96620
Force 96615
Health@@ 96585
CTransaction 96559
Camel@@ 96554
/src/main/java/org/apache/@@ 96539
LS@@ 96539
upgrade 96537
TOP 96532
specs 96526
m_str@@ 96524
Pt 96516
_g@@ 96516
sions 96514
printer 96491
Family 96466
Calculate 96448
side@@ 96439
stopped 96427
Calc@@ 96419
Edges 96416
ree@@ 96402
trace_@@ 96393
0x04@@ 96385
93 96384
nc 96384
UPDATE_@@ 96368
Extent 96362
accept@@ 96360
soft@@ 96352
ve_@@ 96349
nt@@ 96310
vari@@ 96304
ef 96297
pw 96287
traits 96283
primitive 96263
tenant 96242
TOKEN 96232
Stride 96212
1a@@ 96194
etree 96170
sync_@@ 96168
pointers 96162
sprite 96157
\1@@ 96154
oid 96141
0.01 96132
debugging 96129
guard 96124
exit_json 96119
Targets 96114
hand 96109
SpellScript 96105
po 96087
Browser 96082
pair@@ 96069
kuali 96012
OSError 95997
popup 95976
body_@@ 95959
Sparse@@ 95958
TypeInfo 95950
Contains 95942
est@@ 95934
Small@@ 95857
Shell 95849
ADDRESS 95834
Destroy 95829
binary_@@ 95825
Slider 95813
\0@@ 95810
selenium 95806
proc@@ 95800
DV@@ 95797
mit@@ 95789
order_@@ 95756
POINT_@@ 95746
flat 95738
txt@@ 95728
fall 95705
gtest 95687
orig_@@ 95676
Mu@@ 95669
zoom 95649
mapreduce 95643
touch 95639
Accept 95629
adjust@@ 95614
Final@@ 95608
DAY 95601
stop_@@ 95491
take@@ 95486
Items@@ 95480
RESULT 95475
Disable@@ 95473
red_@@ 95444
Execute@@ 95432
sManager 95426
ku@@ 95394
why 95392
Theme@@ 95384
Calls 95383
Suffix 95357
pf@@ 95329
Git@@ 95325
ObjC@@ 95316
bank 95297
Sub 95279
adds 95270
Mapper@@ 95246
pnode 95213
x/@@ 95206
Maximum 95205
_t@@ 95204
Iterator@@ 95191
HAS 95184
STR_@@ 95177
PROPERTY 95153
ked 95143
Static 95142
md5 95123
Buf@@ 95120
DIS@@ 95120
Gu@@ 95105
reg_@@ 95101
comma 95090
prog 95088
rendering 95066
black@@ 94998
proper 94971
VERTICAL 94937
imports 94927
AWS 94906
Ge@@ 94897
combination 94893
available@@ 94887
CONTROL_@@ 94885
FILE@@ 94884
cep@@ 94881
e/@@ 94869
THREAD_@@ 94857
ng@@ 94827
GetPlayer 94814
ec2 94799
ISO@@ 94755
hamcrest 94747
ori@@ 94730
Dto 94719
self@@ 94717
crypto 94714
xp 94713
Sw@@ 94696
_SET_@@ 94661
Net 94649
swift 94645
TOKEN_@@ 94643
GE 94641
OU@@ 94637
Writable 94596
counters 94594
zero@@ 94588
review 94581
Symbols 94529
arch@@ 94529
Payment@@ 94525
Ui@@ 94519
space_@@ 94504
FOR_@@ 94503
Partition 94488
Flush 94482
micro@@ 94480
collector 94470
misc 94433
av 94412
lb 94389
Members 94377
hal 94351
References 94346
E0 94313
Attempt 94304
height@@ 94267
Lower@@ 94266
LEVEL 94258
ChangeListener 94238
VAL 94224
sort_@@ 94175
GetData 94156
documents 94142
focus@@ 94106
step_@@ 94099
ssl_@@ 94090
adjust 94071
finder 94064
ide@@ 94062
ENABLE_@@ 94050
proj 94040
Eclipse 94028
Music@@ 93997
RPC@@ 93997
Uniform@@ 93976
Adapter@@ 93962
Clip 93961
PARAM_@@ 93952
had 93950
GH@@ 93941
/src/com/@@ 93902
Navigation@@ 93898
Coords 93881
filled 93865
DESC 93864
BACK@@ 93854
decorator 93850
reload 93846
attached 93831
Management@@ 93830
eval@@ 93794
singleton 93775
6_@@ 93760
AP 93737
pwalletMain 93721
Join 93719
addItem 93707
cwd 93705
Identi@@ 93702
Mis@@ 93695
Center@@ 93671
cle@@ 93670
CAL@@ 93651
Price 93648
unlink 93634
dict@@ 93623
access_@@ 93608
GetHash 93607
Mac 93588
OM@@ 93588
o1 93580
sup@@ 93580
launch@@ 93555
Apple 93547
k2 93537
APP@@ 93502
Kernel@@ 93502
Structure@@ 93497
108 93467
tester 93452
Uuid 93445
Artifact@@ 93440
publish@@ 93436
2002 93424
concat 93397
sg@@ 93388
ISO 93361
display_@@ 93352
sam@@ 93351
stack_@@ 93326
000000 93314
AR_@@ 93303
getInt@@ 93303
kernel_@@ 93295
\u01@@ 93283
0x32 93265
art@@ 93250
accounts 93229
SG@@ 93209
Windows@@ 93206
SkPath 93192
away 93147
SPACE 93141
Millis 93131
Operand@@ 93114
Su@@ 93108
disable@@ 93086
Uni@@ 93069
Tra@@ 93033
02111-1307 93029
Indexed@@ 93017
JS_@@ 93011
AsString 93010
pressed 92954
94 92923
scaling 92893
Archive@@ 92851
avg 92832
Ignite@@ 92814
isdir 92812
language@@ 92808
wait_@@ 92800
PKG 92792
anim@@ 92790
vec4 92788
SN@@ 92785
pPlayer 92769
shard@@ 92758
keep@@ 92751
Balance 92729
networks 92720
google@@ 92718
vector_@@ 92708
gtk 92694
dep 92661
connection_@@ 92640
hooks 92632
Raw 92618
CamelContext 92608
strftime 92592
peer@@ 92591
reset_@@ 92574
maximum@@ 92554
land@@ 92521
DAO 92493
cont 92477
-1 92440
Hat 92434
happens 92371
pa 92370
IO_@@ 92368
builtin 92368
c2@@ 92338
subclasses 92297
Atom@@ 92286
QT_TRANSLATE_NOOP 92280
Resolve@@ 92270
visibility 92270
GN@@ 92264
ng 92261
Removed 92226
located 92217
SC_@@ 92199
area@@ 92186
Install@@ 92184
Lazy@@ 92134
shown 92125
scores 92117
BUTTON_@@ 92115
git@@ 92101
intersection 92076
anim 92047
iv@@ 92047
perform@@ 92033
Enter@@ 92032
zone@@ 92031
bytes_@@ 92016
que 92015
course_key 91983
est 91976
Gl@@ 91970
security@@ 91964
AW@@ 91956
ek@@ 91941
offset_@@ 91921
bd 91895
_page 91876
QEvent 91867
ite 91861
Er@@ 91853
getState 91839
Tok 91838
enc 91837
Login 91836
undo 91829
bean@@ 91820
javascript 91819
"2" 91809
Old 91809
endsWith 91808
css@@ 91795
Enabled@@ 91782
ces@@ 91773
wrap@@ 91730
pd@@ 91722
colour 91706
Dirty 91704
bn@@ 91698
pCreature 91693
ash 91686
place@@ 91679
course_id 91671
DS_@@ 91667
Self@@ 91660
internal_@@ 91623
Parts 91570
dll 91559
Sec 91556
RT_@@ 91547
od@@ 91546
contact@@ 91525
attempts 91499
\2@@ 91498
Buttons 91491
testGet@@ 91480
NAMESPACE 91479
Servlet@@ 91477
Delay@@ 91457
Score@@ 91457
Prev 91437
CRE@@ 91432
weight@@ 91422
previously 91413
Star@@ 91412
wave@@ 91410
CENTER 91405
stage@@ 91399
performed 91384
Dst@@ 91383
setId 91375
Typed@@ 91363
g_p@@ 91361
NI@@ 91358
enc@@ 91342
comparator 91323
invocation 91276
expand@@ 91273
memory@@ 91249
inst@@ 91248
represent 91239
thumbnail 91238
TCP 91219
A1 91208
char_@@ 91207
iface 91194
angle@@ 91167
writes 91163
sim 91162
Present 91152
single_@@ 91142
astype 91130
Card 91123
agreement 91118
kill 91112
bur@@ 91108
isa 91097
branch@@ 91068
cam@@ 91060
TRA@@ 91057
Hex@@ 91044
Converter@@ 91031
Quest@@ 91004
gdx 91001
Sim@@ 90991
o2 90969
METHOD_@@ 90963
prec 90959
degree 90956
gwt 90951
producer 90940
112@@ 90926
projection 90926
lib_@@ 90919
lets 90896
v201@@ 90847
CC_@@ 90839
rotate 90801
ens 90771
2. 90765
Getter 90762
possibly 90746
depth@@ 90738
const_cast 90726
download@@ 90711
QIcon 90706
Words 90667
VER 90666
CGUI@@ 90657
sparse_@@ 90644
vt 90636
sv 90629
swt 90610
TIONS 90601
Transition@@ 90601
ize@@ 90596
sur@@ 90589
0xFF@@ 90550
Pages 90547
ell 90522
lookup_@@ 90509
window_@@ 90499
Origin@@ 90495
READ@@ 90494
NOTICES 90492
rea@@ 90488
Pri@@ 90481
ISD 90468
i32 90440
VIEW 90428
x3 90427
ImmutableMap 90424
scale_@@ 90400
0x63 90386
fg@@ 90372
WS 90370
Leaf@@ 90334
Handles 90326
BOOST_CHECK_INTEGRAL_CONSTANT 90308
dependent 90308
0x05 90299
Conversion@@ 90296
Bool@@ 90287
def_@@ 90283
ticket 90270
Flush@@ 90263
env_@@ 90241
jackson 90236
Interpreter 90225
ag 90204
om 90202
Known@@ 90199
Fr@@ 90143
LC@@ 90129
workflow 90121
perm 90113
players 90086
Counts 90059
Nav@@ 90056
followed 90055
nbsp 90038
1.2 90034
spacing 90021
PIPE 90017
Comp 90011
int16 89978
NV@@ 89975
er_id 89936
TH 89916
mer 89911
TH_@@ 89841
chan 89827
io/@@ 89804
intptr_t 89783
Polygon@@ 89764
elapsed 89764
listed 89752
Popup@@ 89747
pItem 89747
blue@@ 89744
Pl@@ 89723
virtual@@ 89709
fire 89704
Images 89674
62@@ 89658
unit_@@ 89657
alibaba 89647
invoke@@ 89638
Align@@ 89631
Vector2 89609
GetValue 89593
constant_op 89574
Example@@ 89555
REQUEST 89540
Lua@@ 89530
OO@@ 89529
CL 89510
int16_t 89494
distutils 89474
getStatus 89473
OVER@@ 89466
Closed 89465
readable 89447
LayoutParams 89420
finish@@ 89418
MPL 89403
enter@@ 89379
wl@@ 89371
ha 89332
CAN@@ 89331
android@@ 89321
getLength 89318
python_@@ 89317
basic_@@ 89309
BLOCK_@@ 89291
Solver 89291
badlogic 89284
Streams 89280
jj@@ 89269
82@@ 89265
ech@@ 89226
pData 89213
retries 89209
Permissions 89127
RP@@ 89125
prefix@@ 89120
RD@@ 89113
Keyboard@@ 89110
hal@@ 89091
d/@@ 89077
12.@@ 89075
SQL_@@ 89052
ton 89041
defs 89040
/tools/@@ 89033
declared 89017
dispose 88996
QT_@@ 88987
Auth 88985
GD@@ 88970
property_@@ 88968
interrupt 88956
vec2 88955
functionality 88909
WebView 88905
similar 88877
QText@@ 88863
getSelected@@ 88850
value_ 88845
FIN@@ 88840
manage 88833
Vm@@ 88830
Physics@@ 88801
Shift@@ 88800
come 88764
separated 88763
PATH_@@ 88762
depending 88736
Samples 88725
enable_@@ 88701
getKey@@ 88697
providers 88693
unicode_literals 88693
1D 88678
party 88656
routine 88646
0x03@@ 88645
fine 88640
origin@@ 88630
GameObject 88629
roll@@ 88620
bf@@ 88619
transformation 88615
Processing@@ 88613
Topic@@ 88605
memory_@@ 88598
Len@@ 88596
AA 88564
GetString 88562
OUT@@ 88561
Seq 88527
HEAD 88509
ken@@ 88500
JS 88496
onCreate 88482
Distribution@@ 88421
tries 88418
Tester 88347
menu_@@ 88343
t_id 88328
doc_@@ 88307
Power 88289
0x07 88252
/tests/@@ 88212
400@@ 88196
л@@ 88187
MAN@@ 88166
pic@@ 88163
Ctrl@@ 88152
JLabel 88142
Original 88135
7' 88134
building 88132
BufferedReader 88125
ved 88112
Throw 88105
PHASE_@@ 88103
Special 88101
Cross@@ 88056
xxx 88055
hor@@ 88051
preferences 88037
half@@ 88015
styles 88015
Pi@@ 88010
COL@@ 87994
sf@@ 87985
Actor 87976
backwards 87936
exit@@ 87906
Increment 87905
scipy 87905
configure@@ 87884
AnsibleModule 87877
Pipeline 87845
spawn@@ 87833
Month 87809
shift@@ 87807
Bottom@@ 87801
ture 87767
wish 87763
Undo@@ 87761
LIGHT 87755
9" 87751
CXX@@ 87750
Characters 87745
critical 87745
higher 87734
Encode@@ 87712
four 87691
stro@@ 87681
destination@@ 87664
_values 87655
arm@@ 87648
generic@@ 87646
push_@@ 87641
across 87638
ticks 87632
ViewGroup 87612
HasBeenSet 87597
Deployment@@ 87578
Pixmap 87561
nHeight 87561
lazy 87542
Backup@@ 87537
lin 87536
plot@@ 87526
website 87520
112 87514
Translator 87498
places 87465
route@@ 87439
ReadOnly 87433
<DOCUMENT_ID="m@@ 87428
NULL_@@ 87417
Connections 87405
disk@@ 87404
ap_@@ 87399
actor@@ 87392
1\x@@ 87385
KS 87382
UNIT 87371
Required@@ 87339
Updates 87292
73@@ 87277
LIB@@ 87255
buckets 87253
GA@@ 87243
CheckBox 87234
secs 87230
Refs 87225
NumberOf@@ 87195
RunWith 87192
ROM_LOAD 87189
Retry@@ 87186
Cert@@ 87177
AX@@ 87149
lot@@ 87142
regardless 87110
creator 87105
_Fields 87104
extr@@ 87101
lon 87081
own@@ 87076
LIMIT 87048
Future@@ 87040
ae 87006
Full 87005
wk@@ 86989
overrides 86978
Shutdown 86974
102 86961
configurations 86942
Expand@@ 86941
CharSequence 86935
poll@@ 86933
disk_@@ 86925
sql_@@ 86923
EX_@@ 86912
setType 86911
queue_@@ 86885
isDebugEnabled 86882
ofs 86879
usually 86879
returnValue 86871
sites 86858
classi@@ 86857
SET@@ 86848
session_@@ 86837
GLuint 86833
closure 86811
vc 86784
admin_@@ 86760
Protos 86754
Tensor@@ 86732
VD@@ 86674
m_state 86666
decoded 86665
Alias@@ 86652
WE@@ 86635
grad@@ 86614
ame 86605
rp 86603
collection@@ 86596
Authentication 86576
conver@@ 86571
bm@@ 86546
looking 86542
Creation@@ 86534
9' 86501
dates 86472
Ev@@ 86465
backends 86444
Clicked 86436
hints 86379
Black@@ 86362
vis@@ 86338
Toolkit 86303
ObjectType 86298
solve 86278
gm@@ 86275
Cy@@ 86269
oper@@ 86269
WAR@@ 86239
Spacing 86231
larger 86227
\u04@@ 86216
has_key 86215
CREATE_@@ 86212
Pin 86211
Persistent@@ 86201
Best@@ 86195
developers 86194
filtered 86179
p/@@ 86160
roo@@ 86150
ton@@ 86138
inserted 86137
Jump@@ 86133
sessions 86133
Accept@@ 86126
stdio 86123
submit@@ 86119
Canvas@@ 86114
disc@@ 86095
6f 86094
unique_ptr 86080
terminate 86076
epoch 86059
lem@@ 86033
Sources 85978
ImageView 85967
holders 85961
RS@@ 85957
important 85955
Palette 85950
trigger@@ 85949
FD@@ 85947
render_@@ 85931
Wallet 85906
VAR@@ 85880
boxes 85869
Redwood 85868
Analysis@@ 85853
Primary@@ 85814
fro@@ 85810
ARB 85790
abs@@ 85751
Connected 85745
spring 85723
Initializer 85704
GRA@@ 85700
subscription 85688
Offsets 85684
Globals 85676
quit 85664
drive 85654
getColumn@@ 85653
BG@@ 85591
tree_@@ 85574
Br@@ 85573
Attrs 85559
asio 85533
capabilities 85480
m_c@@ 85459
STREAM_@@ 85455
minimum@@ 85400
try_@@ 85398
al/@@ 85316
phone 85313
MVT 85312
Fo@@ 85308
ActionEvent 85307
DEF 85298
zA 85290
160 85289
CLIENT_@@ 85284
testCase 85283
funcs 85254
Share@@ 85247
execution@@ 85242
atch@@ 85234
Details@@ 85214
login@@ 85211
smaller 85199
ph 85190
brief 85168
look@@ 85147
secure 85133
LINK 85100
integration 85065
appendChild 85062
ha@@ 85060
isfile 85055
sch@@ 85047
sx 85040
0x55 85037
EN 85026
back_@@ 85024
GTK_@@ 85004
sym@@ 85003
Composite 84986
Ready 84938
ord@@ 84929
fragment@@ 84927
nextToken 84918
oo 84918
IndexError 84885
week 84869
existing@@ 84851
exp_@@ 84844
Once 84821
uk 84816
character@@ 84795
rendered 84768
dialog@@ 84744
mp_@@ 84737
Lin@@ 84735
getH@@ 84731
attach@@ 84702
Vec3 84701
TE_@@ 84652
Tick@@ 84652
Regs 84620
Aggregation@@ 84617
oop 84604
implementations 84596
rpc@@ 84586
0xe@@ 84584
Views 84561
Framework 84558
getNode 84557
Base64 84554
80@@ 84535
OUTPUT_@@ 84471
Plot 84465
AND@@ 84457
metadata@@ 84457
ka 84447
InetAddress 84434
th_@@ 84415
Parkway 84401
boto 84396
triangle 84372
alpha@@ 84371
ExecState 84370
Shores 84336
Dictionary@@ 84335
0xb@@ 84329
TX@@ 84322
basis 84303
0xffff 84294
pause 84288
matrix@@ 84280
94065 84279
id_ 84269
BA@@ 84268
nil 84252
med@@ 84249
Try@@ 84242
\b 84234
4d@@ 84233
PB@@ 84224
BOOST_AUTO_TEST_CASE 84217
ATOR 84214
Autowired 84212
S3@@ 84211
AB 84199
bot@@ 84174
emp@@ 84161
spi@@ 84156
watch 84154
ADD@@ 84149
escaped 84132
ee 84130
Anim 84103
mas@@ 84099
ML 84093
const@@ 84078
ol 84075
4f@@ 84060
Attributes@@ 84059
pas@@ 84056
binary@@ 84034
dummy@@ 84033
Dispatch@@ 84030
counter@@ 84021
MT 84015
Clean@@ 84004
Javadoc 83983
Modifier@@ 83965
0xd@@ 83944
Click@@ 83938
article 83935
PLAYER 83933
help@@ 83925
typ 83924
Specific@@ 83915
demo 83915
frag@@ 83908
ado 83851
notifications 83847
outer@@ 83846
Define 83794
root_module 83790
seek@@ 83779
Handlers 83767
elem@@ 83766
carbon 83757
"1.@@ 83748
TF@@ 83711
Nodes@@ 83704
twisted 83676
free_@@ 83671
projec@@ 83655
dto 83653
Preview@@ 83640
existing_@@ 83628
dra@@ 83625
Iter@@ 83622
CYRILLIC 83575
bbox 83566
wor@@ 83553
Horizontal@@ 83550
eof 83539
draft 83538
DIGIT 83536
methodName 83530
GroupLayout 83487
corner 83484
nav@@ 83480
aren 83478
stri@@ 83448
93@@ 83441
represented 83441
quoted 83434
Wave@@ 83433
p3 83427
extract_@@ 83425
_parse_@@ 83401
pen 83395
por@@ 83382
score@@ 83382
few 83370
band 83367
arg2 83362
ssh@@ 83362
dead 83352
CI 83327
GS 83309
email@@ 83298
dm 83288
upper@@ 83271
els 83197
recur@@ 83196
invalid_@@ 83183
policies 83182
Cre@@ 83174
Supplier 83158
cipher 83156
author@@ 83119
spin@@ 83118
DL@@ 83098
QLabel 83090
ore 83086
JSON_@@ 83043
getAs@@ 83040
groovy 83036
email_@@ 83033
random_state 83029
NT 83015
objs 83007
pipeline@@ 83007
Compound@@ 83004
coll 83003
Single 82998
Speci@@ 82996
terminal 82996
export_@@ 82979
ARM@@ 82964
Hi@@ 82959
density 82932
ActionListener 82918
ErrorMessage 82912
rp@@ 82910
fixtures 82902
MU@@ 82900
meta_@@ 82880
pending@@ 82874
fl 82848
sequence@@ 82820
Principal 82817
WS_@@ 82804
/g@@ 82780
LOAD 82766
Additional@@ 82721
video_@@ 82715
Addresses 82693
occur 82665
draw_@@ 82659
marks 82656
getA@@ 82647
StringUtil 82632
Layers 82627
assert_raises 82615
platforms 82613
/core/@@ 82608
BaseMessages 82572
PORT_BIT 82569
prototype 82564
angles 82559
leaf@@ 82550
handler_@@ 82534
translate@@ 82531
PassRefPtr 82518
RC_@@ 82487
tele@@ 82457
PUT 82452
Demo@@ 82444
MBB 82424
UINT32 82412
CreatureAI 82380
flow_@@ 82370
spo@@ 82356
ish@@ 82355
DL 82352
arraycopy 82333
alize 82320
jpg 82320
ExecutionException 82315
tail@@ 82306
4e@@ 82302
Modules 82299
ImGui 82292
alive 82291
ke_@@ 82283
led_@@ 82268
War@@ 82260
But 82258
Refresh 82253
fm 82239
previous_@@ 82238
Imm@@ 82235
May 82221
fy@@ 82216
beam 82196
pkg@@ 82185
Opt@@ 82181
tal@@ 82172
Dim 82171
Django 82169
alo@@ 82154
Vec2 82150
loops 82149
HWND 82135
Same 82131
img_@@ 82122
Hive@@ 82085
ical 82058
tokenizer 82010
bm 82002
attr_@@ 81996
infos 81982
Behavior 81980
mv 81947
toLowerCase 81940
rr 81930
shadow 81922
iter_@@ 81917
XPath@@ 81904
center@@ 81900
na@@ 81891
migrations 81890
Break 81887
Dot 81876
vn@@ 81874
packets 81857
preference 81856
rer 81833
iso 81828
observer 81823
norm@@ 81815
Sign 81812
od 81805
energy 81804
Ed@@ 81786
Linked@@ 81786
getProperty@@ 81778
leg@@ 81777
Met@@ 81766
ong 81754
Syn@@ 81736
ny 81731
getResource@@ 81711
Curve@@ 81692
STREAM 81680
Inventory 81677
OUT_@@ 81667
editor@@ 81664
alt@@ 81652
s.java"> 81649
pip 81623
spar@@ 81613
reactor 81598
IR 81593
cro@@ 81593
sim@@ 81584
Cookie@@ 81571
0x2e 81544
buf_@@ 81529
serv@@ 81528
10.0 81489
Toast 81470
Include 81440
MF 81421
ys 81421
dic@@ 81411
QSize 81382
ade@@ 81381
Sizes 81369
quotes 81353
<DOCUMENT_ID="d@@ 81352
Descriptors 81350
VERIFY 81339
login_@@ 81336
settings_@@ 81333
fullname 81332
gener@@ 81321
NET 81316
Certificate 81276
multiply 81271
s0 81269
batch_@@ 81260
ino@@ 81213
_mask 81198
Coin@@ 81165
parsed@@ 81164
vlan 81162
Groovy@@ 81149
clf 81146
detail@@ 81139
ned@@ 81114
Jit@@ 81099
eax 81092
COMMAND 81081
hyper@@ 81079
2.5 81042
TB@@ 81018
Anchor 81008
Execution 81007
ado@@ 80963
setCurrent@@ 80960
rel_@@ 80904
estimator 80902
aligned 80818
theWrappedObject 80813
addChild 80789
Some@@ 80783
ye@@ 80783
ality 80754
lookups 80749
Route 80746
fs_@@ 80741
ular@@ 80741
azure 80735
partitions 80721
Previous@@ 80714
flat@@ 80707
findall 80694
horizontal 80692
Ph@@ 80678
_a 80675
salt 80666
600 80664
rh@@ 80662
p2@@ 80659
pick@@ 80653
Dep@@ 80646
Dependencies 80645
setDefault@@ 80640
0x64 80630
QPointF 80630
Equal@@ 80623
Mag@@ 80601
Wi@@ 80592
gid 80539
01-@@ 80534
PATTERN 80533
QTest 80531
lex 80530
spawn 80521
PG@@ 80513
ARGS 80502
EXPECT_@@ 80500
TOR_@@ 80492
Assembly@@ 80478
tos 80475
Annotations 80473
peek 80460
Cms@@ 80454
jav@@ 80409
Fraction 80385
Slice@@ 80380
gro@@ 80373
Nonnull 80363
domains 80363
password@@ 80339
shader@@ 80334
Registration@@ 80326
activation 80317
direct@@ 80310
slow 80305
NUM@@ 80304
candidates 80290
hive 80281
public@@ 80268
feed@@ 80267
jump 80258
extras 80222
quick@@ 80181
Summon@@ 80165
Brush 80143
follows 80133
Primitive 80123
RFC 80118
Minimum 80108
Pic@@ 80102
Username 80098
Need 80090
ato@@ 80087
gain 80080
tagName 80076
demo@@ 80059
q1 80059
mkdir 80044
TRANS@@ 80040
0xa@@ 80036
Feed@@ 80022
USER@@ 80016
Capture 80007
/java/@@ 80006
tf_@@ 80006
bl 80001
Ranges 79997
ql 79987
graph_@@ 79970
QImage 79966
TIME@@ 79966
125 79964
Scheduler@@ 79948
recent 79941
Keep@@ 79937
Capabilities 79933
Receive@@ 79931
degrees 79882
_make_@@ 79845
quiet 79804
cross@@ 79797
TEX@@ 79790
OpenGL 79750
ensure_@@ 79734
resume 79732
NEW_@@ 79721
upon 79721
Q_ASSERT 79714
a3 79709
terminated 79684
pretty 79680
phase@@ 79678
с@@ 79670
public_@@ 79660
URI@@ 79643
FM@@ 79610
Fun@@ 79579
little 79578
lengths 79574
Blend@@ 79558
diff_@@ 79548
Gradient 79543
ni 79539
ET 79530
gpu 79526
Loading@@ 79502
listen 79501
oauth 79491
Concurrent@@ 79486
Links 79482
domainObject 79476
daemon 79475
clusters 79456
lay@@ 79444
Dirs 79442
nr@@ 79427
Glyph 79413
sq 79371
pixmap 79360
bases 79359
eri@@ 79357
VIEW_@@ 79347
lv@@ 79340
PARAM 79325
pieces 79317
coins 79313
CODE@@ 79290
__FUNCTION__ 79287
jobject 79277
blob@@ 79247
cel@@ 79243
mount 79232
policy_@@ 79231
NET_@@ 79214
SpellScriptLoader 79203
UCAL_@@ 79200
Coord@@ 79198
Anchor@@ 79182
egg 79180
Py 79176
subtype 79176
external_@@ 79155
distance@@ 79134
Guard 79125
CHARACTER 79124
IsIn@@ 79113
j_@@ 79107
anonymous 79106
deserialize 79105
Original@@ 79098
hard 79086
CN@@ 79078
bottom@@ 79076
pn 79075
CX@@ 79074
Attack@@ 79055
tmpdir 79049
temperature 79044
Zoom@@ 79032
han@@ 78985
DateFormat 78984
pen@@ 78980
Mon@@ 78962
integers 78961
Physical@@ 78917
Im@@ 78895
lb@@ 78882
ware@@ 78853
mc@@ 78828
selected_@@ 78817
Ra@@ 78804
BG_@@ 78800
Translate@@ 78764
startup 78758
FileInputStream 78752
basestring 78745
middleware 78744
holding 78712
snprintf 78709
YEAR 78699
opensource 78693
Decimal@@ 78658
Sensor 78655
hardware 78629
ht 78627
groupId 78618
toolbar 78617
fX 78606
GetAI 78602
cpu_@@ 78557
Extract 78549
Motion@@ 78527
Month@@ 78525
compile@@ 78522
Launch@@ 78514
Algorithm@@ 78513
zer@@ 78512
STOP 78509
volumes 78495
800@@ 78478
shards 78455
Restore 78453
angle_@@ 78451
Fac@@ 78440
ob 78439
optimize 78437
getTest@@ 78435
is_valid 78420
ion 78416
IE 78408
repeated 78400
Final 78395
neighbors 78392
AUTO@@ 78391
namespace@@ 78380
;@@ 78352
ADDR 78343
lead 78334
_un@@ 78329
yy 78307
bra@@ 78294
assert_array_equal 78277
pkt 78273
uchar 78247
et_@@ 78245
embedded 78240
Popup 78231
matrix_@@ 78197
joint 78191
Emitter 78137
annotation@@ 78111
Schedule@@ 78103
sys_@@ 78100
typ@@ 78089
gettext 78078
Allow 78061
hierarchy 78040
coverage 78037
GetInstance 78034
Midi@@ 78034
FR@@ 78027
TER_@@ 78001
cg 77989
Vehicle@@ 77975
Restore@@ 77973
Defs 77964
XX 77961
CASE 77939
wizard 77931
fh 77913
Allocation@@ 77865
mf 77834
spells 77834
Joint@@ 77830
Look 77826
__all__ 77821
ever 77800
role_@@ 77786
radio@@ 77784
QGraphics@@ 77775
Have@@ 77760
dev_@@ 77759
pat 77755
Lang@@ 77730
ana 77730
circle 77713
SYSTEM_@@ 77701
EB@@ 77700
ga 77694
setMax@@ 77681
fY 77675
requirement 77671
stamp 77667
Quad@@ 77661
term@@ 77660
volume@@ 77652
args_@@ 77644
reports 77644
quest 77617
_d@@ 77586
FAC@@ 77577
Helpers 77563
Am@@ 77559
pfrom 77556
Representation 77536
element_@@ 77535
nTime 77535
pblock 77517
sis@@ 77495
11.@@ 77493
hot@@ 77453
\00@@ 77445
condition@@ 77423
Transfer 77415
modifier 77397
Asm@@ 77395
live@@ 77390
perf 77375
Executor@@ 77367
Mer@@ 77367
FRAME_@@ 77359
Mini@@ 77350
ARG 77340
/open@@ 77334
decl@@ 77329
hd@@ 77320
c0 77293
Wrap@@ 77292
JNIEnv 77291
wide 77269
Topic 77266
ACTIVE 77262
joint@@ 77253
getter 77246
invalidate 77240
fail_@@ 77238
topology 77232
Spatial@@ 77227
publisher 77209
range_@@ 77190
merged 77178
TableName 77169
Eval@@ 77168
prod 77165
dp@@ 77145
SA 77137
WARN 77133
Highlight@@ 77109
brush 77102
hits 77100
doctest 77096
Destination@@ 77088
sent@@ 77074
Dead@@ 77071
ning@@ 77059
Health 77050
DN@@ 77048
Literal@@ 77045
millis 77044
getText@@ 77030
getParent@@ 77007
Merge 77005
Reply@@ 77004
RANGE 76969
60@@ 76965
Determine 76955
profile_@@ 76943
Movement@@ 76936
G3D 76902
NF@@ 76892
backup@@ 76892
sti@@ 76892
Registration 76878
4a@@ 76864
to_string 76863
INIT 76855
Workflow@@ 76855
Q_UNUSED 76846
addTo@@ 76811
Assign 76798
Templates 76797
pub 76795
Nothing 76793
BOOLEAN 76790
TIC@@ 76790
example@@ 76789
Artifact 76784
g/@@ 76759
10_@@ 76756
pg 76740
0x70 76735
MASK_@@ 76712
Forward@@ 76682
Fixture 76675
broken 76663
Machine 76632
Attach@@ 76615
Partial@@ 76613
he 76612
gf 76608
getNode@@ 76602
tested 76588
uprv_@@ 76585
bind_@@ 76575
fill_@@ 76575
font_@@ 76540
getString@@ 76536
ttl 76533
sTest 76521
Cat@@ 76479
g1 76477
Cleanup 76475
expanded 76475
meter 76454
SB@@ 76442
DIR_@@ 76441
Conf@@ 76418
glyphs 76417
logln 76410
TLS 76399
0x33 76396
relative@@ 76388
jint 76387
rollback 76377
_password 76372
Plot@@ 76357
SimpleDateFormat 76320
tru@@ 76310
clone@@ 76306
CBlockIndex 76300
destroy@@ 76299
released 76280
QDir 76275
Timestamp@@ 76265
Seek@@ 76260
Modify@@ 76251
complete@@ 76250
ure@@ 76242
800 76227
bt 76218
n/@@ 76215
ise 76209
Rotation@@ 76199
Joint 76179
bins 76135
measure 76131
getvalue 76129
Attachment 76128
eu@@ 76110
dialect 76108
Frequency 76106
aux 76104
RB@@ 76098
Fields@@ 76081
likely 76076
FUNC_@@ 76068
collect@@ 76064
sphere 76030
soft 76025
ima@@ 76021
progress@@ 76018
SIG@@ 76016
several 76016
Download 76000
sor 75986
/src/org/@@ 75965
SK@@ 75963
zoom@@ 75963
Assignment 75956
activated 75952
pch@@ 75935
ItemStack 75925
Cols 75909
d_data 75896
fixed_@@ 75892
grammar 75890
USB@@ 75882
WorldPacket 75872
trees 75868
win32@@ 75864
prefs 75849
tb@@ 75838
TU@@ 75828
append_@@ 75828
logged 75828
mut@@ 75826
ALI@@ 75820
Owner@@ 75813
be_@@ 75806
Embedded@@ 75804
normally 75780
AC 75767
wave 75756
103 75743
Translation@@ 75728
slave 75719
Place@@ 75717
keystore 75713
Currency@@ 75703
shuffle 75693
tzinfo 75690
Shadow 75683
rent 75673
DISP@@ 75651
caps 75651
regexp 75648
symbol@@ 75645
PROC 75644
true@@ 75621
v1.0 75616
EM@@ 75604
Push 75553
framework@@ 75553
listener@@ 75521
ata@@ 75508
More@@ 75506
cl_@@ 75485
wn 75468
GLfloat 75451
u16 75448
BUTTON 75444
getDescription 75423
Devices 75412
Writable@@ 75410
payment 75409
FieldType 75404
Disable 75396
amazon 75389
packaging 75384
eli@@ 75368
Needed 75367
WCHAR 75360
remainder 75337
ended 75332
assert_array_almost_equal 75331
tax 75314
Round 75306
Combo 75290
nValue 75287
notification@@ 75284
Conn 75275
_test@@ 75272
ka@@ 75272
member_@@ 75272
Low 75267
Scroll 75262
dynamically 75250
Formats 75244
predict 75212
v10 75211
noti@@ 75206
\u03@@ 75195
fb 75186
vehicle 75179
urn 75164
PM 75157
imported 75152
predic@@ 75143
Management 75140
PORT_DIPSETTING 75129
com/@@ 75125
isEnabled 75123
TA 75107
slash 75104
api/@@ 75087
Picture 75081
overlap 75065
CR 75056
subs 75051
getAbsolutePath 75042
Pick@@ 75023
/tree/master/lib/@@ 75021
Thus 75012
Singleton 75007
Outputs 75004
licensing 74998
cloud_@@ 74992
referenced 74987
health@@ 74970
el_@@ 74945
spark 74939
setting@@ 74928
Ta@@ 74921
android/@@ 74893
PreparedStatement 74886
cast_@@ 74860
refer 74851
emo@@ 74837
staff 74837
Req@@ 74831
today 74816
s2@@ 74815
coeff 74814
scriptSig 74808
Air@@ 74799
Solution 74792
graphic@@ 74788
Strip@@ 74774
Prepare@@ 74772
gameLocal 74728
caption 74727
Seg@@ 74725
nlocal 74709
Regex@@ 74707
ini 74707
test_session 74694
ced@@ 74692
Steps 74678
LOCAL 74675
passing 74666
Types@@ 74650
value_type 74644
migration 74640
LogFactory 74634
identical 74625
tip 74600
flu@@ 74582
stock 74576
increment@@ 74572
Bl@@ 74563
flask 74551
_pool 74546
Popen 74541
s_by_@@ 74538
т@@ 74533
Checked 74531
Dump 74522
0.3 74521
lock_@@ 74519
CONTEXT_@@ 74515
comes 74495
tri 74480
delta_@@ 74474
chat 74473
board@@ 74411
dar@@ 74407
INF 74386
soap_@@ 74374
BACK 74372
Qwt@@ 74368
fic@@ 74359
INTO 74357
tit@@ 74357
dic 74350
Ret@@ 74334
_SP@@ 74312
SC 74303
jar@@ 74286
OPTIONS 74269
Dynamic 74257
m_v@@ 74254
D_S@@ 74238
WebSocket@@ 74238
pre_@@ 74226
SUCCEEDED 74209
Answer 74205
sklearn 74189
192 74185
linear@@ 74180
t3 74172
download_@@ 74165
Plain@@ 74163
ders 74152
Fetch 74151
errorMessage 74136
ular 74132
wise 74115
past 74112
StartTime 74110
ValueType 74094
ParseError 74083
1234 74073
High 74073
MULTI@@ 74062
@@ 74060
Encode 74033
getIndex 74020
Vehicle 74015
kno@@ 74005
fix_@@ 74004
history@@ 73999
ron 73989
/tree/master/src/main/java/@@ 73984
'1.@@ 73971
Purpose 73968
92@@ 73962
implicit 73943
CP 73939
Binder 73906
lost 73887
calculated 73880
ized@@ 73877
Choice 73868
IL 73866
DisplayName 73854
sy 73852
Using@@ 73850
Percent 73821
broker 73815
testdir 73812
visited 73802
8000 73798
rid@@ 73796
savefile 73796
MP_@@ 73785
Maven@@ 73785
exception_@@ 73752
mul@@ 73742
mismatch 73738
restore@@ 73733
caret 73727
ms_@@ 73726
specifying 73723
yu@@ 73715
share@@ 73713
clu@@ 73696
FC 73694
float_@@ 73694
Gtk@@ 73692
RS 73680
opening 73671
SkIntToScalar 73664
sense 73658
Spin@@ 73645
Remote 73636
XY@@ 73629
quota 73624
Av@@ 73614
serial@@ 73614
5e@@ 73597
vim 73591
FILTER 73582
_events 73564
addr_@@ 73563
typeName 73557
Hit 73548
C1 73545
nam@@ 73542
variance 73531
ving 73517
idx@@ 73511
wParam 73501
tracks 73498
Conver@@ 73490
fasterxml 73488
newBuilder 73468
CURRENT_@@ 73466
US_@@ 73464
core_@@ 73460
scal@@ 73438
SHIFT 73420
cul@@ 73415
version_info 73408
missing_@@ 73403
schedule@@ 73393
Just 73359
rig@@ 73349
Completed 73341
tx_@@ 73341
gb 73332
UM 73327
probability 73324
crc 73312
Jar@@ 73303
edx 73303
tty 73301
conn@@ 73297
0x41 73294
Sur@@ 73294
optimization 73292
xx@@ 73278
"201@@ 73274
effects 73260
sho@@ 73257
ode 73255
geo 73224
ByteArray 73222
getE@@ 73218
SDValue 73215
FP 73162
LED 73146
android_@@ 73146
para 73140
fHelp 73138
exponent 73137
STE@@ 73134
text_type 73133
found_@@ 73129
4c@@ 73125
Win 73113
arm 73108
drawing 73104
predictions 73088
ion@@ 73079
CY@@ 73071
thus 73055
part_@@ 73043
getSource@@ 73033
pool_@@ 73030
/tree/master/tests/@@ 73017
U32 73015
needs@@ 73000
GT@@ 72998
multi_@@ 72998
vl@@ 72982
lr 72974
configuration@@ 72970
execute_@@ 72968
Crypto@@ 72965
orders 72962
walk@@ 72948
Initi@@ 72944
bon@@ 72917
launch 72915
interface_@@ 72908
workers 72904
star 72886
setData 72878
Second@@ 72868
sorted@@ 72868
GE_@@ 72859
ave 72859
Diagnostic@@ 72853
QFile 72845
authorization 72845
relevant 72834
ma_@@ 72826
DD 72821
_logger 72820
simul@@ 72818
Weight@@ 72814
cos@@ 72810
ags 72804
Helper@@ 72795
SetValue 72786
Perf@@ 72785
BYTES 72780
organ@@ 72772
Mouse 72757
RESOURCE_@@ 72757
seems 72751
stubs 72746
kie 72744
Google@@ 72743
OVERRIDE 72738
tional 72736
PBX@@ 72727
endian 72711
quanti@@ 72704
Wnd 72681
arr@@ 72680
2b@@ 72669
scaled 72665
0.01@@ 72659
gov 72652
pubkey 72643
late 72640
setVisibility 72630
activity@@ 72626
dump_@@ 72621
Cr@@ 72619
fied@@ 72619
gz 72618
cms 72612
rad 72611
Arch@@ 72604
trip@@ 72568
Backend@@ 72531
convertTo@@ 72528
ness@@ 72528
ian 72522
newRow 72514
setChecked 72467
playlist 72459
cocos2d 72457
saved@@ 72455
Ca@@ 72448
Secure@@ 72443
QUrl 72442
UpdateAI 72439
test1 72435
BasicBlock 72432
fileobj 72430
title_@@ 72429
broadcast 72415
protocols 72414
Me 72409
CLO@@ 72408
Got 72399
s.cpp"> 72397
Indicator 72385
OGR@@ 72385
course@@ 72383
2010-@@ 72368
recipient 72365
PV@@ 72358
rstrip 72343
hide@@ 72340
Detector 72333
consume 72329
confirm 72324
TEMPLATE 72323
consider 72305
docstring 72304
library@@ 72292
WR@@ 72282
Aggregate@@ 72269
Framework@@ 72261
lon@@ 72261
ten 72250
bootstrap 72242
crash 72227
__LINE__ 72226
endpoints 72210
collec@@ 72164
bool@@ 72160
Round@@ 72095
pal@@ 72087
kit 72085
AD_@@ 72084
ther 72079
_l@@ 72073
stdlib 72072
_by_@@ 72070
Preference@@ 72031
.5 72025
ObjectGuid 72025
OAuth@@ 71988
parsed_@@ 71968
util/@@ 71958
rot 71957
Lower 71942
PY@@ 71918
John 71913
4b@@ 71909
ail@@ 71909
mon 71889
More 71887
Payload@@ 71820
arbitrary 71806
credit 71789
MEMBER 71778
w3c 71777
replace_@@ 71760
iterate 71745
legacy 71719
Contract 71705
wtf 71698
fied 71687
getBase@@ 71685
0.7@@ 71663
contract 71663
c3 71654
unable 71651
grid_@@ 71648
Visit@@ 71647
TY@@ 71635
Tur@@ 71620
SM 71616
Upper@@ 71613
v2@@ 71609
Transformer 71599
\value 71593
value1 71586
overridden 71582
getFirst@@ 71576
ByteString 71571
MA_@@ 71571
1a 71561
CHAR@@ 71552
ret_@@ 71552
loop_@@ 71547
cmds 71543
loaded@@ 71537
GM@@ 71514
Retrieve 71512
FileOutputStream 71507
CPU@@ 71503
topic@@ 71469
spam 71446
nm 71426
buck 71425
classpath 71409
Override@@ 71397
upload@@ 71384
Lat@@ 71379
req_@@ 71376
languages 71371
IPv4 71367
Effects 71358
CT_@@ 71356
Tor@@ 71356
ITS 71349
SH_@@ 71337
132@@ 71330
manually 71330
optimizer 71323
emf 71321
gap 71321
nonce 71319
JOIN 71306
txid 71284
Half@@ 71282
bugs 71262
JSONArray 71261
deployment 71260
assign@@ 71256
ace@@ 71239
Initialized 71237
svg 71207
-core@@ 71194
qint64 71194
Compressed@@ 71180
tax@@ 71175
0x75 71156
Cloud 71152
LOCAL_@@ 71152
Comments 71144
IF_@@ 71140
Vcs@@ 71134
org/@@ 71128
ently 71127
encrypted 71122
background@@ 71120
5/@@ 71115
0x13 71104
expires 71084
numeric_limits 71081
FIRST 71072
stroke 71072
ImmutableSet 71064
float64 71043
Seed 71038
only_@@ 71035
cube 71034
vert 71031
wp 71029
Assign@@ 71016
ACCESS_@@ 71015
zones 71004
Initialize@@ 71002
01" 70983
GetCreature 70981
*@@ 70956
999 70952
lParam 70939
python/@@ 70932
goes 70924
ful@@ 70912
scan_@@ 70905
HOME 70903
amb@@ 70902
pThis 70902
MAC 70893
sive@@ 70865
QAbstract@@ 70854
act_@@ 70846
FLA@@ 70822
xmm@@ 70820
escape@@ 70815
"12@@ 70812
THE@@ 70811
enumeration 70794
err_@@ 70771
accuracy 70766
RESULT_@@ 70763
MessageBox 70745
nex@@ 70737
JComponent 70723
Sn@@ 70717
/src/test/java/org/@@ 70712
Tip 70711
DataFrame 70693
REAL 70686
FieldName 70668
URLs 70664
evaluation 70663
endpoint@@ 70657
WA@@ 70655
drools 70635
Requested 70624
tiles 70614
webView 70610
COMMAND_@@ 70608
HEADER_@@ 70594
dri@@ 70593
ges 70588
Specifies 70581
MAR@@ 70577
spellInfo 70561
IMAGE 70559
Bus 70554
getField@@ 70548
app_label 70528
QPainter 70526
getRoot@@ 70524
_SI@@ 70520
become 70518
maven 70518
dup 70509
conditional 70461
Accessibility@@ 70458
Man 70455
EVT_@@ 70446
epl 70429
7/@@ 70425
ONE@@ 70409
newArrayList 70393
gpl 70385
check_mode 70381
GREEK 70363
rip@@ 70333
wrap_@@ 70331
Scenario@@ 70330
neutron 70322
fit@@ 70308
Gateway@@ 70304
repository@@ 70292
getChildren 70281
Radio@@ 70272
BY_@@ 70268
Fit@@ 70258
TEST_F 70256
organization 70247
Ri@@ 70241
SD 70241
listing 70228
subscribe 70226
64' 70218
qgl@@ 70210
Fil@@ 70208
V8@@ 70198
LU@@ 70197
s32 70196
quot 70181
ulation 70177
Disp@@ 70168
drop_@@ 70154
FROM_@@ 70150
artist 70129
BM@@ 70106
SECONDS 70093
Will 70091
ftype 70090
RAN@@ 70064
Non 70058
0x20@@ 70057
nextInt 70049
contentType 70034
mContext 70029
ru 70029
GPU 70027
transient 70026
BT@@ 70022
assert_almost_equal 70022
Dependency 70014
sensor@@ 70012
Discovery@@ 70008
setTitle 70006
nn@@ 70002
mCurrent@@ 69989
Logger@@ 69987
FILTER_@@ 69983
GB 69967
thing@@ 69967
5-@@ 69965
Scoped@@ 69953
builder@@ 69953
Gi@@ 69952
calc 69937
AtomicInteger 69931
det 69927
\0" 69924
fatal 69920
Locations 69915
cx@@ 69915
required@@ 69902
wstring 69899
345@@ 69894
exist@@ 69888
Levels 69869
_SpellScript 69864
SINGLE 69840
scenario 69839
production 69835
purposes 69831
ki 69825
Pitch 69820
Dst 69808
receive@@ 69806
mor@@ 69801
Bus@@ 69790
SI 69778
Success@@ 69775
ish 69775
accordance 69767
pname 69766
readInt 69736
AttributeValue 69735
DM@@ 69731
V1 69730
Alert@@ 69722
fg 69718
metric@@ 69718
assertIsInstance 69708
devtools 69708
TESTS 69702
0x34 69694
ly_@@ 69654
pathname 69654
cer 69639
ith@@ 69631
PIXEL@@ 69628
Encoded@@ 69616
CNetAddr 69614
Arr 69611
LY 69601
_options 69596
indicator 69579
keyboard 69574
REQUEST_@@ 69557
11_@@ 69555
104 69539
» 69532
FLERR 69530
tok@@ 69525
analyzer 69519
marker@@ 69506
React@@ 69505
comment_@@ 69500
tensors 69498
Found@@ 69490
UNI@@ 69490
Animator 69479
CORBA 69474
test/@@ 69474
tests/@@ 69474
Weak@@ 69464
backward 69454
Inspection@@ 69447
mime 69434
phone@@ 69420
HT@@ 69415
macros 69414
media_@@ 69407
determined 69405
storage_@@ 69398
ull 69398
camera@@ 69396
cop@@ 69390
quad 69378
0x38 69377
clusterState 69377
construction 69374
have_@@ 69334
unique_@@ 69310
LOW 69300
White@@ 69288
changing 69282
_x 69275
lf 69272
mox 69266
TAB@@ 69262
01' 69253
anti@@ 69241
canonical 69231
Distributed@@ 69219
ool 69209
Dimension@@ 69181
Slots 69169
rounding 69166
alization 69164
_key 69162
nx@@ 69157
QChar 69154
getSimpleName 69145
hwnd 69133
Specification 69113
RETURN_@@ 69104
d0 69091
sqlalchemy 69081
bus@@ 69080
reversed 69072
Alternatively 69047
Fn@@ 69029
Or 69013
ace_@@ 69005
Unsigned@@ 69002
Flat@@ 69001
IsEmpty 68997
ByteBuf 68989
1e-@@ 68983
fw 68980
Logging 68966
Js@@ 68935
IN_MILLISECONDS 68912
rever@@ 68905
ful 68897
OW@@ 68892
ao@@ 68892
m_name 68891
intended 68868
SSL_@@ 68850
conf_@@ 68849
removing 68846
TC 68841
desktop 68831
chance 68829
LED_@@ 68823
maybe 68823
discovery 68822
ery 68821
fclose 68818
side_effect 68799
browser@@ 68794
wt 68791
Rank 68789
Chart@@ 68788
PAGE_@@ 68784
numer@@ 68770
setSize 68761
number_@@ 68739
parsers 68737
Assembler 68730
histogram 68697
ked_@@ 68685
Summary@@ 68681
tran@@ 68678
after_@@ 68677
Interfaces 68676
PrintWriter 68676
splits 68675
Information@@ 68673
movie 68658
moving 68650
classname 68641
w2 68630
gri@@ 68627
Comparable 68607
streaming 68603
bn 68589
Classifier 68581
Weapon@@ 68577
detec@@ 68572
edit_@@ 68569
MenuItem@@ 68560
ree 68529
txTo 68526
DRA@@ 68511
wheel 68509
getActivity 68501
bufferSize 68495
reuse 68487
category@@ 68483
null_@@ 68479
Routing@@ 68476
sourceforge 68474
stu@@ 68474
CALL_@@ 68473
4/@@ 68468
LABEL 68465
Lu@@ 68460
__call__ 68434
pindex@@ 68411
Hint@@ 68399
wit@@ 68396
3000 68394
inline@@ 68387
lo_@@ 68384
bas@@ 68369
deque 68361
rating 68360
POS 68354
0x18 68338
align@@ 68333
listdir 68322
Problem 68316
microsoft 68312
ged@@ 68272
Au@@ 68262
Rename@@ 68258
wc 68258
DNS 68254
analy@@ 68253
ene@@ 68253
isChecked 68224
Evaluator 68218
worker@@ 68214
principal 68210
locale@@ 68207
BitSet 68198
TL 68195
Bulk@@ 68191
UP_@@ 68169
localName 68169
w1 68160
ARRAY_@@ 68155
itertools 68149
OPEN 68129
Coordinate 68111
direc@@ 68105
yo@@ 68099
Slider@@ 68095
Choice@@ 68093
Servlet 68086
IC 68082
Duration@@ 68078
handshake 68075
Removes 68047
Modes 68034
datatype 68027
supported@@ 68027
PASSWORD 68018
ain@@ 68018
PLAYER_@@ 68013
ver_@@ 68007
Preference 68000
ln@@ 67995
Scheduled@@ 67993
explo@@ 67964
searchResponse 67959
pet 67957
0x7f0100@@ 67956
delay@@ 67939
BAD_@@ 67937
SkPdf@@ 67935
updating 67926
ways 67926
customer 67923
3,@@ 67889
CS_@@ 67881
rpc_@@ 67874
short_@@ 67873
standard@@ 67872
heap@@ 67866
Shards 67860
unsupported 67850
noise 67847
Overlay@@ 67841
202@@ 67839
expression@@ 67837
mini@@ 67819
Mongo@@ 67812
1E@@ 67804
sed_@@ 67794
Authorization@@ 67780
getBoolean 67775
STRUCT 67774
only@@ 67774
idea 67773
song 67764
guess 67759
Patch 67753
neg@@ 67742
constructed 67735
structures 67731
GetEntry 67729
fre@@ 67728
Currency 67711
Damage 67705
aliz@@ 67692
DER@@ 67691
ub 67687
matrices 67669
REQUIRE 67662
Html 67654
stra@@ 67637
sum_@@ 67614
TestUtil 67608
omg 67603
Assembly 67600
dim@@ 67592
ist 67587
Digits 67582
hand@@ 67579
card@@ 67575
qualified 67574
CLI@@ 67571
ApplicationContext 67554
NodeList 67541
policy@@ 67536
esc@@ 67535
Keep 67528
argparse 67527
s_in_@@ 67526
Does 67520
profiles 67511
qname 67487
Decode 67457
GMT 67446
Pairs 67446
ei@@ 67444
accompanies 67410
btn 67406
Export 67387
100.0 67385
TRACE_@@ 67384
ObjectName 67382
distributions 67381
radi@@ 67379
LES 67376
Players 67359
getResources 67352
AttributeSet 67325
holds 67318
upload_@@ 67304
\x3@@ 67301
xt 67292
zy@@ 67285
G_S@@ 67278
El@@ 67273
Allocate 67272
0F 67259
decode_@@ 67255
uti@@ 67255
hudson 67248
SkPaint 67247
LEVEL_@@ 67240
SetData 67239
wallet@@ 67239
hashes 67221
CASE_@@ 67206
encountered 67206
Gtk 67189
number_of_@@ 67183
iff 67176
Runs 67169
gdata 67154
3e@@ 67142
error_code 67125
vd@@ 67107
gram 67095
Ni@@ 67088
SERVICE_@@ 67087
on/@@ 67080
remo@@ 67069
sOf@@ 67064
Received@@ 67036
RT 67034
related_@@ 67031
isValid@@ 67023
sky@@ 67019
SEC@@ 67009
Perform 67006
pose 66992
identifiers 66991
getConfiguration 66988
\\u00@@ 66983
Feed 66973
timeout@@ 66963
__doc__ 66957
size_ 66953
ACE_HAS_@@ 66941
WAL@@ 66930
artifact 66930
assertAllEqual 66921
pull 66916
tracking 66901
Reads 66896
Parameters@@ 66888
'3' 66882
Sent 66864
Parsed@@ 66847
CONTEXT 66842
FormData 66834
lement 66825
pNode 66823
secondary 66817
ClassNotFoundException 66794
drill 66792
editable 66790
Fs@@ 66767
resp@@ 66765
Checksum 66761
Decoder@@ 66757
held 66745
timer_@@ 66739
ance_@@ 66731
getM@@ 66731
ndbout 66710
RequestBuilder 66706
LF@@ 66690
neighbor 66687
ice 66685
setString 66681
Mappings 66679
manual 66676
ObjectAccessor 66669
Overlay 66664
getTarget@@ 66664
0x10@@ 66649
passes 66645
assert_called_once_with 66643
physical 66631
8b@@ 66618
s3@@ 66598
TRI_@@ 66596
setOn@@ 66581
weight_@@ 66581
Escape 66575
Inv@@ 66574
du 66572
virtual_@@ 66559
Tracker@@ 66557
POR@@ 66554
mozilla 66546
<DOCUMENT_ID="b@@ 66542
album 66517
Vector3f 66516
ances 66515
TD 66513
Negative@@ 66504
model/@@ 66502
getCount 66497
Transactions 66477
Opts 66474
longitude 66468
slider 66460
MEN@@ 66456
order_by 66451
kin@@ 66449
Tokenizer 66438
table_name 66438
ByteArrayInputStream 66433
Already@@ 66429
Ip 66426
getParameter 66420
s_per_@@ 66416
ordinal 66407
chrono 66404
ModelPackage 66398
visi@@ 66387
thoughtworks 66374
used_@@ 66372
Mul 66366
Stencil@@ 66358
relationship 66357
Dev 66355
0x3C 66354
looks 66347
speci@@ 66342
signal_@@ 66335
gpr 66330
YY_@@ 66316
Coordinates 66311
Running@@ 66309
Coder 66272
latitude 66269
classifier 66244
r0 66244
5c@@ 66243
Tun@@ 66229
GridBagConstraints 66223
assumed 66222
s_from_@@ 66213
formatting 66205
_update_@@ 66202
0x54 66196
xi 66172
Hashtable 66168
inf@@ 66166
bet@@ 66162
MagicMock 66159
8f 66146
keep_@@ 66127
。 66125
QNetwork@@ 66122
DOMAIN 66120
hack 66120
faster 66118
ward 66113
distinct 66102
Creating 66098
VISIBLE 66094
IPT_@@ 66076
{@@ 66066
cached_@@ 66063
Watcher 66058
Legacy@@ 66052
Finish@@ 66050
Updater 66044
combine 66028
name_ 66027
SERVER 66021
expired 66019
Union 66003
Dummy 66002
outs 66000
value2 66000
Assertions 65991
0x6E 65986
Hits 65986
Xn@@ 65986
Entities 65978
vel@@ 65972
Accessible@@ 65970
ously 65970
retrieved 65964
Blue 65958
vert@@ 65956
0x36 65945
BEGIN_@@ 65944
STORE 65939
Regex 65938
PID 65933
Marshaller 65919
getField 65915
Adding 65912
thr 65909
Collation@@ 65904
Registers 65884
Large@@ 65872
tm@@ 65867
getL@@ 65866
ny@@ 65866
txin 65854
Ver 65843
vid@@ 65821
Cam@@ 65817
am_@@ 65815
0x1 65811
transfer@@ 65791
inputStream 65789
private@@ 65789
newly 65774
'12@@ 65773
117 65770
Need@@ 65763
20000 65762
RGBA 65745
DataSize 65736
Near@@ 65728
Sel 65727
chat@@ 65726
Quality 65721
dead@@ 65717
Resize@@ 65710
XmlElement 65707
getN@@ 65694
PARAMETER 65675
08x 65665
NonNull 65664
Solver@@ 65664
assertion 65661
urllib2 65640
Coordinate@@ 65630
cluster_@@ 65626
abc@@ 65620
fault 65603
Resolution 65583
THREAD 65580
seq_@@ 65577
Cpu@@ 65552
6e@@ 65544
rev@@ 65532
Go 65531
ely 65529
TRAC@@ 65517
RN@@ 65512
Damage@@ 65506
people 65500
ATTRIBUTE_@@ 65499
att 65499
supports@@ 65480
MBean@@ 65479
Issue 65459
DISABLED 65451
What 65451
MENU 65445
Invoke@@ 65444
feedback 65436
CV 65424
descriptors 65415
DEF_STR 65413
Models 65409
Provides 65399
fan@@ 65399
m_last@@ 65393
tooltip 65392
pf 65383
Assignment@@ 65374
succeeded 65372
Setter 65366
/lib/@@ 65358
motion 65346
Pipe 65344
NA 65341
collision 65320
shape_@@ 65319
Vari@@ 65317
getChild@@ 65311
Relation@@ 65303
0x6f 65296
composite 65280
prefixes 65278
eval_@@ 65269
startIndex 65267
Gap 65266
Segments 65264
Processing 65259
Relation 65258
mpl 65257
now@@ 65230
"1 65210
Starting 65208
perms 65198
GetMotionMaster 65194
0x35 65190
ability@@ 65190
0x22 65183
Gravity 65176
UChar32 65171
Undefined 65164
wsgi 65162
hel@@ 65150
_buffer 65148
CWalletTx 65141
goal 65137
Saved@@ 65136
ql@@ 65134
1\ 65127
X86 65102
dfs 65101
_paths 65097
pid@@ 65092
NE 65077
setuptools 65060
RECT 65057
arrow 65040
<DOCUMENT_ID="h@@ 65026
rsp 65021
4j@@ 65003
getVersion 65001
named@@ 64989
Subscription@@ 64983
blend@@ 64973
CountDownLatch 64964
ndim 64959
js_@@ 64956
httplib 64951
Audit@@ 64944
importer 64941
twice 64930
depend@@ 64922
che 64921
Conversion 64916
001 64908
XY 64903
Rendering@@ 64882
Curr@@ 64877
filler 64873
TCP@@ 64871
util@@ 64859
rf 64846
fig 64838
webkit 64838
Lo 64837
month@@ 64818
vs@@ 64815
Triangle@@ 64812
tech 64807
sax 64798
lineTo 64784
suitable 64782
SEPARATOR 64765
many2one 64750
ender@@ 64749
2a@@ 64741
Persistence@@ 64724
getID 64720
MAP@@ 64703
Dbg@@ 64702
ARABIC 64693
indexed 64686
way@@ 64662
ties 64656
Compact@@ 64647
7f 64630
x0@@ 64627
BIT@@ 64608
tre@@ 64603
flip 64600
0x39 64591
Ke@@ 64588
Photo@@ 64588
computation 64587
np@@ 64576
Bridge 64575
train@@ 64573
RAM 64566
jdbc 64560
Ã@@ 64560
fdl@@ 64556
5a@@ 64555
OFF@@ 64551
REQ 64551
wr@@ 64549
accessor 64548
deleting 64546
setLayout 64542
mg@@ 64516
proj@@ 64515
Interpreter@@ 64514
ata 64510
rice 64509
Speed@@ 64504
SHA@@ 64496
sg 64491
_current@@ 64478
ware 64470
Exist@@ 64465
intermediate 64462
н@@ 64452
appears 64436
zed 64430
403 64420
margin@@ 64418
7_@@ 64417
ull@@ 64400
ReportField 64393
jam 64373
0.25 64367
FileNotFoundException 64361
ipv6 64357
OT_@@ 64353
_c 64353
percentage 64350
suite@@ 64340
ENTRY_@@ 64328
tom@@ 64323
setPosition 64318
4096 64317
plugin_@@ 64316
DoesNotExist 64313
truncate 64313
spe@@ 64312
XBMC 64301
Sky@@ 64293
CLOSE 64291
currentThread 64281
community 64274
paragraph 64273
Existing@@ 64268
consistent 64268
LINE@@ 64261
ven 64253
routes 64251
Tcp@@ 64250
Tar@@ 64241
Deleted 64228
Red@@ 64208
bug@@ 64202
JButton 64199
>>= 64197
doTest 64187
java_@@ 64144
Pen 64142
Runner@@ 64122
q2 64109
Ordered@@ 64100
FT 64084
ctk@@ 64082
STATIC 64068
CD 64051
Validation 64038
encoded@@ 64033
ced 64028
PUBLIC 64027
exclusive 64026
Results@@ 64019
video_id 64019
Bridge@@ 64005
Country 63995
Green 63995
в@@ 63967
module_name 63964
_w@@ 63962
chromium 63952
Contributors 63949
fold 63945
vers 63939
ACL 63933
POINTER 63906
dubbo 63861
LING 63856
cleanup@@ 63814
s_for_@@ 63792
disp 63790
userName 63784
metaData 63783
Matching@@ 63782
eg@@ 63780
additional@@ 63758
wait_for_@@ 63745
minim@@ 63740
utilities 63740
getName@@ 63729
ight@@ 63726
6f@@ 63711
HS@@ 63699
aster@@ 63693
packed 63677
100000 63669
getPosition 63646
_i@@ 63643
PT_@@ 63634
second_@@ 63632
IntRect 63630
particle 63602
FileType 63594
z/@@ 63584
ow 63580
dw 63564
Company 63561
bold 63555
Args@@ 63548
dex 63542
Extractor 63525
Vol@@ 63524
Mut@@ 63522
getR@@ 63516
defer 63512
addComponent 63501
EFFECT_@@ 63500
Play 63488
heading 63478
coefficients 63474
prob@@ 63473
TokenType 63468
setIcon 63467
eventId 63462
Keyboard 63454
declar@@ 63453
164@@ 63449
splitlines 63448
TableModel 63434
excluded 63434
Patterns 63425
TITLE 63420
soup 63417
initi@@ 63407
0x3E 63406
sOn@@ 63391
Question@@ 63370
utils/@@ 63370
ThreadPool 63368
Whitespace 63367
USE@@ 63365
idle 63352
Insets 63343
TestRunner 63338
repl@@ 63313
WINDOW_@@ 63307
design@@ 63298
QueryBuilder 63272
VO 63250
0.6@@ 63243
foobar 63234
hh 63226
preferred 63225
kar@@ 63214
reach 63212
mn@@ 63209
Rep@@ 63207
Web 63207
MetaData@@ 63204
measure@@ 63193
ALPHA 63192
f5 63191
manager@@ 63179
C2 63165
qName 63164
ffe@@ 63162
getTotal@@ 63162
metavar 63161
HttpClient 63125
rfc@@ 63121
ENUM 63114
Viewport 63112
lap@@ 63107
EventArgs 63100
OnClickListener 63098
cut_@@ 63094
CMD 63093
persistent 63093
TiXml@@ 63090
Pay@@ 63064
inner_@@ 63059
ji@@ 63054
task_data 63051
Publisher 63050
Boundary 63043
5,@@ 63021
ada 63017
fos 63014
nor@@ 63008
JSONException 62991
isActive 62970
jk@@ 62967
sheet@@ 62962
Invocation 62953
site_@@ 62945
divide 62923
transforms 62921
FLAGS_@@ 62920
ick@@ 62915
ChatHandler 62914
0.8@@ 62912
8d@@ 62889
Cost@@ 62876
Did@@ 62871
Week@@ 62840
however 62840
toByteArray 62840
m_id 62812
land 62800
Hidden 62776
Prototype 62758
getBlock@@ 62742
parse_args 62734
1999 62727
Band@@ 62709
s__ 62708
PP 62705
1000000 62688
Locked 62681
Clock@@ 62676
wire 62662
SpinBox 62644
markers 62633
authenticate 62625
Generated@@ 62617
Addon@@ 62616
Ru@@ 62613
tensor_@@ 62610
Cleanup@@ 62608
follow@@ 62606
uc 62605
Publish@@ 62603
Abstract 62602
FileInfo 62600
operator@@ 62598
eu 62590
NON_@@ 62569
kv 62566
CF 62562
event_info 62535
JSC 62532
Indicates 62530
CPL@@ 62510
zlib 62509
00" 62496
0x53 62495
INIT_@@ 62489
LOCATION 62474
expr@@ 62466
books 62464
MEM_@@ 62462
level_@@ 62462
´ 62462
InetSocketAddress 62460
FileName@@ 62454
IPv6 62454
imm@@ 62452
bmp 62451
ending@@ 62451
ctype 62437
getUn@@ 62436
NOT_FOUND 62430
GetItem@@ 62412
DEVICE 62407
Notifier 62400
DLL 62398
vendor 62386
monitor@@ 62379
Contain@@ 62351
string_types 62336
nb_@@ 62332
AF 62326
д@@ 62306
MotionEvent 62299
eg 62294
alias@@ 62288
GM 62283
LOGERROR 62275
getProject 62274
san@@ 62273
Plugins 62271
IMS 62261
QT_NO_@@ 62256
parms 62256
ground 62250
LOC@@ 62245
0x6e 62244
lob@@ 62242
10" 62240
MQ@@ 62235
Hi 62226
EXP@@ 62222
ManyToManyField 62217
ars 62211
deli@@ 62209
Problem@@ 62205
challenge 62201
AI_@@ 62194
GetSize 62193
alternative 62175
PLAY@@ 62154
Unsupported 62145
Insn 62138
Del@@ 62128
rate_@@ 62106
equal@@ 62093
/tree/master/src/main/java/com/@@ 62092
limited 62081
_set@@ 62080
small@@ 62077
IsNull 62069
STRING@@ 62067
bounded 62065
meaning 62065
Battle@@ 62063
SCons 62062
Modification@@ 62056
NumberFormat 62045
IMP@@ 62043
Let 62042
SYSTEM 62040
kit@@ 62039
getIn 62033
8e@@ 62025
Conv@@ 62002
onClick 62001
Band 62000
ONE_@@ 61997
contacts 61981
horizontal@@ 61978
Pad@@ 61975
easy 61973
Reactor 61972
NoSuch@@ 61959
ear@@ 61958
ano@@ 61953
nearest 61953
DataSource@@ 61945
Cipher 61939
ick 61938
kwds 61935
AUTO 61933
Ssl@@ 61929
raise_@@ 61919
tw 61918
MUL@@ 61908
Serializer@@ 61906
net/@@ 61902
writeInt 61901
MOVE_@@ 61883
Docs 61877
chained 61849
jun@@ 61849
clean_@@ 61846
deletion 61834
typically 61830
OrderedDict 61829
dur@@ 61815
bit_@@ 61814
instr 61792
Sql 61790
Calculate@@ 61777
complex@@ 61767
EC_@@ 61748
pdf@@ 61735
ttype 61732
container_@@ 61710
LI 61701
getMin@@ 61701
Oper@@ 61700
TestBase 61700
0x11 61693
wraps 61684
Ltd 61655
LIST@@ 61645
L2@@ 61642
GEN 61638
key1 61626
Definitions 61620
Mul@@ 61611
private_@@ 61604
ACUTE 61598
declarations 61591
Counters 61588
TCHAR 61588
d_ptr 61587
DT 61586
maybe@@ 61584
ken 61544
multiplier 61526
CONNECTION_@@ 61524
pul@@ 61512
onto 61505
integr@@ 61486
mag 61484
Cu@@ 61481
Measure 61479
causes 61478
utf8@@ 61470
dicts 61459
coord@@ 61456
Mass 61454
Numbers 61449
Workspace 61447
executing 61444
bf 61440
Manifest 61437
Dro@@ 61412
allowed@@ 61409
0.4@@ 61408
serializers 61408
Benchmark 61396
Clone 61396
Toggle@@ 61391
IT_@@ 61387
Are@@ 61372
dot_@@ 61367
EGL@@ 61365
<DOCUMENT_ID="w@@ 61363
severity 61354
spring@@ 61352
Streaming@@ 61329
randint 61324
flag_@@ 61322
TRY 61310
0x43 61299
Was@@ 61278
deep 61269
FileUtils 61266
factor@@ 61264
ELE@@ 61257
ization 61253
LT 61244
CONTENT_@@ 61226
getLocation 61223
HD@@ 61218
GetID 61216
populate 61215
Buff 61198
decision 61192
Invocation@@ 61184
jp@@ 61183
addon@@ 61181
scratch 61176
0x66 61171
valueObject 61167
Overflow 61161
6.0 61157
Pdf@@ 61153
Shared 61144
FE 61131
dh@@ 61129
Pet@@ 61128
0\x@@ 61117
continu@@ 61116
indent@@ 61113
Translation 61109
matplotlib 61107
OutOf@@ 61084
CommandLine@@ 61081
Percent@@ 61080
Uses 61070
Plus 61066
Kill@@ 61062
log4j 61058
1.4 61044
mark_@@ 61041
bo 61040
Look@@ 61031
RequestHandler 61025
__getitem__ 61021
dll@@ 61014
multipart 61009
validators 60996
Ansible@@ 60995
GLsizei 60993
gd@@ 60993
MPI_@@ 60990
Na@@ 60990
bytecode 60985
Jdbc@@ 60966
formula 60946
mechanism 60946
7f@@ 60931
7e@@ 60930
undo@@ 60905
MO 60898
anyway 60894
server/@@ 60881
hard@@ 60873
lgpl 60869
sensitive 60863
QPixmap 60860
Events@@ 60858
CUR@@ 60845
Plus@@ 60841
Extr@@ 60829
unpack@@ 60819
rx@@ 60808
kill@@ 60806
testng 60804
Children@@ 60798
wind@@ 60797
CACHE 60796
bp@@ 60796
topics 60792
illegal 60790
addons 60786
Authorization 60783
REQUIRED 60783
VM_@@ 60766
Catalog@@ 60763
0x05@@ 60758
Bindings 60755
SDK 60734
lc 60728
CService 60722
ctor 60722
Terms 60717
detection 60717
encode_@@ 60716
reported 60711
DECLARE_@@ 60705
mailto 60696
directive 60682
async@@ 60674
grant 60672
stan@@ 60665
Cfg 60659
TXT 60649
shutdown@@ 60649
<DOCUMENT_ID="n@@ 60622
Stand@@ 60613
modulestore 60610
byte_@@ 60587
Tracking@@ 60585
face_@@ 60569
PF@@ 60565
Producer@@ 60558
rol@@ 60539
webpage 60529
SIGN@@ 60523
PIC@@ 60514
REPORTER_ASSERT 60513
sentence 60507
RPC_@@ 60502
fopen 60498
sil@@ 60489
Alt@@ 60469
wnd 60462
rval 60455
s_info 60452
nested@@ 60446
deepcopy 60438
inform@@ 60433
contr@@ 60425
RemoteException 60422
cancelled 60417
argument@@ 60416
Completion 60413
tin@@ 60413
STATIC_@@ 60412
Syntax@@ 60411
authoriz@@ 60407
Mime@@ 60404
Alert 60399
LIGHT_@@ 60383
obtained 60378
builds 60371
meet 60369
Mapped@@ 60366
associ@@ 60366
2018 60358
Complex 60357
CAST 60344
Sal@@ 60338
near 60334
PLATFORM 60333
notify_@@ 60332
Developer 60328
Encryption@@ 60326
Sheet 60318
chdir 60314
QLatin1Char 60301
AddSC_boss_@@ 60289
1D@@ 60277
Rep 60269
getenv 60266
ACK 60228
Combo@@ 60226
benchmark 60224
calc_@@ 60202
Configs 60197
stringstream 60193
LING_@@ 60187
GL_TEXTURE_@@ 60180
success@@ 60179
zero_@@ 60176
getResource 60172
cert@@ 60168
getItem@@ 60167
Wrong 60154
op1 60154
PT 60153
drawLine 60147
eq@@ 60133
MODULE 60121
mNum@@ 60103
Sun 60102
sentinel 60096
animation@@ 60094
KEYCODE_@@ 60090
Dataset@@ 60077
logits 60075
Attachment@@ 60069
TASK_@@ 60064
Written 60054
masked 60050
accessible 60011
grade 60011
TException 60007
X2 60007
Yes 60007
Secret@@ 59997
WINDOWS 59994
izer@@ 59993
Mix@@ 59990
nested_@@ 59985
ools 59980
nargs 59973
BUTTON@@ 59966
TES 59955
neg 59952
\u00@@ 59947
Currently 59944
resize@@ 59939
Macro@@ 59935
ex_@@ 59932
SF@@ 59931
Syntax 59906
BUILD_@@ 59898
Inventory@@ 59896
deploy@@ 59894
destroyed 59889
mix 59865
getRequest@@ 59860
Sch@@ 59846
IP_@@ 59840
360 59836
two@@ 59831
6c@@ 59827
struct@@ 59821
u64 59797
aps 59793
dup@@ 59785
appearing 59782
squ@@ 59775
Virtual 59772
dro@@ 59746
ational 59745
reduce@@ 59740
clipboard 59736
robot 59728
ink 59719
ig 59709
ange@@ 59703
Interceptor 59697
discard 59695
URE 59694
versionadded 59690
NT@@ 59687
_instance 59683
SCRIPT_@@ 59671
compile_@@ 59671
ction 59670
StreamWriter 59658
accepts 59655
setFont 59655
JIT 59653
Compression@@ 59651
QWeb@@ 59648
u2 59648
ATOR_@@ 59643
veri@@ 59634
ingType 59631
0x44 59621
ress 59621
flatten 59618
Implicit@@ 59613
Schedule 59608
ELEMENT_@@ 59606
TestResult 59606
_config 59582
Dr@@ 59581
PublicKey 59576
tile_@@ 59560
contrib/@@ 59559
Circle 59554
caching 59553
FORM 59547
Sol@@ 59544
IB@@ 59532
exit_@@ 59515
sequ@@ 59495
Bot@@ 59492
BC 59486
Frag@@ 59486
output_dir 59484
tun@@ 59475
fw@@ 59471
_assert_@@ 59469
encryption 59453
kernel@@ 59451
2048 59440
LIGHT@@ 59439
_cache 59435
mk_@@ 59434
Void@@ 59430
u1 59427
fork 59423
hazelcast 59421
dummy_@@ 59411
assertQuerysetEqual 59395
0x67 59394
GT 59394
Ren@@ 59387
mode_@@ 59380
Pseudo@@ 59376
<DOCUMENT_ID="s@@ 59362
verification 59360
getMockEndpoint 59359
LONG_@@ 59347
leaves 59340
Reverse@@ 59338
0x0A 59337
QUEST_@@ 59329
_context 59323
POSITION 59311
CONTENT 59310
project_id 59296
Contains@@ 59289
Ok@@ 59288
locate 59279
Af@@ 59270
LinkedHashMap 59268
к@@ 59266
key2 59257
JSONRPCError 59256
assertAllClose 59249
EOp@@ 59246
Multiple 59233
'201@@ 59231
lastComparison 59220
hashlib 59219
Caps 59216
Amount@@ 59207
rely 59207
SAX@@ 59196
yaw 59195
grp 59191
d3d@@ 59189
0xFFFF 59174
picture 59163
ExecutorService 59157
rowCount 59152
bject@@ 59150
Stopped 59148
sizer 59143
vcs 59134
getMessage@@ 59130
Dense@@ 59122
outline 59115
forward_@@ 59106
sc_@@ 59104
/ma@@ 59099
CHANNEL_@@ 59094
click@@ 59086
QualifiedName 59076
Visit 59054
Converts 59053
3\x@@ 59044
ByteArray@@ 59041
SpellInfo 59040
Angles 59038
IE@@ 59037
allowed_@@ 59025
X86@@ 59020
ier 59017
Finish 59012
s_t 59001
completely 58999
fcntl 58999
getD@@ 58997
resi@@ 58996
redirect_@@ 58992
Strict@@ 58990
etype 58982
VER_@@ 58966
created@@ 58960
\t\t@@ 58952
ceil 58946
tolua_S 58942
stable 58938
KeyStore 58933
arri@@ 58930
tensor@@ 58925
Submit@@ 58920
fies 58919
crypto@@ 58910
functools 58902
lc@@ 58892
cing 58890
bx 58885
hibernate 58885
getLong 58866
pix 58851
GetLastError 58848
B1 58845
EXPORT 58843
5f@@ 58839
DESCRIPTION 58836
strprintf 58835
S_S@@ 58833
run_command 58830
SecurityException 58780
ater@@ 58780
vl 58780
respon@@ 58779
latch 58775
_properties 58770
folders 58761
GRE@@ 58759
px@@ 58758
HASH 58757
pb2 58756
CAS@@ 58750
generic_@@ 58729
BLE_@@ 58710
m_max@@ 58707
Sizer 58698
000@@ 58693
pur@@ 58692
MOD_@@ 58678
UI_@@ 58672
_log 58665
Prepare 58662
sn 58658
constraint@@ 58655
ship@@ 58639
etag 58627
ze_@@ 58623
where@@ 58610
failure@@ 58609
Startup@@ 58606
flash 58606
acts 58605
OPEN_@@ 58598
IP_ACTIVE_LOW 58583
MIME@@ 58583
attack@@ 58581
ScrollBar 58575
applies 58575
UInt 58570
she@@ 58562
letters 58561
confidence 58556
BAR 58553
External 58551
finalize 58551
quest@@ 58547
X11 58538
240 58532
vtx 58532
#@@ 58525
0x12 58524
1C 58524
They 58519
ALLOC@@ 58518
True@@ 58518
compare_@@ 58514
estimate 58508
Opcodes 58505
\x00\x@@ 58498
may@@ 58488
verified 58482
combo@@ 58473
Period@@ 58472
piece 58467
hp 58465
gar@@ 58460
domain_@@ 58447
ffff@@ 58446
gzip 58430
Unlock 58427
Closed@@ 58426
BorderLayout 58416
How 58411
234@@ 58407
Middleware 58401
ically 58399
CSSProperty@@ 58397
Clean 58395
a-@@ 58382
0001@@ 58379
quote@@ 58376
group_id 58375
MENU_@@ 58366
BUILD 58356
Horizontal 58351
CWallet 58343
Clipboard 58337
reverse_@@ 58332
say 58330
myProject 58327
Plane@@ 58321
any_@@ 58302
ClickListener 58297
a9@@ 58289
Family@@ 58284
Board 58279
wards 58275
Coins 58269
Created@@ 58269
PropertyDescriptor 58268
anchor@@ 58265
@@ 58257
formset 58253
Facade 58252
Direct 58248
merge_@@ 58239
seed@@ 58239
bitField0_ 58226
transport@@ 58220
PsiClass 58215
DH@@ 58209
runtime@@ 58191
UTF8@@ 58186
actionPerformed 58185
Disk 58177
/tree/master/src/main/java/org/@@ 58175
Defines 58175
WINDOW 58175
Sleep 58158
Cycle@@ 58157
Priority@@ 58157
start_time 58157
identity@@ 58152
DOC@@ 58144
parameter_@@ 58142
event_name 58120
highlight 58119
ipv4 58117
Ring@@ 58111
0x82 58104
getBody 58102
Hy@@ 58100
Unsupported@@ 58100
Writes 58092
Cube@@ 58089
X1 58083
drivers 58083
ELEMENT 58081
variable_@@ 58081
IC_@@ 58079
pointer@@ 58072
authentic@@ 58070
cally 58065
YES 58063
About@@ 58037
facet 58014
entered 58004
VOID 58003
Modified@@ 57998
A2 57996
optim@@ 57992
emptyList 57991
Stroke 57987
sakaiproject 57981
VARCHAR 57973
Closure 57967
fig@@ 57962
Ray@@ 57960
/c@@ 57959
surface@@ 57959
/impl/@@ 57953
authenticated 57928
learn@@ 57925
uiDiff 57916
Ticks 57910
vfs 57900
QUERY_@@ 57897
Warning@@ 57896
Parallel@@ 57887
regression 57881
EXTRA_@@ 57876
generating 57862
gyp@@ 57860
week@@ 57859
Bg@@ 57855
TIMESTAMP 57853
m_frame 57851
writeString 57843
TR_@@ 57842
Ui 57837
Leaf 57834
AUTH_@@ 57829
emitted 57820
material@@ 57818
queues 57809
Represents 57807
LLVM 57805
LD 57802
RHS 57800
Like 57799
kh@@ 57785
Stroke@@ 57782
ot 57780
Triangle 57769
Den@@ 57768
0.8 57764
Digest 57763
_SET 57759
xbmc 57758
explanation 57757
docker 57737
getOutput@@ 57734
wal@@ 57724
STORE_@@ 57723
chosen 57718
accumul@@ 57713
Colour@@ 57690
builtins 57689
Figure 57688
au 57684
MAT@@ 57681
activemq 57679
stal@@ 57678
org/apache/@@ 57676
pkg_@@ 57669
recogn@@ 57658
GetTypeId 57653
gis 57636
ling@@ 57636
failed@@ 57631
Room 57624
lit 57615
allocate@@ 57614
0x62 57605
calculation 57603
hl@@ 57596
BY@@ 57594
EditText 57594
Ent 57584
filtering 57576
CENT 57573
options@@ 57566
intervals 57564
schemas 57562
EndOf@@ 57560
gin@@ 57558
Always 57549
primary_key 57548
asarray 57545
PM@@ 57539
addElement 57537
02x 57520
bal@@ 57520
minus 57520
boss@@ 57518
0x37 57515
Positive@@ 57510
cons 57509
_SIZE_@@ 57506
nl@@ 57506
Spi@@ 57503
spr@@ 57501
equality 57489
mempool 57487
8-@@ 57480
HER@@ 57476
VERIFY_IS_APPROX 57458
tem 57455
define@@ 57439
textures 57438
lst@@ 57435
style_@@ 57435
lar@@ 57424
ght 57421
Con 57419
ards 57390
Buffered@@ 57384
Aggregator 57378
toggle@@ 57377
9999@@ 57376
Freq 57373
metadata_@@ 57364
expansion 57359
trust@@ 57357
conv@@ 57355
5b@@ 57346
from_string 57346
10000@@ 57344
0x0d 57338
qualifier 57336
Shutdown@@ 57334
Actor@@ 57321
appro@@ 57311
early 57309
getElement@@ 57309
n_samples 57300
aur@@ 57284
EF@@ 57260
PER_@@ 57253
pthread_@@ 57240
Ifc@@ 57239
Equ@@ 57234
DOCUMENTATION 57233
before_@@ 57233
wxUSE_@@ 57218
fileno 57207
Adjust@@ 57201
behaviour 57195
fonts 57181
buff@@ 57170
MOVE 57154
TimeZone@@ 57147
WH@@ 57135
encrypt 57127
green@@ 57124
dock@@ 57123
dist_@@ 57121
Phone@@ 57120
ServletException 57119
scratch@@ 57116
aggregations 57115
Decorator 57109
covered 57099
ostringstream 57094
UM_@@ 57091
Picture@@ 57089
Analy@@ 57087
6/@@ 57082
zipfile 57077
'100' 57076
INF@@ 57070
Hide@@ 57066
8f@@ 57065
RED_@@ 57050
rem 57050
intercep@@ 57047
Hz 57041
getLog 57041
MD5 57034
Arrow@@ 57031
sco@@ 57031
bitcoin@@ 57030
press 57021
0x86 57012
contexts 57007
EGL_@@ 57003
\l 56990
512@@ 56972
s_with_@@ 56969
STACK_@@ 56967
PF_@@ 56959
bundle@@ 56953
Authoriz@@ 56948
op2 56944
tmpl 56943
sci@@ 56941
getActive@@ 56940
"3" 56933
Declaration@@ 56920
jump@@ 56913
np_@@ 56913
replication 56911
f/@@ 56908
Allowed@@ 56902
online 56895
UnicodeSet 56892
Hyper@@ 56883
variants 56878
luaVM 56860
BINARY 56859
dash@@ 56839
CAR@@ 56837
tolua_@@ 56815
Spaces 56813
Aura 56808
deg 56808
VERBOSE 56797
201 56793
Quantity 56793
edge_@@ 56791
VAL@@ 56779
int8_t 56771
rr@@ 56765
x2@@ 56762
PLATFORM_@@ 56761
promo@@ 56754
Connec@@ 56751
RES@@ 56749
certificates 56746
expect_@@ 56745
sibling 56744
shows 56742
ender 56726
Broker@@ 56721
raster@@ 56714
normals 56711
immediate 56697
actionGet 56696
Upper 56695
band@@ 56689
Geom 56674
mes 56672
SO_@@ 56666
bri@@ 56666
CHE@@ 56664
_obj 56652
filename@@ 56631
Explicit@@ 56629
0.9 56624
getObject@@ 56623
hSocket 56620
ULL 56619
kl@@ 56603
0:@@ 56598
REF@@ 56595
BUFFER_SIZE 56594
COM 56593
H2@@ 56592
ant_@@ 56592
America 56580
scaled@@ 56575
known@@ 56570
SharedPreferences 56567
Supported@@ 56566
CommandLine 56559
LOCK_@@ 56549
ZZ@@ 56546
204 56538
transform_@@ 56534
4d 56509
splitext 56496
getAttribute@@ 56492
FUNCTION_@@ 56490
kb@@ 56487
Duplicate@@ 56486
self_@@ 56480
readLine 56475
R1 56474
__metaclass__ 56471
0x00e@@ 56468
cores 56461
accessed 56454
lar 56453
COMMENT 56440
platform_@@ 56439
ino 56436
Author@@ 56433
Preferences@@ 56428
getSource 56423
depend 56418
ivar 56410
infile 56406
zh@@ 56402
INTERVAL 56396
slice@@ 56385
RUN 56378
inp 56376
SAXException 56372
diffs 56364
3c@@ 56351
near@@ 56351
getClass@@ 56344
tot@@ 56344
consumed 56340
pet@@ 56339
polys 56328
NEW@@ 56301
m_context 56293
Spells 56292
BIT_@@ 56290
0x45 56286
Conditional@@ 56281
Painter 56254
snapshot@@ 56248
Stored@@ 56242
KeyValue 56240
detector 56240
QT@@ 56232
JavaScript 56226
ult 56202
openstack 56197
Rot@@ 56195
Development 56188
items@@ 56188
DEF_@@ 56186
org_@@ 56184
Specify 56182
pick 56182
RG@@ 56181
Idle@@ 56180
HANDLER 56178
older 56176
data/@@ 56175
netloc 56175
Checked@@ 56168
NM@@ 56165
inv_@@ 56161
produ@@ 56146
transparent 56142
DEV@@ 56141
parseError 56137
combo 56131
currency@@ 56127
LLC 56123
nativeObj 56121
Exec 56113
acceler@@ 56098
kes 56086
ring@@ 56085
za 56078
IV 56072
Defined 56071
section_@@ 56071
episode 56067
FS_@@ 56066
logfile 56063
fragments 56060
mimeType 56059
rw 56058
DROP 56057
Quote@@ 56056
Visibility@@ 56042
clas@@ 56029
-api@@ 56027
puts 56026
join_@@ 56012
UNIX 56011
CHANGED 56002
factors 55998
rap@@ 55988
indexing 55987
Ê@@ 55987
fin 55979
AP_HAL 55978
R2 55977
ach 55975
repeat@@ 55975
WORK@@ 55969
Translate 55964
COLOR@@ 55962
zz 55961
RES 55960
win32 55960
sen 55955
rad@@ 55948
TING 55942
nifi 55942
odd 55935
wer@@ 55922
JavaScript@@ 55917
Typ@@ 55906
Indices@@ 55898
cookie_@@ 55891
10-@@ 55880
<DOCUMENT_ID="g@@ 55876
JC@@ 55876
loc_@@ 55875
122 55872
8c@@ 55845
ont@@ 55840
WAIT_@@ 55820
hoo@@ 55820
produced 55817
retry@@ 55807
catch@@ 55805
trie 55796
fier 55794
Charset@@ 55784
5d@@ 55782
getParameter@@ 55782
saved_@@ 55780
Negative 55779
Movie 55776
have@@ 55755
Arc@@ 55749
bond 55747
INLINE 55736
GetType 55734
Sel@@ 55727
QStyle 55725
addAttribute 55715
displayName 55707
Margin@@ 55705
bone 55702
Ms@@ 55694
s_dict 55692
qual@@ 55691
Disconnect 55688
21@@ 55680
Battleground@@ 55671
ac_@@ 55659
cas 55652
fromString 55646
Drop 55635
Dyn@@ 55628
wm 55618
ATTR 55613
Cycle 55595
chrome 55586
die 55585
Textures 55576
help_@@ 55569
7d@@ 55565
TP 55555
scopes 55546
becomes 55544
xform 55534
Outer@@ 55532
prop_@@ 55522
get_value 55515
collision@@ 55507
shar@@ 55499
cycles 55495
file1 55489
2L 55487
replica 55472
getObject 55470
Collator 55463
nIndex 55456
pref@@ 55454
Transformation 55453
toggle 55445
tech@@ 55442
0x48 55436
job_@@ 55435
mip@@ 55433
AGE 55429
ele@@ 55418
summon 55416
ACCESS 55414
0x14 55410
PSendSysMessage 55410
Attempt@@ 55406
assets 55403
Sym 55402
packageName 55400
Bank@@ 55391
ftp 55389
0x0a 55363
ANGLE 55360
Updated@@ 55357
/src/test/java/org/apache/@@ 55354
D3D11_@@ 55350
cycle@@ 55349
CharacterDatabase 55348
ABLE_@@ 55342
dk@@ 55338
BufferedImage 55324
me_@@ 55317
Measure@@ 55313
hWnd 55312
interpolation 55308
RSA 55299
ging 55298
LAN@@ 55293
getColor 55293
ham@@ 55291
Business@@ 55287
QRectF 55281
Weights 55281
arc@@ 55276
y_id 55252
Broadcast@@ 55251
Semantic@@ 55250
_set 55245
air 55236
PROCESS@@ 55235
fv 55230
RGBA@@ 55227
GetNum@@ 55224
INT32 55220
Continue 55216
compilation 55207
avail@@ 55199
QDateTime 55193
CL_@@ 55177
ObjectId 55169
Impl.java"> 55166
columnIndex 55157
tho@@ 55157
getTime@@ 55148
Scal@@ 55147
backend@@ 55147
connecting 55142
mr 55141
d3 55129
obs 55127
chro@@ 55126
Ide@@ 55106
MODE@@ 55106
Sdk@@ 55096
GroupId 55080
dataSize 55080
Derived@@ 55076
_read_@@ 55067
simp@@ 55064
cum@@ 55049
Guild@@ 55046
ENT@@ 55035
Cmp@@ 55026
alized 55026
ou 55024
ages 55022
getMethod 55017
caught 55010
NA@@ 55007
{1 55007
ya@@ 55006
ko 55001
IDE 54987
WaitFor@@ 54984
Thumb@@ 54983
ssize_t 54975
interactive 54968
cgi 54967
Gener@@ 54966
GOSSIP_ACTION_INFO_DEF 54958
globalObject 54954
Creation 54953
getAddress 54952
colon 54948
srid 54945
children@@ 54941
immutable 54932
f3 54923
� 54917
f0 54899
interrupted 54899
Delegate@@ 54895
ms/@@ 54893
four@@ 54891
getInput@@ 54891
finite 54883
Zoom 54879
á@@ 54878
remaining@@ 54862
NO_ERROR 54853
__eq__ 54852
linalg 54851
naming 54837
Pen@@ 54813
subsequent 54812
bufsize 54800
ATTRIBUTE 54798
conn_@@ 54797
Sink@@ 54795
front@@ 54788
assertIsNone 54784
Directories 54779
Diag@@ 54776
datastore 54776
304@@ 54773
cent@@ 54759
distances 54759
spot 54755
0x0f 54754
Histogram 54752
getRaw@@ 54741
ListItem 54736
GetId 54726
dashboard 54726
Micro@@ 54716
[0-9 54711
_args 54710
8a@@ 54698
Dimensions 54697
printed 54697
Recovery@@ 54690
dynamic_@@ 54690
frontend 54688
rename@@ 54684
ToolBar 54673
m_value 54667
swigCPtr 54658
Mozilla 54653
native_@@ 54653
b0 54649
linenum 54645
Deferred 54640
particle@@ 54638
StreamReader 54635
Scheme@@ 54634
lx 54630
<DOCUMENT_ID="y@@ 54625
tro@@ 54618
QDBus@@ 54617
Weather@@ 54612
opacity 54608
DO_@@ 54607
binding@@ 54588
Quat 54585
Vals 54575
es/@@ 54575
learn 54575
passwd 54572
visual 54565
reflec@@ 54558
assembly 54557
Trade@@ 54555
130 54553
plot_@@ 54549
test2 54545
QPalette 54543
DED 54541
INE@@ 54535
FILES 54528
keyp@@ 54527
lite@@ 54524
CHANGE 54517
bro@@ 54508
diagram 54499
L_S@@ 54495
abs_@@ 54489
Follow@@ 54484
FULL 54478
Jobs 54475
verb 54473
Appro@@ 54467
quick 54461
fetch_@@ 54453
0x6c 54449
checkbox 54446
DataSet 54441
mIs@@ 54441
saving 54440
mapred 54431
thumb@@ 54423
Computer 54416
UT_@@ 54415
Customer@@ 54411
PLT_@@ 54403
recover@@ 54402
unc@@ 54401
arc 54400
sWorld 54396
identify 54394
sampling 54394
9_@@ 54387
GB@@ 54382
thumb 54378
display_name 54371
override_settings 54371
Keyword@@ 54364
BoundingBox 54360
car 54352
0x10000 54347
NON@@ 54328
logo 54321
EXAMPLES 54316
multimap 54311
procedure 54310
echo@@ 54305
Lex@@ 54304
Dirty@@ 54303
outcome 54292
LAST 54290
translated 54288
_request_@@ 54286
pping 54279
wd@@ 54275
rich@@ 54271
Aware@@ 54261
escape_@@ 54252
lua_State 54242
MatrixType 54237
Int64 54227
probe 54206
RM 54201
Because 54200
signatures 54197
Gran@@ 54184
come@@ 54179
City 54173
Timeline@@ 54173
Ter@@ 54170
STYLE_@@ 54168
m_num@@ 54168
Sent@@ 54162
claim 54159
CURRENT 54147
Kit 54135
Compat 54119
0x68 54118
Gre@@ 54110
ants 54109
OPT_@@ 54105
getB@@ 54104
ATED 54091
NODE@@ 54082
Uid 54075
jj 54060
Added@@ 54059
cg@@ 54059
nums 54056
CPU_@@ 54055
currentTime 54054
ovirt 54052
Elem@@ 54049
screen_@@ 54043
HH 54039
exec_@@ 54033
Couldn 54032
boot@@ 54022
Adap@@ 54012
Roles 54011
Skill@@ 54009
decoding 54009
transi@@ 54001
bitmap@@ 53998
EA@@ 53995
solid 53991
ill 53990
chunk_@@ 53981
Har@@ 53978
UTF@@ 53974
DEF@@ 53967
0x3f 53957
changed_@@ 53957
pdb 53955
spli@@ 53955
ames 53952
META 53949
JSObject 53942
sockets 53934
Into@@ 53921
\x00@@ 53917
bor@@ 53911
m_size 53907
LLVM@@ 53903
unchanged 53897
functional 53893
Resize 53882
Systems 53882
DOT 53881
same@@ 53879
prefix_@@ 53876
shell@@ 53875
v4@@ 53874
forward@@ 53865
u/@@ 53858
cent 53857
require@@ 53855
Pane@@ 53839
unicode@@ 53831
Versions 53829
acl@@ 53820
0,0 53819
RIGHT_@@ 53818
potential 53814
Icons 53805
10/@@ 53793
DP@@ 53790
IDB@@ 53789
Unix 53782
fabric_mod_port 53780
\li 53778
don@@ 53778
Hdfs@@ 53774
sException 53773
zone_@@ 53767
radio 53763
appended 53760
NAMES 53744
Pending 53744
qWarning 53741
m2@@ 53734
multip@@ 53718
consumer@@ 53717
ZE 53714
ARG@@ 53707
dag 53705
txn 53704
Dim@@ 53698
IG@@ 53689
Particle 53682
STEP 53679
size_type 53673
VT@@ 53653
FRAME 53650
Validator@@ 53649
Rel 53638
getPort 53631
aries 53611
OK@@ 53610
MockEndpoint 53607
Pull@@ 53604
openqa 53602
suspend 53601
STAR@@ 53598
OPER@@ 53595
blocked 53589
cert_@@ 53578
EC 53576
_pattern 53576
regex@@ 53575
mean@@ 53568
Dec 53565
Redirect@@ 53560
treated 53559
s/src/@@ 53557
32" 53553
b2Vec2 53552
printing 53552
preserve 53549
aspect 53545
mods 53544
subdir 53536
placed 53520
factories 53516
ToString@@ 53511
square@@ 53498
MEDIA_@@ 53497
optparse 53497
requireNonNull 53494
spro@@ 53488
P2@@ 53473
Idx@@ 53471
opaque 53471
Pad 53463
ature 53460
XMLSchema 53437
gam@@ 53430
Tick 53421
posi@@ 53421
__iter__ 53417
getHeader 53412
Tax@@ 53411
db/@@ 53406
duplicates 53403
11" 53400
CBase@@ 53398
0x49 53389
assi@@ 53381
middle@@ 53381
s_count 53379
Movie@@ 53374
physics 53373
cov 53368
populate@@ 53361
2\x@@ 53360
aggregation 53360
assumes 53352
h3 53351
vv@@ 53346
Names@@ 53337
instantiate 53337
Loaded@@ 53330
409@@ 53316
cvp 53316
Regions 53305
CALLBACK 53304
rl 53303
isSelected 53301
statically 53297
ErrorHandler 53291
pP@@ 53284
Topology@@ 53278
qobject_cast 53278
decor@@ 53273
writer@@ 53271
SummonCreature 53268
hop@@ 53262
Walk@@ 53255
evalu@@ 53245
memcmp 53233
mtime 53231
alpha_@@ 53223
Viewport@@ 53217
Impulse 53216
ess@@ 53213
Subscriber 53209
Room@@ 53198
anchoringHelper@@ 53195
Chart 53190
í@@ 53174
ency 53170
las 53157
CONTRACTL 53155
e-@@ 53150
ks@@ 53146
ved@@ 53145
MenuBar 53134
fft 53131
121 53125
4000 53123
dark@@ 53121
Configure 53119
fusion 53119
Importer 53111
Deserializer 53109
BAN@@ 53104
transformed 53102
Projection 53099
alizer 53099
Workspace@@ 53074
sorted_@@ 53060
Idle 53023
wc@@ 53015
ServiceException 53012
node1 53004
footer 53000
lu 52996
Wizard@@ 52994
flash@@ 52994
Subscription 52986
Asset 52985
CONTRACTL_END 52975
JsonObject 52974
time_t 52971
prints 52966
tbl 52965
90@@ 52964
L_ 52963
\\\ 52960
returncode 52958
rho 52951
Builtin@@ 52949
Install 52947
ley 52947
mob 52944
legend 52942
Acceler@@ 52940
Multi 52936
Actual@@ 52931
Upload 52922
0x50 52910
Transliterator 52909
fds 52899
bulk 52886
WebKit 52884
\t\t 52884
TIVE 52883
inherited 52881
GetCount 52880
corresponds 52880
detach 52877
passphrase 52876
intensity 52862
special_@@ 52860
Benchmark@@ 52859
Imm 52859
InputStreamReader 52854
atol 52854
wil@@ 52843
ros 52842
Receive 52838
PDF 52835
KE_@@ 52829
sa_@@ 52829
Amazon@@ 52827
Both 52823
Datanode@@ 52817
AUTO_@@ 52816
31@@ 52812
ffff 52811
getItem 52811
Previous 52802
datasets 52799
Precision 52797
vtk@@ 52797
iris 52789
THREADS 52788
base_url 52769
oss 52768
pwd 52765
Mid@@ 52762
ND@@ 52761
HANDLE_@@ 52757
FLOAT_@@ 52751
aClass 52738
inclusive 52729
currentIndex 52728
tokenize 52713
0x81 52705
Fa@@ 52704
KER@@ 52704
recv_@@ 52699
ina 52690
asset_@@ 52684
std_@@ 52676
DY@@ 52673
robo@@ 52670
ai_@@ 52662
cut@@ 52652
foreign@@ 52651
weak 52647
Fx@@ 52646
frag 52643
Normalize 52642
Mass@@ 52632
partial@@ 52615
meters 52603
Resolver@@ 52593
sup 52592
adap@@ 52590
32' 52588
SPELL_S@@ 52586
ASSERT_TRUE 52578
It@@ 52577
m_dw@@ 52567
cfg@@ 52563
drag 52560
ight 52558
CLIENT 52554
Spi 52554
Bug@@ 52541
VA@@ 52539
· 52536
m_r@@ 52532
Combin@@ 52530
Preview 52525
pErrorCode 52524
GSN_@@ 52520
in/@@ 52518
routingTable 52518
earlier 52514
mongo@@ 52510
lip@@ 52504
closest 52501
gpu@@ 52492
CFG_@@ 52488
cxx@@ 52480
ww@@ 52480
flex@@ 52474
\3@@ 52469
writable 52465
changed@@ 52464
mol 52453
QFont 52449
UB@@ 52448
xsd 52444
nacl 52424
3a@@ 52423
sessionId 52406
\\\\ 52405
Logs 52387
getStart@@ 52378
Clo@@ 52374
rou@@ 52361
remain 52353
bib@@ 52343
LayoutInflater 52342
Hand@@ 52339
_SET@@ 52334
CFG 52332
eng 52332
interpre@@ 52332
QOpenGL@@ 52329
nullValue 52327
ancestor 52321
shortcut 52316
RUNNING 52314
Logic 52305
Debugger 52295
ZZ 52294
ship 52286
OTH 52280
Testing@@ 52276
azure@@ 52276
entity_@@ 52253
medium 52245
druid 52241
TG@@ 52240
translations 52240
getCause 52223
Blocks@@ 52221
xxxx 52221
Conv 52206
ono@@ 52204
Year@@ 52191
trans_@@ 52189
SDL 52173
LPARAM 52161
blah 52160
skin 52155
mirror 52153
Ready@@ 52152
Boo@@ 52143
voice 52143
GetTime 52123
vchPubKey 52117
vt@@ 52116
Own@@ 52113
blob_@@ 52108
agg 52099
MONTH 52095
pal 52087
cid 52084
Your 52065
simulation 52065
diagnostic 52063
offer 52060
1_1 52058
9f 52058
lead@@ 52056
0x78 52052
Milli@@ 52050
THROW 52050
0.4 52047
Ax@@ 52044
communicate 52039
Ur@@ 52037
sends 52035
TM 52026
f2@@ 52026
hd 52026
mandatory 52016
CNode 52013
timing 52012
RB 52008
abc_@@ 52001
vent@@ 52001
sqlite 51999
sha 51998
<DOCUMENT_ID="z@@ 51981
pref 51979
wildcard 51975
get_all_@@ 51973
pane 51971
fication 51970
Serialize 51969
omp 51969
Checking 51962
guaranteed 51956
BLOCK@@ 51938
Rotate@@ 51938
ines 51935
caches 51931
boss 51930
RenderObject 51925
entr@@ 51921
DELETE_@@ 51916
mv@@ 51914
snapshots 51908
interval@@ 51896
Water@@ 51893
frac 51879
LAST_@@ 51874
Vk@@ 51869
dual 51857
Illegal@@ 51856
BytesIO 51854
missing@@ 51851
partner_id 51847
'255' 51846
redu@@ 51842
SkBits2Float 51840
getFile 51838
chk@@ 51833
CSS 51831
gram@@ 51825
0x0F 51818
music@@ 51815
cru@@ 51812
EXCEPTION_@@ 51811
SDK@@ 51800
Defined@@ 51786
fore@@ 51785
rmtree 51774
Coun@@ 51768
Shar@@ 51766
INTERFACE 51759
OpenGL@@ 51754
expand_@@ 51748
matched@@ 51735
Dispatch 51730
Emit 51730
MovedAttribute 51729
sType 51725
NotImplemented 51722
BYTE_@@ 51721
JIT@@ 51719
overlay 51704
FunctionType 51695
v1@@ 51686
TaskAttempt@@ 51682
median 51680
sampler 51674
qg@@ 51670
queued 51670
Hel@@ 51668
socket_@@ 51665
mirror@@ 51655
age_@@ 51654
scope@@ 51650
dbgs 51647
GetLength 51646
UniValue 51644
inst_@@ 51639
_path_@@ 51637
readString 51634
Age 51632
abo@@ 51630
eter@@ 51624
dataType 51623
Manifest@@ 51622
osc@@ 51622
employee 51605
lastIndexOf 51605
logout 51604
light_@@ 51600
Bitcoin 51594
pack_@@ 51593
CRO@@ 51583
victim 51583
prepare_@@ 51582
strerror 51579
Ber@@ 51574
MOD@@ 51574
arity 51573
subtract 51572
GetCaster 51566
r/@@ 51561
fp_@@ 51560
Quad 51555
tn 51555
Nokia 51548
S3 51548
ALIGN_@@ 51547
AtomicString 51547
Abs 51536
Cipher@@ 51529
Recv@@ 51529
Capability 51523
Tail 51523
think 51518
Pk@@ 51500
м@@ 51498
RR@@ 51479
idVec3 51475
Vectors 51466
tab_@@ 51464
GL_TEXTURE_2D 51462
unk 51452
plist 51437
FileStatus 51430
usage@@ 51429
Aura@@ 51428
Serialization@@ 51423
highest 51419
asset@@ 51414
generator_@@ 51412
milli@@ 51395
recv@@ 51395
XC@@ 51390
3b@@ 51389
ERR@@ 51389
Pu@@ 51383
ONS 51374
stub@@ 51373
infinity 51371
fieldType 51363
Wheel@@ 51362
Hor@@ 51360
osgi 51355
TOP@@ 51352
Abs@@ 51350
PropertyName 51348
GetPubKey 51344
le/@@ 51344
S_PER_@@ 51341
LINK_@@ 51335
302 51333
shot 51329
throwable 51323
reli@@ 51321
6d@@ 51313
DoScriptText 51313
fm@@ 51312
pInfo 51311
Direction@@ 51310
enums 51304
Inline 51301
scheduled 51296
Sun@@ 51293
archive@@ 51282
panel@@ 51282
trim@@ 51279
808@@ 51277
indentation 51268
UT 51266
Checkpoint@@ 51265
SkPoint 51261
Sections 51255
need_@@ 51243
PRIVATE 51234
Du@@ 51227
Unary@@ 51227
Terminal@@ 51225
V2@@ 51215
frozenset 51203
SHORT 51188
commit_@@ 51188
ener@@ 51184
CLR@@ 51182
boolean@@ 51176
m_buffer 51175
HashCode 51174
Circle@@ 51167
constData 51166
get_shape 51162
2.3 51159
sted_@@ 51156
Digest@@ 51146
mixed 51146
Blocking@@ 51144
tarinfo 51141
0x60 51139
Overflow@@ 51136
Slow@@ 51134
planes 51117
Repeat@@ 51116
GetBoolArg 51113
<DOCUMENT_ID="x@@ 51111
whatever 51106
GroupName 51104
data2 51101
RadioButton 51099
ome@@ 51092
107 51086
XN_@@ 51086
Limited 51074
assertSame 51074
ja 51074
ner_@@ 51074
Ban@@ 51064
PASS 51063
m3 51060
surf 51058
stand@@ 51056
Thrift@@ 51054
Major 51038
model_name 51038
P1 51033
mimetype 51033
describe 51026
QIODevice 51010
lid 51008
L2 51000
/k@@ 50997
Q3@@ 50995
Quest 50993
CRI@@ 50986
GetSession 50981
a2@@ 50981
nodeName 50980
sorting 50977
speed@@ 50974
deploy 50966
HEL@@ 50960
Wh@@ 50951
increase 50948
MEM 50941
Dra@@ 50937
ClusterState 50932
_build_@@ 50916
succeed 50916
scape 50911
NdbDictionary 50899
xm@@ 50895
Escape@@ 50886
low_@@ 50885
resolve_@@ 50883
Allocation 50882
Requirement 50882
Styled@@ 50880
coef 50879
blockSize 50872
Pas@@ 50870
assertNotEqual 50860
therefore 50860
Lifecycle@@ 50859
serve 50859
MER@@ 50855
PIN 50852
normal_@@ 50852
convenience 50842
certs 50840
AWS@@ 50835
BOTTOM 50827
is_const 50826
PrintStream 50817
Remaining 50814
getJob@@ 50809
describing 50802
HIGH@@ 50798
bool_@@ 50794
APP_@@ 50792
elec@@ 50790
javafx 50783
Contributor 50782
track_@@ 50781
Aware 50780
4,@@ 50779
PROCESS_@@ 50774
jms 50769
com_@@ 50761
symbol_@@ 50745
Readable@@ 50734
inflate 50726
setSource 50724
X509@@ 50718
Ndb 50699
weak@@ 50692
termin@@ 50688
binnavi 50687
dbg 50679
isDirectory 50677
tuple@@ 50675
axis_@@ 50674
bounding 50673
Hu@@ 50672
EP_@@ 50667
Press 50661
slices 50656
tain@@ 50652
TI 50649
VAR_@@ 50638
Integr@@ 50635
fwrite 50635
s_name 50630
transitions 50620
ctl 50619
Expand 50618
EV_@@ 50616
deep@@ 50614
LOG_ERROR 50607
Mc@@ 50601
QStyleOption@@ 50590
alter 50587
LEFT_@@ 50586
oauth@@ 50576
State_@@ 50572
FileWriter 50570
Iso@@ 50562
fer 50562
Recur@@ 50556
BlockSize 50551
__version__ 50550
len_@@ 50544
SER@@ 50530
NED 50526
SmallVector 50521
Eq 50518
trac@@ 50516
strides 50514
makedirs 50513
werkzeug 50513
AddTo@@ 50507
/util/@@ 50505
mapping@@ 50500
LV@@ 50499
lm 50495
hun@@ 50493
Fault 50489
Cond@@ 50485
LA 50485
group_name 50483
jp 50474
Illegal 50457
keras 50457
answers 50453
wt@@ 50452
30000 50446
snap 50438
inherit 50433
setIs@@ 50430
eff@@ 50422
COIN 50418
QVector 50418
rax 50416
smart@@ 50415
FMT_@@ 50414
MySQL 50414
sObjectMgr 50398
ExecutionContext 50396
siz@@ 50392
tools/@@ 50382
Digit 50370
SPELL 50370
1024@@ 50363
mouse_@@ 50358
JNI 50355
reasons 50355
detailed 50347
je@@ 50343
pTarget 50342
lam@@ 50340
HASH_@@ 50338
forName 50338
Days 50335
DUMP 50322
ass_@@ 50321
getElement 50320
updated@@ 50320
mapped@@ 50316
1111@@ 50314
Blur@@ 50309
itor 50307
0x77 50306
throttle 50306
600@@ 50305
deferred 50303
Four@@ 50288
Conditions 50278
Realm@@ 50266
Cond 50260
BAS@@ 50257
Localized@@ 50243
Elasticsearch@@ 50237
dos 50229
orm@@ 50228
id1 50226
Pub@@ 50222
spatial 50222
controller@@ 50219
pygame 50213
instrument 50211
rejected 50206
Shortcut 50203
navigation 50182
MAC@@ 50178
Orig@@ 50177
often 50177
weekday 50175
0x56 50172
Div 50165
Skin@@ 50164
tif 50164
Gesture@@ 50158
plural 50145
0x7f 50140
TestHelper 50140
SyntaxError 50127
COMPLETE 50123
skipping 50122
branches 50118
lf@@ 50118
titles 50114
ad_@@ 50108
ball 50104
vg@@ 50099
sip 50096
ä@@ 50088
gl_@@ 50081
Uniform 50080
Http 50077
patches 50068
MCFG_@@ 50057
Abort 50053
_C@@ 50052
SETTING_@@ 50051
Verifier 50049
payment@@ 50045
ssi@@ 50044
140 50039
redhat 50039
cha@@ 50029
Xaml 50026
7b@@ 50021
mobile 50020
Over 50019
txout 50017
URL_@@ 50016
0x1f 50011
PW@@ 50010
0x88 50004
verbose_name 50002
Scripts 49997
Roots 49996
FEATURE 49985
osg@@ 49985
WEB@@ 49984
Weapon 49984
balancer 49984
Marshall@@ 49981
double_@@ 49980
'9' 49979
ALO@@ 49973
TopLevel@@ 49970
areas 49969
patch_@@ 49968
istic 49963
[1 49960
Fs 49958
¸ 49958
0x06@@ 49957
ov 49950
clang@@ 49949
pv 49947
1b 49945
Advanced@@ 49940
hist 49940
Assessment@@ 49936
initialize_@@ 49928
attack 49918
internally 49917
alph@@ 49907
/tree/master/test/@@ 49903
Series@@ 49901
QUERY 49898
<DOCUMENT_ID="p@@ 49896
Land@@ 49889
ROOT_@@ 49888
Candidate 49871
removes 49871
ony@@ 49855
fade@@ 49839
getTask@@ 49837
BR 49835
ensures 49831
sized 49831
9d@@ 49815
BLACK 49815
alarm 49813
QDomElement 49812
Hook@@ 49808
servo@@ 49805
Executable@@ 49796
wall 49796
co_@@ 49787
Strategy@@ 49773
1.3 49755
BT_@@ 49753
runnable 49750
StringList 49747
buffered 49739
gradients 49735
dk 49723
outputStream 49717
Base_@@ 49712
Reading 49700
destructor 49700
WHITE 49695
sat@@ 49695
storm 49694
tgt 49688
interpreted 49684
attachments 49681
desired@@ 49679
ile 49677
_version 49671
lay 49667
day_@@ 49666
ViewHolder 49662
GPS 49658
SERVER_@@ 49654
particles 49654
ARY 49652
getContent@@ 49651
9e@@ 49650
Chromium 49649
ConfigurationException 49648
Maker 49648
library_@@ 49646
serialize@@ 49635
hook@@ 49634
jj_@@ 49634
pD@@ 49631
getService@@ 49628
snap@@ 49628
diagonal 49624
equi@@ 49623
declare 49617
NV 49612
ffffffff@@ 49610
64" 49606
___@@ 49603
Event_@@ 49602
ROW 49591
restrictions 49591
will@@ 49588
exclude@@ 49584
bed@@ 49571
sce@@ 49570
Activation@@ 49566
embed 49562
design 49559
cookie@@ 49554
COUN@@ 49547
ecx 49547
sendMessage 49547
Verbose 49537
SED 49534
en/@@ 49528
replaceAll 49525
visual@@ 49524
Sho@@ 49510
authorized 49504
get_str 49498
d2@@ 49485
proxies 49482
BOOST_TT_TRAIT_NAME 49475
deco@@ 49470
j1 49467
Semaphore 49458
ENCE_@@ 49456
Pack 49455
angular@@ 49448
writeTo 49446
newlines 49440
Queries 49439
Invo@@ 49433
WOR@@ 49432
Fee@@ 49431
TreeMap 49418
hol@@ 49415
Temporary@@ 49411
generates 49401
arn 49398
cch@@ 49398
ype 49370
responsible 49367
getOffset 49366
Fly@@ 49364
Instanti@@ 49357
rewrite 49354
Combat@@ 49352
Punctuation 49350
TATION 49343
MATCH 49340
Hardware@@ 49337
7c@@ 49335
InterfaceAudience 49323
/model/@@ 49307
GetSpellInfo 49307
music 49306
vb 49303
Feedback@@ 49299
TC_@@ 49293
options_@@ 49291
0.001 49289
belongs 49280
Something 49275
TRE@@ 49275
pNdb 49270
constant_@@ 49268
WN@@ 49267
Primary 49265
Supp@@ 49261
Turn 49257
er.java"> 49257
GetNext@@ 49253
uv 49253
inte@@ 49251
GPR 49236
indices@@ 49229
Recent@@ 49228
Chooser 49226
startPos 49219
Exclu@@ 49217
apple 49216
2.2 49210
/h@@ 49208
0x0D 49203
primitive@@ 49199
glu@@ 49198
sS@@ 49192
joined 49176
pic 49173
absolute@@ 49169
Design@@ 49167
sha1 49163
Serialize@@ 49157
infinite 49148
databases 49145
structure@@ 49145
weapon 49145
internet 49143
Operands 49141
Attempts 49129
getUrl 49128
ZE_@@ 49126
COLUMN 49125
sanity 49125
isation 49122
SourceLocation 49117
grpc 49112
OV@@ 49107
emitter 49103
Disabled@@ 49102
DeviceType 49097
Connected@@ 49094
room@@ 49089
Than@@ 49088
Hello@@ 49082
unsafe 49073
sResult 49064
reject 49061
Price@@ 49060
FF_@@ 49053
alg 49050
VIDEO_@@ 49048
Vis@@ 49047
HA@@ 49026
TLS@@ 49026
checkArgument 49025
jec@@ 49024
Triple 49012
bj 49007
dataSource 49007
Exist 48994
newName 48984
EPSILON 48977
ands 48972
ComboBox@@ 48968
Her@@ 48968
_default_@@ 48965
M2@@ 48964
ure 48964
__new__ 48963
HW@@ 48959
human 48958
Acl@@ 48947
COPY 48946
IBM 48944
rects 48943
wants 48940
endTime 48936
Deploy@@ 48933
OPTION_@@ 48928
good@@ 48928
Emp@@ 48925
TIMER_@@ 48925
OpenSSL 48922
MBean 48915
fly@@ 48908
WebView@@ 48907
Respon@@ 48905
reader@@ 48905
EnumSet 48899
9c@@ 48898
DATE_@@ 48896
Minimum@@ 48896
dit 48895
Front@@ 48887
imm 48886
Related@@ 48875
available_@@ 48863
timestamp@@ 48856
gp 48849
wxWindow 48849
drawn 48831
Realm 48828
stops 48828
master_@@ 48822
usable 48818
calendar@@ 48813
Jan 48808
mal 48802
BIN@@ 48799
deci@@ 48799
Bur@@ 48798
interp 48793
STYLE 48786
[0 48778
kb 48773
vb@@ 48767
Tail@@ 48756
Wire@@ 48743
ACE_LOCK 48740
BP@@ 48730
Pix@@ 48730
Tabs 48729
CScript@@ 48726
visu@@ 48725
InstanceScript 48719
Sil@@ 48719
source/@@ 48718
transp@@ 48716
Cause 48714
ReadOnly@@ 48706
output_file 48705
twitter 48704
106 48699
BOX_@@ 48697
yyyy 48693
ActiveMQ@@ 48687
svc 48680
Completed@@ 48671
ty_@@ 48671
2000-@@ 48666
TA_@@ 48661
FIX@@ 48658
gson 48657
Flash@@ 48652
Calc 48650
Regression 48650
png_@@ 48645
getImage@@ 48644
identi@@ 48635
MAIN 48631
Repe@@ 48627
Suppress@@ 48619
ENCE 48612
courses 48608
ProgressBar 48603
п@@ 48602
ging@@ 48588
Splitter 48583
BeforeClass 48581
Lite@@ 48578
require_@@ 48578
/tree/master/modules/@@ 48571
converting 48564
Ari@@ 48562
Radio 48559
EXISTS 48558
Limits 48558
Issue@@ 48557
stat_@@ 48550
maxSize 48549
portion 48545
vent 48544
firewall 48539
itemName 48536
Resi@@ 48533
SendMessage 48530
Statistics@@ 48530
0UL 48529
conflict 48529
1998 48528
blaze 48526
recovery 48520
Widgets 48517
fat@@ 48506
U_EXPORT2 48486
_out 48480
UserData 48473
Working@@ 48459
datum 48458
pressure 48456
7-@@ 48437
isVisible 48430
Revision@@ 48427
lbl@@ 48426
chan@@ 48425
eye 48414
parentNode 48410
RealType 48409
Org@@ 48401
pot@@ 48392
Indicator@@ 48388
Facebook 48385
VEC@@ 48375
getConfig 48368
ignoring 48362
Where 48356
GLOBAL 48343
Utf8 48342
ux 48335
Exception.java"> 48334
defaultdict 48320
SortOrder 48311
assertAlmostEqual 48310
Credit@@ 48305
ChangeEvent 48302
XP 48302
PNG 48299
istic@@ 48287
Like@@ 48286
ENTITY_@@ 48282
\internal 48278
EL 48274
sequence_@@ 48273
Guide 48272
NN@@ 48272
unknown@@ 48271
complete_@@ 48264
ACTION@@ 48255
Numeric 48254
Based 48253
0X@@ 48248
QR@@ 48247
foreign 48246
RequestContext 48240
testcase 48231
irq 48225
console@@ 48221
v/@@ 48210
Seek 48206
x4 48206
rl@@ 48201
cond@@ 48200
PATH@@ 48199
WORLD 48198
HIGH 48196
Leave 48196
Promise 48195
build_file 48195
assertIs 48192
addListener 48181
RenderStyle 48174
rate@@ 48169
VoCollection 48166
Ð@@ 48166
Reduce@@ 48162
Linking 48156
istream 48141
UNDEFINED 48137
UserName 48134
_MSC_VER 48132
authority 48131
i8 48130
ter/@@ 48127
inspec@@ 48116
_time 48111
TYPE@@ 48103
bpm 48102
proc_@@ 48101
dis 48095
wind 48092
unicode_@@ 48086
desired_@@ 48082
SkScalar@@ 48078
ency@@ 48077
Factor@@ 48074
moveTo 48071
timeout_@@ 48070
launcher 48069
storing 48064
int8 48049
Coin 48040
Klass 48040
business@@ 48037
Wind@@ 48035
adjusted 48033
does@@ 48031
alloc_@@ 48021
extracted 48017
learning 48017
StringValue 48015
uuid@@ 48015
Sm@@ 48014
asString 48014
arrow@@ 48003
Unlock@@ 47997
business 47997
DN 47995
race 47992
payload@@ 47991
LC 47984
lig@@ 47980
pch 47979
settings@@ 47972
logy 47971
copying 47967
vr 47966
submission 47964
reply@@ 47961
linear_@@ 47958
PRINT 47956
bio@@ 47950
spirit 47948
glVertex@@ 47947
reporting 47946
sockaddr 47946
é 47935
PAGE 47929
Wizard 47928
MessageType 47914
GrGL@@ 47910
/internal/@@ 47908
is/@@ 47907
GREEN 47906
expr_@@ 47905
Btn 47904
without_@@ 47904
David 47901
KER_@@ 47901
Rank@@ 47894
cam 47885
Chat 47874
\\u03@@ 47866
thi@@ 47853
ader 47845
mutable 47842
DECL 47841
FIELDS 47837
Instead 47835
LOGDEBUG 47834
Sizer@@ 47834
routines 47834
QPushButton 47820
l2@@ 47818
不@@ 47818
div@@ 47815
ams 47810
gau@@ 47806
constructors 47789
solver@@ 47784
ping@@ 47779
Allocate@@ 47778
triggers 47778
rotation@@ 47777
L1 47773
TestCase@@ 47773
AndReturn 47767
Che@@ 47767
eness 47767
NL 47766
ary_@@ 47764
chapter 47761
sResponse 47752
Router 47751
abi@@ 47747
errmsg 47746
dialogs 47745
additional_@@ 47741
Visual 47731
Sphere 47729
dag@@ 47729
NOTHROW 47728
entropy 47726
java/@@ 47725
ky@@ 47723
ange 47721
2.4 47719
Deferred@@ 47712
polynomial 47701
QGL@@ 47696
10' 47691
getClient@@ 47687
B2 47686
utc 47684
scr 47682
JO@@ 47675
PsiFile 47670
± 47666
TOR 47653
Compile 47651
Breakpoint@@ 47650
READY 47645
SION_@@ 47644
Train@@ 47644
floats 47644
las@@ 47644
InstanceId 47641
getF@@ 47636
normpath 47632
3600 47622
getResult 47615
doubleValue 47608
template_name 47607
test_create_@@ 47595
MF@@ 47594
KE 47586
Sha@@ 47580
eta 47578
AtomicBoolean 47574
BS 47574
syms 47574
lua 47569
Vertical 47543
Rects 47540
Norm@@ 47539
KeyValue@@ 47537
offs 47522
task_id 47516
eigen@@ 47515
6b@@ 47500
studio 47500
pools 47498
ian@@ 47494
OT@@ 47493
val2 47493
PLA@@ 47471
SOURCE 47465
got@@ 47465
firstChild 47462
spellId 47460
mine 47455
mbo@@ 47454
0x00000000 47437
Invoke 47429
Unique 47417
hf 47407
ActionBar@@ 47406
gate@@ 47405
fication@@ 47403
vertex_@@ 47401
Annot@@ 47399
gh 47390
tal 47389
EnterCombat 47387
question@@ 47382
2nd 47381
UNIT_FIELD_FLAGS 47377
Signed@@ 47372
Containers 47359
ANT_@@ 47355
Contents@@ 47354
ux@@ 47353
xmodule 47353
Demo 47351
files_@@ 47350
dog 47345
0x11@@ 47343
Hints 47343
getSession 47341
µ@@ 47335
Equals@@ 47326
DES 47324
ction@@ 47320
bodies 47316
Â@@ 47316
NOT@@ 47314
PositiveIntegerField 47313
idx_@@ 47312
Outcome 47310
xc 47291
Velocity@@ 47279
/intellij-community/tree/master/@@ 47276
Sl@@ 47275
setState 47274
ARG_@@ 47273
processor@@ 47272
phases 47270
nc@@ 47267
Dat@@ 47265
ioe 47264
Quote 47263
SG_@@ 47263
Calculator 47255
Projection@@ 47251
M_PI 47245
disable_@@ 47245
length_@@ 47237
data_ 47235
VS 47234
Arc 47232
dimension@@ 47232
0xffff@@ 47231
graphy 47223
paused 47222
6a@@ 47221
algorithms 47218
plus@@ 47209
Assertion@@ 47207
LOCK@@ 47206
Parsing 47196
grouping 47193
ario 47191
power_@@ 47183
dns@@ 47167
plugins/@@ 47166
EMOTE_@@ 47162
ice@@ 47162
created_@@ 47161
period_@@ 47160
0x42 47152
recursively 47152
moment 47143
derivative 47139
Opacity 47136
Repeat 47129
snippet 47124
Padding@@ 47120
large@@ 47117
Presenter 47110
class_name 47104
lineNumber 47103
cutoff 47100
Dependent@@ 47099
SQLite@@ 47083
orts 47082
inherit@@ 47075
15000 47072
xfer 47071
scrap@@ 47067
gy@@ 47066
Animated@@ 47060
WRITE@@ 47060
attribute_@@ 47058
Pet 47048
reverse@@ 47046
RADI@@ 47045
spac@@ 47045
Collision 47041
tried 47029
PROTOCOL 47028
\\u0@@ 47023
cleaned_data 47012
concept 47006
mission 47003
ObjectMapper 46996
forum 46991
pho@@ 46974
DEN@@ 46967
Norm 46966
capture@@ 46961
separ@@ 46961
AS2 46956
NumberFormatException 46949
b3 46947
123456789@@ 46945
ture@@ 46945
MC 46943
curve@@ 46943
Accep@@ 46940
EF 46925
addActionListener 46925
Absolute@@ 46924
Define@@ 46923
a/tree/master/@@ 46920
supports_check_mode 46913
consistency 46907
cover@@ 46901
map_ 46900
Filename@@ 46897
SYNC_@@ 46893
startOffset 46892
insertion 46877
leader 46875
ek 46866
bars 46865
shardId 46862
ui_@@ 46859
vd 46857
Gateway 46852
Front 46850
Always@@ 46848
maxsize 46842
ache 46840
aaa 46829
edi 46822
emit_@@ 46822
runners 46822
gray 46813
year@@ 46813
logical_@@ 46810
Cap 46807
[...]
