I N 396826565
N E 329873236
L IN 326568946
LIN E</w> 325534040
NE W 325399290
i n 316740721
r e 283297271
a t 243157018
e r 225956370
E N 206325195
o n 201603759
e n 191882316
s t 191450761
NEW _ 175862799
NEW_ LINE</w> 175748567
t h 169216454
o r 166239656
s e 164835565
S T 162714372
ST R 151406058
NEW LINE</w> 149480223
STR NEWLINE</w> 149456678
a l 136985982
d e 136873449
t i 134730089
a r 133708708
a n 131236261
t e 130880852
l e 117031233
r o 115095529
o n</w> 109697282
u r 108032177
EN T</w> 104212900
D ENT</w> 102590924
g e 101409403
a s 95733176
l i 94639763
C O 93060112
a c 88135285
a m 86023512
c o 85207018
r i 84169371
EN D 81606424
CO M</w> 80721573
END COM</w> 80665189
th e</w> 79489928
e c 75256296
o r</w> 74915034
in g</w> 74303379
m p 74177353
/ /</w> 74138063
s i 71506415
l e</w> 70366064
s t</w> 69532411
i f</w> 69498649
s e</w> 69337448
t r 67883524
f i 65568000
u n 65513773
l o 64890726
e r</w> 61309355
D E 60908588
se l 60555666
c on 60302576
sel f</w> 59686106
t ur 59351346
at i 58533870
c e 58163523
i s</w> 57587699
u l 54846269
i t 53570293
re tur 52669536
ge t 51546217
IN DENT</w> 51290319
DE DENT</w> 51274799
m a 51208241
d i 50284156
retur n</w> 49703729
n e 49293513
c h 46895505
p u 46648900
e l 46623268
d e</w> 46351097
i n</w> 45934663
: :</w> 45452982
ti on</w> 44931358
- ></w> 44752630
a d 44364292
I n 43363844
u e</w> 43116245
e x 42976324
am e</w> 42570055
R e 42184272
a b 42071698
a l</w> 41453775
i d</w> 41146434
a p 40917224
y p 38824642
i c 38678502
e t 38591921
at e</w> 37827083
i mp 37644534
s er 37376808
or t</w> 37211688
en t</w> 36200964
q u 35989262
n o 35890643
t o</w> 35802507
in t</w> 35121021
C o 34995902
e d</w> 34607981
re s 34496523
b u 34388109
c l 34176330
e s</w> 32957069
o u 32956583
en t 32828154
i l 32240102
m o 31714594
a g 31561360
o o 30631529
S tr 30562340
o f</w> 30358966
u m 30141705
b li 29973962
imp ort</w> 29607260
v er 29325334
f or</w> 29165511
s p 28761530
m e 28738153
ti on 27957604
bli c</w> 27517512
C on 27098206
a v 27092216
S t 27040265
p ro 26922106
t er 26621301
0 x 26459873
v al 26311378
r a 25738508
yp e</w> 25698395
in g 25431823
de r</w> 25219880
Str ing</w> 25179781
se t 25072118
th is</w> 24855605
i s 24825288
ati on</w> 24648829
at e 24542207
pu blic</w> 24517540
c e</w> 24339130
v o 24190299
p ar 24066431
k e 23932760
0 0 23887944
t o 23850641
a t</w> 23733225
an d</w> 23484773
E x 23364840
m _ 23064342
st r 22840267
n ame</w> 22608501
j ec 22597945
i d 22031935
= =</w> 21885999
T A 21768909
u p 21693513
a n</w> 21558295
i t</w> 21361899
o p 21332562
s h 21303335
ce p 21002632
f in 20892953
T h 20513842
de f</w> 20470727
vo id</w> 20199420
ne w</w> 20026856
p o 19777515
v i 19750456
d o 19677235
B O 19625245
at a</w> 19617085
t e</w> 19148472
f f 19130444
as s</w> 19122897
/ *</w> 19085139
* /</w> 19058713
s s 19050881
re n 18984519
te x 18811078
s o 18761054
f or 18638134
T _ 18596622
in t 18596059
F i 18437202
re a 18175956
te r</w> 18106804
as e</w> 18098749
b jec 17794360
TA B 17652116
p er 17613595
l a 17524329
lo c 17378491
ag e</w> 17318666
an d 17116961
z e</w> 17001677
i g 16953429
en d 16833634
t _ 16808220
te d</w> 16751474
D e 16698431
v e 16696235
S Y 16636358
as ser 16615424
t t 16358143
a r</w> 16343652
E R 16294918
s c 16267761
S e 16263769
t s</w> 16212393
L i 16199395
si on</w> 16121385
con st</w> 16092742
SY M 15981548
SYM BO 15941159
SYMBO L</w> 15908401
on e</w> 15906185
TAB SYMBOL</w> 15868190
P ro 15837768
en se</w> 15680263
no t</w> 15679350
L ic 15668069
ab le</w> 15542560
ac h 15403287
ati on 14919175
ul t</w> 14849584
t h</w> 14608941
C h 14562450
al se</w> 14363338
l in 14351061
el se</w> 14320014
d _ 14301711
ge t</w> 14297573
T I 14279114
E _ 14276971
A N 14257823
cep tion</w> 14256159
Lic ense</w> 14062428
or g</w> 14052561
t a 13908601
ap p 13881272
ul l</w> 13873388
T r 13865916
N o 13849727
at h</w> 13836037
a ge 13798632
E n 13793738
tex t</w> 13773411
L o 13740319
m m 13736424
val ue</w> 13716640
ri bu 13709767
O C 13682332
t ype</w> 13656626
V al 13556810
T e 13532690
f a 13507837
f ro 13462398
cl ass</w> 13431220
am e 13410736
w it 13385611
fi le</w> 13366736
" " 13362609
"" "</w> 13362592
te st 13265922
A R 13245213
b oo 13243510
c h</w> 13242815
ac k 13179300
j av 13152003
cl u 13028234
a s</w> 12858687
m e</w> 12783724
li c 12745782
st an 12724140
d u 12706894
U M 12615884
d ata</w> 12374440
s u 12373464
ar e</w> 12299159
Ex ception</w> 12285376
p ri 12264267
ar g 12256846
N ame</w> 12232999
t or 12181682
se t</w> 12179983
st ati 12159723
an g 12152026
b o 12097339
bjec t</w> 12064981
h e 12063479
M o 12059427
asser t 11913346
c al 11797615
ro r</w> 11790006
t y</w> 11621619
M e 11620187
qu e 11619678
G et 11496502
co mp 11466762
le m 11442404
T ype</w> 11433238
B u 11429620
re c 11399134
en d</w> 11395206
fro m</w> 11358696
R E 11251309
c re 11239847
n ull</w> 11217349
ou t</w> 11201279
wit h</w> 11156328
l y</w> 11139379
b e</w> 11087690
o l 11018495
D OC 10968982
w or 10965537
co de</w> 10917970
UM EN 10885603
ab le 10865304
DOC UMEN 10832585
h t</w> 10790304
d s</w> 10762105
in clu 10691562
L I 10616900
v e</w> 10532109
s _ 10488690
! =</w> 10421548
stati c</w> 10379810
c ur 10342781
P o 10341621
A r 10239806
l s</w> 10231808
ri p 10180452
tion s</w> 10161169
u se 10122980
p y 10092966
fin al</w> 10082113
c tion</w> 9943521
ad d 9935703
f o</w> 9922992
e d 9862578
M a 9809699
v ate</w> 9782639
ach e</w> 9753033
si ze</w> 9727591
tr y</w> 9677547
er s</w> 9668742
re e 9635344
N one</w> 9626490
f alse</w> 9599670
t or</w> 9574683
de x</w> 9574289
T o 9553695
a u 9553456
ac e</w> 9524252
E r 9415612
D i 9381457
tr ue</w> 9318371
i th 9292066
c ase</w> 9263902
U n 9251829
Li st</w> 9243496
inclu de</w> 9241467
un t</w> 9193602
or e</w> 9130309
pri vate</w> 9105674
i z 9089027
P ar 9074133
m at 9067706
U L 9036993
ent s</w> 8986204
ex p 8908927
\ n</w> 8884302
pu t</w> 8827488
th at</w> 8810622
g i 8787715
A S 8772027
en g 8717599
at or</w> 8708567
p r 8651828
T H 8640348
I D 8638645
ro w 8638145
at u 8622775
A C 8618954
st er 8606482
con t 8593590
T i 8575364
a m</w> 8568175
p re 8540104
b e 8530757
p ath</w> 8517681
s s</w> 8490340
O R 8476168
T E 8454329
en er 8451780
w h 8429202
O N 8397320
u e 8369597
ri g 8364726
u t 8351473
si on 8281818
w ri 8251304
co mm 8237378
th o 8211237
c t</w> 8127996
co l 8123302
s y 8107192
I d</w> 8033187
< <</w> 7999444
_ _ 7967229
A d 7950896
p a 7928283
st e 7920363
ou t 7893123
la y 7874373
O R</w> 7834094
li st</w> 7831821
S o 7806773
str ing</w> 7801682
ex t 7774020
a se 7728761
si g 7717412
at a 7682675
p l 7680681
t r</w> 7677582
S er 7650552
re d</w> 7647526
Th e</w> 7631352
b y</w> 7629470
+ +</w> 7587221
ac k</w> 7571292
Val ue</w> 7553851
i te 7548401
st ar 7523717
V i 7517059
o b 7504359
0 . 7491004
e n</w> 7477984
fi el 7451381
Tr ue</w> 7421285
f t 7405592
di st 7399458
o u</w> 7386341
p p 7383111
Co l 7367171
u p</w> 7350373
co m</w> 7314858
K e 7255886
A L 7218200
res ult</w> 7211155
Er ror</w> 7198772
u ti 7169242
& &</w> 7149651
get _ 7148441
E qu 7126284
ke y</w> 7106949
S et 7073175
so ur 7058098
m s</w> 7054578
f lo 7009907
b le</w> 6998930
re ad 6983925
an s 6983257
y _ 6978018
f e 6947886
i ze</w> 6911692
le r</w> 6903802
e v 6895434
A c 6869008
F or 6866361
dist ribu 6845357
sc rip 6834294
n um 6795509
f o 6784376
/ ma 6784319
n ec 6757009
eng th</w> 6717161
A T 6704879
un d 6685632
par am</w> 6683082
in ter 6653531
O bject</w> 6643584
C l 6640282
U R 6634216
e _ 6592071
sh o 6589998
al s</w> 6585565
0 1 6577301
0 0</w> 6562012
un der</w> 6538520
h o 6517421
v er</w> 6505181
jav a 6489312
s r 6484408
A n 6450588
de fa 6431591
mo de 6414887
A l 6409255
c _ 6409127
le s</w> 6406850
jav a</w> 6404407
b rea 6390127
O p 6382153
ec i 6350868
te st</w> 6318211
co p 6315010
stan ce</w> 6288381
fi l 6268390
ver ri 6260068
ch ec 6224377
ge r</w> 6196698
ic e</w> 6177517
ren t</w> 6169760
arg s</w> 6164063
brea k</w> 6121426
st r</w> 6121164
ss age</w> 6118379
ch ar</w> 6106735
st d</w> 6081335
on g</w> 6080522
con fi 6079230
h tt 6072994
w are</w> 6048573
C H 6038674
Te st 6032839
_ S 6005977
que st</w> 5989981
res s</w> 5986287
L E 5982077
m ent</w> 5964534
ne w 5953361
/ t 5882691
se s</w> 5879427
E v 5865408
Th is</w> 5864981
D ata</w> 5848657
a y 5840357
lo g 5833098
al l</w> 5820041
D o 5815847
Co mp 5810633
at ed</w> 5796469
y te 5790179
a d</w> 5789838
assert Equ 5785602
le c 5784087
. 0</w> 5778762
verri de</w> 5778717
f un 5755428
yp e 5752867
l _ 5744212
CO N 5741054
Fi el 5736740
I D</w> 5732271
ti me</w> 5704397
as s 5690160
ur e</w> 5662692
e w</w> 5634263
s up 5618081
F I 5614902
S p 5605440
V er 5597961
R O 5568637
ce s</w> 5568456
en ti 5567233
ft ware</w> 5567093
D I 5564199
g ro 5562433
in dex</w> 5552813
re e</w> 5550435
boo l</w> 5545335
3 2</w> 5539799
i m 5523530
S E</w> 5511737
L O 5511205
pu t 5507016
row s</w> 5496190
a der</w> 5466772
le an</w> 5464114
rig ht</w> 5461109
rea m</w> 5447465
v ice</w> 5438757
B o 5418086
str u 5407030
T_ ID 5401294
mo du 5391572
/t ree 5384357
tor y</w> 5375627
/ma ster 5374967
DOCUMEN T 5372811
DOCUMEN T_ID 5369114
= " 5368950
" ></w> 5368927
< DOCUMENT_ID 5368924
/tree /master 5368924
<DOCUMENT_ID =" 5368924
< / 5368866
</ DOCUMENT 5368830
</DOCUMENT ></w> 5368824
b er</w> 5365594
me tho 5339935
ar y</w> 5319084
c k 5301171
\ x 5295989
ra y</w> 5290391
de d</w> 5255978
M A 5254017
ce ss 5253071
/tree/master / 5249551
ver sion</w> 5249295
lem ent</w> 5248790
+ =</w> 5246193
f r 5242070
h as 5241723
ing s</w> 5233907
S y 5218224
qu i 5211043
Ma p</w> 5209848
as t</w> 5199520
con text</w> 5191017
il l</w> 5186008
ma t</w> 5178236
Con t 5175557
I te 5169651
su b 5155575
ta in 5147350
S _ 5135220
i p 5122733
O verride</w> 5115955
lin e</w> 5101984
ff er</w> 5088569
test _ 5082704
u s 5080566
an ge 5079899
ar i 5077718
ap ache</w> 5070936
D _ 5070618
S ize</w> 5054885
par am 5037005
m in 5026189
S I 5018154
an age 5010166
am p 4997463
g e</w> 4971829
loc k</w> 4970212
or t 4969026
av e</w> 4958239
S c 4958205
w e</w> 4943805
atu s</w> 4940913
w e 4930396
l ength</w> 4930276
In fo</w> 4914758
d er 4912616
C re 4909413
e w 4909211
ne d</w> 4904153
N UL 4889675
co unt</w> 4886844
se r</w> 4878049
Te st</w> 4870904
Con fi 4858506
E C 4837155
L _ 4826921
ation s</w> 4824201
R ec 4818279
c li 4816214
N O 4809058
ren t 4806342
Fi le 4805964
in fo</w> 4795393
for m 4795056
it y</w> 4786196
th rows</w> 4781892
ang e</w> 4771443
Fi le</w> 4770444
uti l</w> 4764537
F alse</w> 4761842
o s</w> 4760278
G ener 4758400
re s</w> 4756988
app end</w> 4751174
NUL L</w> 4747467
u se</w> 4744778
se d</w> 4737315
ul d</w> 4735696
u m</w> 4733387
o bject</w> 4727976
le n</w> 4726627
n s</w> 4726466
sp eci 4718098
_ t</w> 4704715
st ate</w> 4704668
htt p</w> 4684089
no de</w> 4675586
m s 4645732
loc k 4640891
rea d</w> 4640256
ig ht</w> 4639175
e l</w> 4623503
T R 4612252
Se t</w> 4606036
H and 4604268
A M 4600721
O U 4597035
h and 4560558
t u 4555919
t ar 4552844
st _ 4552797
lo w 4550619
i f 4543844
th er</w> 4542622
ro w</w> 4512742
t y 4496087
defa ult</w> 4490359
L in 4489830
Ad d 4489694
d ate 4482334
on se</w> 4481849
si z 4468111
w n 4450598
ul t 4449152
_ _</w> 4443539
y ou</w> 4440293
p ack 4438518
ex cep 4427353
Li st 4418893
te mp 4417267
f ac 4416432
ou ble</w> 4414100
No de</w> 4412718
ti me 4408911
| |</w> 4408485
s / 4407633
distribu ted</w> 4406786
H e 4406671
er ror</w> 4390236
te d 4364805
w ill</w> 4356723
I S</w> 4349395
al l 4343239
n ame 4339585
S h 4322948
d ate</w> 4316669
bu il 4315392
ad d</w> 4314780
ma y</w> 4308270
S E 4289908
m is 4286884
g r 4267250
boo lean</w> 4261174
P u 4255845
py right</w> 4250513
b ack</w> 4249014
it s</w> 4233942
fi le 4221836
W AR 4215680
cop y</w> 4215666
cre ate 4212153
a i 4210042
al iz 4208985
D ata 4205407
flo at</w> 4188810
le d</w> 4186489
A tt 4179919
G _ 4179086
in do 4169209
u es</w> 4163885
res p 4159751
U N 4151359
r or 4151314
Con text</w> 4138982
f l 4135595
c an</w> 4120655
de fin 4119956
at ch</w> 4118782
anage r</w> 4097797
Bu il 4087913
i ti 4083916
st o 4075357
ex t</w> 4067997
chec k 4064827
un d</w> 4058123
p ort</w> 4049737
In ter 4042935
u int 4041913
ro l 4037362
co de 4014742
d ing</w> 4013053
3 2 4013053
ma p</w> 4003536
er e</w> 3981906
Pro per 3976831
F o 3974638
r u 3973592
con nec 3969858
sr c 3966487
In dex</w> 3958685
S u 3954259
O N</w> 3953053
1 2 3948541
ne x 3943348
h t 3927617
Co mm 3923461
G N 3923100
ke y 3920569
re qui 3918795
id th</w> 3917860
2 01 3905088
use r</w> 3896781
ch e 3886728
at t 3886529
re mo 3885022
metho d</w> 3856155
A P 3851496
at h 3843457
c lo 3843249
sour ce</w> 3840357
r an 3839778
t ing</w> 3827942
w ar 3824202
l u 3813347
Mo de 3812269
St ate</w> 3810416
Q u 3798242
p res 3796004
in stance</w> 3793002
W I 3789782
O F</w> 3788719
I f</w> 3783228
re quest</w> 3779114
A u 3760122
Re s 3751854
F ac 3749679
T ype 3738532
m p</w> 3736956
fi r 3729501
speci fi 3728131
modu le</w> 3711979
ra y 3711620
A s 3710248
U ti 3709824
ff set</w> 3705865
M P 3698698
ce ss</w> 3698289
E S</w> 3692256
b in 3690744
d ouble</w> 3681630
excep t</w> 3671949
1 1 3662811
k e</w> 3660272
00 00 3657063
g _ 3656604
for m</w> 3642235
a st 3634166
n ing</w> 3633924
Str ing 3633806
e qu 3626531
i st 3613221
j o 3611021
pr int 3603427
i se</w> 3601972
th e 3597684
P ath</w> 3592786
as k</w> 3590681
v ed</w> 3586942
de le 3582841
Se e</w> 3574950
i le</w> 3573312
B U 3573201
m ar 3559320
ma x 3558705
TI ON 3554980
it er 3541860
m et 3533893
c um 3525185
g o 3522992
ke n</w> 3512108
Re tur 3507882
1 0</w> 3507548
me ssage</w> 3500589
de x 3499276
ST _ 3495898
wor k</w> 3490814
c i 3483758
w x 3483201
L e 3476042
ss age 3469397
star t</w> 3465285
m u 3459161
an y</w> 3456264
AN Y</w> 3449477
sp ace</w> 3449319
2 .0</w> 3448604
f f</w> 3448150
O n 3445619
P re 3434705
Ke y</w> 3428648
L A 3425732
vi ce 3425252
F r 3416657
sho uld</w> 3405533
Co unt</w> 3405298
T Y</w> 3405156
h ave</w> 3401961
Ke y 3398723
l ong</w> 3393671
ag s</w> 3391707
po si 3389851
ul l 3387777
S P 3383570
m it 3381748
v al</w> 3381644
ec u 3378106
tr ans 3377220
sig ned</w> 3371805
w ith 3370038
Lo g 3366965
R AN 3359372
exp ec 3356805
er _ 3348902
E X 3338809
P O 3335561
lin k</w> 3331206
w w 3315423
I mp 3302260
p h 3300246
Fiel d</w> 3299085
sion s</w> 3288091
a re 3273903
Ch ec 3271621
re gi 3265688
R o 3265571
A p 3263027
N um 3258131
ac tion</w> 3257613
m l</w> 3254604
i ma 3243481
T Y 3242869
d b</w> 3241901
p _ 3239829
al _ 3234937
Ev ent</w> 3233678
con tain 3230357
fe ren 3227638
ste m</w> 3227617
di rec 3223085
asser t</w> 3220194
o ther</w> 3216042
st atus</w> 3215462
2 5 3212537
u ser 3211352
pro per 3209794
M anager</w> 3204095
V ec 3203912
am es</w> 3196887
G ro 3192715
ite m</w> 3192444
me m 3190727
at ch 3186364
ur l</w> 3177178
ww w</w> 3171421
Cl ass</w> 3168293
L E</w> 3161353
val ues</w> 3160239
li b 3159641
w he 3153636
B yte 3153148
for mat</w> 3151481
que st 3143895
c t 3143800
I s 3131244
O ut 3130275
bjec t 3127007
se ar 3117472
m y 3113707
a il 3113366
S ER 3110831
s o</w> 3109551
p or 3107758
at es</w> 3105792
L ay 3104355
g ener 3100343
H as 3099636
pack age</w> 3092160
n o</w> 3088968
m ent 3086104
Val ue 3084522
Ti me 3082929
W ri 3079762
assertEqu al</w> 3076710
wor k 3066687
Tr ans 3061621
mode l</w> 3058702
2 00 3052253
1 0 3051335
OU T</w> 3049539
Confi g 3042796
P er 3036933
use d</w> 3034398
i l</w> 3029655
j s 3029640
ve n</w> 3027530
confi g</w> 3023276
GN U</w> 3022645
r un 3019890
Vi ew</w> 3019146
E lement</w> 3018408
B e 3016458
c k</w> 3014424
di r</w> 3012170
ke t</w> 3006955
a f 3004628
d ata 3002718
b y 3002090
Pu blic</w> 2999831
g ra 2998057
ribu te 2995183
un signed</w> 2994321
f t</w> 2992102
wri te</w> 2985182
Co pyright</w> 2982662
T ext 2978093
so ftware</w> 2975215
di ct</w> 2969420
ch ar 2965375
g in 2964426
c le 2962444
yp es</w> 2959248
en ame</w> 2957183
O r 2953502
ma in</w> 2949674
IN G</w> 2948945
lem ent 2945241
ul ti 2944789
WAR RAN 2936533
M et 2936461
I O 2930470
K _ 2930035
p s</w> 2924479
fiel ds</w> 2921049
Ar ray 2920318
scrip tion</w> 2918685
lic en 2917091
fiel d</w> 2916056
C li 2915844
0x 0 2909684
Ti me</w> 2907224
U p 2906790
v ec 2903292
Y ou</w> 2892154
i p</w> 2887212
E R</w> 2886786
an ne 2882846
mp ty</w> 2882149
_ p 2872985
T O 2872922
g in</w> 2871787
T ext</w> 2870975
No t 2866049
t ings</w> 2865494
au th 2863783
c u 2863008
b ack 2862235
de s</w> 2861734
te c 2860837
as k 2860508
w n</w> 2852121
resp onse</w> 2848494
i c</w> 2846952
In te 2846926
S S</w> 2841974
an ce</w> 2839550
C ur 2838731
f ace</w> 2837749
F un 2837055
w a 2836798
1 . 2834934
pr int</w> 2831348
at ure</w> 2831328
Gener al</w> 2830690
e t</w> 2830349
er y</w> 2825286
A pp 2817458
lo ad 2817097
S k 2816279
Ar g 2814992
St ream</w> 2814458
ev ent</w> 2809994
Ver sion</w> 2807739
W e 2806680
ar ray</w> 2804168
I ma 2803457
ith er</w> 2803272
cli ent</w> 2802792
M E 2796459
wh ile</w> 2794362
fi c 2789629
in it 2778218
C _ 2777479
param s</w> 2776429
R I 2773081
Ite m</w> 2767777
F il 2767174
ob j</w> 2764592
requi red</w> 2764452
or y</w> 2752715
val id 2751168
ur ation</w> 2749544
o ur 2747538
So ur 2744930
Par am 2744061
op er 2736576
bu f</w> 2734784
lay er</w> 2729840
le _ 2727009
r e</w> 2724249
ti es</w> 2716542
ch il 2715614
e ither</w> 2715416
li ed</w> 2709357
out put</w> 2709300
de p 2704509
stan ce 2704283
ro o 2702693
i x 2701541
ms g</w> 2696404
stru c 2695466
co un 2692418
bu ffer</w> 2692363
e c</w> 2691816
l ab 2690257
l ate</w> 2677179
P _ 2677064
assertEqu als</w> 2676931
licen ses</w> 2672263
di s 2671238
sig n 2661872
ac e 2658722
t able</w> 2658686
fun ction</w> 2658372
num ber</w> 2655036
po s</w> 2652196
i o</w> 2637298
Buil der</w> 2633918
ra w 2627025
St ar 2620133
Me ssage</w> 2616822
1 6</w> 2610823
is _ 2610776
java "></w> 2609740
to _ 2606902
W indo 2606733
st er</w> 2606283
W or 2603950
b yte 2601419
tur e</w> 2598106
A L</w> 2597420
. java"></w> 2595408
th row</w> 2594644
l an 2593839
I d 2593135
So ftware</w> 2590020
tar get</w> 2585913
Sc rip 2584296
on ly</w> 2580942
F ro 2578361
sour ce 2576656
ve l</w> 2571478
lo g</w> 2566697
WI TH 2566539
st ream</w> 2564647
in put</w> 2560234
Co de</w> 2558306
app lic 2556181
LI C 2555348
at or 2554682
star t 2551746
c or 2549846
cur rent 2547774
lo b 2546156
c an 2536960
ang u 2536381
ic h</w> 2535890
TY P 2526463
d b 2524152
end s</w> 2522601
bu t</w> 2522295
in te 2521603
al o 2520213
b ase 2518159
jec t</w> 2517964
ER R 2517566
F F 2509741
by te</w> 2507919
6 4</w> 2503438
op en 2495184
m ore</w> 2493034
re g 2492318
di c 2490786
E L 2489098
Re gi 2485837
Ch ar 2478407
po int</w> 2477929
wh ich</w> 2472639
Me tho 2463096
ig n 2462694
end if</w> 2462231
Y _ 2461238
fir st</w> 2457748
6 4 2455264
c s</w> 2452967
p er</w> 2449168
F A 2440737
B oo 2439737
ra ise</w> 2434342
c ast</w> 2432367
set _ 2427478
s sion</w> 2425935
Fac tory</w> 2424537
li st 2422595
ribu te</w> 2422525
O bject 2417760
w idth</w> 2417208
WITH OUT</w> 2412550
tec ted</w> 2409558
no t 2404216
mo di 2397380
v ari 2390896
Con nec 2389300
Re sp 2389066
un i 2387456
sup er</w> 2384541
cre ate</w> 2384097
i r 2378870
re d 2375439
ou r</w> 2362937
m b 2362212
whe n</w> 2359980
O per 2359638
gro up</w> 2358041
ac ti 2356429
o p</w> 2355220
d y</w> 2354851
P AR 2354072
ac t 2347099
ap e</w> 2346261
f ol 2345721
a _ 2344109
e s 2339181
ac t</w> 2333646
g l 2333449
siz e 2331998
en er</w> 2330699
r ap 2329197
imp lied</w> 2328712
A B 2328584
cur rent</w> 2322916
R un 2322692
G E 2322219
fi x</w> 2321298
wor d</w> 2317103
ser t</w> 2314182
m l 2313638
Fo und 2312946
ser ver</w> 2311415
er ror 2310228
res our 2304805
col um 2303164
se con 2301144
s k 2296727
p tr</w> 2295528
confi g 2294672
1 6 2289186
al ly</w> 2287749
M _ 2286440
wri te 2285774
per mis 2280984
re am 2279515
op tions</w> 2278755
mo de</w> 2278441
In t 2276441
AC E_ 2275185
X _ 2272789
pro tected</w> 2268914
ne t 2268848
tion al</w> 2267905
Ar ray</w> 2266335
Bu ffer</w> 2257701
ap i</w> 2248904
ta in</w> 2247336
M I 2243847
A D 2243655
Q U 2242560
el l 2240419
BO O 2230018
ing _ 2227970
e li 2223206
lo ad</w> 2219370
pa rent</w> 2217695
Res ult</w> 2216807
b ase</w> 2215250
oo g 2211853
ch ange 2208311
co m 2207931
ma x</w> 2204170
en try</w> 2202919
tex t 2198347
le ction</w> 2196982
Ser vice</w> 2195895
> =</w> 2195428
arg um 2193767
Mode l</w> 2193735
d o</w> 2193013
t ri 2192226
B y 2191146
E d 2186541
Hand ler</w> 2185606
k en 2182112
Su b 2177148
f y</w> 2176484
De fa 2176414
A S</w> 2172723
c ore</w> 2168281
LIC EN 2166103
_ name</w> 2164671
id get</w> 2163353
int s</w> 2160733
sy n 2160223
r on 2158541
se e</w> 2158286
TI C 2157835
an t</w> 2150886
LICEN SE</w> 2150843
le t 2149404
val id</w> 2148200
ER _ 2146857
us ing</w> 2138801
lem ents</w> 2138797
n p</w> 2137708
mu st</w> 2136834
m in</w> 2136299
0x 00 2135918
ar d 2134123
Re quest</w> 2132773
able d</w> 2130831
C all 2128723
o ffset</w> 2128645
le ss</w> 2127357
y le</w> 2125477
nex t</w> 2124243
c m 2122598
D A 2122072
_ id</w> 2121932
S T</w> 2121483
ul ts</w> 2120373
j ang 2120286
t en 2120251
in iti 2118242
angu age</w> 2116856
P RO 2115067
mode ls</w> 2114456
A R</w> 2113334
N ame 2110223
K E 2109739
ar d</w> 2108781
oo l 2104177
B ase 2099044
V I 2095702
o k 2093995
Me ssage 2089137
TI ON</w> 2088675
at ter 2086356
ig h 2084369
gra m</w> 2083085
b i 2082154
Inte ger</w> 2082022
vi ew</w> 2081993
h as</w> 2076788
chec k</w> 2066726
t x 2065120
o bjec 2061777
c p 2058942
C L 2058601
c atch</w> 2057212
b le 2056410
u id</w> 2054450
en ce</w> 2054299
Chec k 2052565
s or 2050972
cal l 2050333
In put 2049947
I N</w> 2049043
pro vi 2046694
re p 2045576
n _ 2041154
eli f</w> 2040328
f u 2038830
T ar 2036342
An d 2031279
specifi c</w> 2031206
9 9 2030815
Po si 2028848
bu g</w> 2027984
ext ends</w> 2027127
b lock</w> 2024946
Ev ent 2023418
J S 2023271
in d 2022516
ex ecu 2022500
s q 2020535
oo l</w> 2018321
TI ES</w> 2018012
f _ 2016808
de scription</w> 2015674
N AM 2015038
St ate 2012102
M O 2011974
in e</w> 2005239
or d</w> 2004470
IO Exception</w> 2003723
si ble</w> 2002009
i es</w> 2001287
P a 1995147
di sp 1993533
Ap ache</w> 1991413
m bo 1989932
fr ame 1989205
d jang 1987694
S ec 1987260
form ation</w> 1983391
m it</w> 1981124
En try</w> 1976940
sear ch</w> 1976768
amp le</w> 1976530
M at 1975101
name space</w> 1974742
Ex p 1974362
ti m 1968455
Fro m 1959779
u re 1956231
WARRAN TIES</w> 1954714
l at 1953635
par se 1946368
co l</w> 1945937
d at 1943539
E V 1943520
Found ation</w> 1942105
/ src 1936661
ach e 1935534
Sy stem</w> 1935339
Al l</w> 1931072
T o</w> 1930979
m en 1928764
No de 1928029
op tion</w> 1926441
2 0</w> 1925812
Bu tt 1924548
fil ename</w> 1923379
or d 1922897
s or</w> 1922785
val ue 1922429
Lo c 1918789
P ri 1918119
fi les</w> 1916115
I LI 1915548
O f 1914880
et ers</w> 1914852
c ket</w> 1912651
he ad 1912023
* *</w> 1906953
i o 1905325
dele te</w> 1905035
it y 1904722
Vi ew 1904007
S H 1902069
P tr</w> 1899453
r ange</w> 1899346
g n 1897168
N ull</w> 1896178
l anguage</w> 1891879
java / 1889783
e lement</w> 1887104
Ac ti 1883695
on _ 1883391
to ken</w> 1880234
AS SER 1878179
ex ception</w> 1877713
Se lec 1877665
or der</w> 1874816
with out</w> 1874174
b lock 1873233
he ight</w> 1872873
H T 1872034
U ser 1868999
comm and</w> 1868374
add ress</w> 1868168
sp li 1867645
s um 1867627
w s</w> 1865659
V ER 1865538
in dex 1861419
y n 1860381
Lo cal 1858850
W ith 1856724
cont ent</w> 1856217
ti t 1853245
CH EC 1853079
and ro 1852941
al i 1851709
X M 1851035
Ch ange 1845730
sc al 1844751
ILI TY</w> 1841433
re t</w> 1840973
We b 1839814
gro up 1838980
g oog 1835730
cl as 1834983
cont in 1834968
t ype 1832882
sy s</w> 1832324
ac h</w> 1828725
In stance</w> 1827426
Retur ns</w> 1827373
jo in</w> 1827278
m a</w> 1826333
u s</w> 1824249
A b 1821828
ma in 1821088
S O 1818740
ate g 1815538
B AS 1814563
u i</w> 1813394
le g 1813029
B lock 1810869
Un i 1808313
1 3 1807677
js on</w> 1807622
re l 1805017
ad d_ 1804180
comm on</w> 1802741
T E</w> 1802632
b er 1799906
clo se</w> 1799485
m on 1797162
up date</w> 1791720
Fiel d 1790280
Re ad 1789950
l y 1787114
stru ct</w> 1786022
ex ist 1785490
Uti ls</w> 1785421
F lo 1784917
re ce 1783319
s che 1782542
er y 1778549
0 f</w> 1776733
se lec 1775897
C E 1774881
Col or</w> 1772086
pro cess 1771996
on ent</w> 1769987
L ab 1768331
n er</w> 1768020
de ta 1767849
at tr</w> 1767281
0 2 1764857
f s</w> 1760222
P y 1759683
List ener</w> 1758797
re f</w> 1758159
mat ch</w> 1756833
k w 1755819
a x 1755545
i aliz 1754941
Ite m 1754323
do cum 1754165
n or 1753277
li mit 1752099
djang o</w> 1751471
ru n</w> 1751299
L ength</w> 1751214
Col um 1750763
ent _ 1749063
ex tr 1748949
rece i 1747208
c tion 1743405
or ig 1738758
on t 1737941
A ction</w> 1736367
2 . 1734532
Er ror 1732732
TION S</w> 1732585
la y</w> 1728303
h el 1725129
G L 1722726
V ari 1720061
St atus</w> 1720015
Po int</w> 1718669
in d</w> 1718486
1 00 1718243
con di 1717827
0x 6 1717087
cal l</w> 1714561
< =</w> 1713169
__ init 1712643
Te mp 1712286
temp late</w> 1712063
equ als</w> 1711722
u t</w> 1711676
up date 1710588
vec tor</w> 1709726
I ter 1709042
ma p 1708261
ce l 1707426
/ java/ 1706569
F _ 1706003
set tings</w> 1705683
Has h 1702883
loc al 1702316
siz e_ 1701941
in ter</w> 1700594
ho st</w> 1697340
S S 1695845
d a 1694490
ff er 1693539
n al</w> 1693481
D O 1693308
Q String</w> 1692514
s wit 1692033
Att ribute 1691334
un it</w> 1690964
G U 1687782
H el 1687715
qu ery</w> 1687447
Ch il 1687055
size of</w> 1686597
no de 1684973
Re mo 1683108
BOO ST_ 1683007
li b</w> 1682280
ima ge</w> 1680853
uti ls</w> 1680252
feren ce</w> 1677659
fi er</w> 1677441
For mat</w> 1675465
Mo de</w> 1675314
__init __</w> 1675258
ac tion 1675093
m ents</w> 1674528
no ti 1674505
permis sions</w> 1673502
x _ 1672911
mat ch 1672764
K IN 1670463
st ri 1665491
t ypes</w> 1662840
Di rec 1660784
ri x</w> 1660013
la st 1658152
g s 1656885
pu bli 1656387
T able</w> 1656146
Confi g</w> 1655374
H o 1650809
be gin</w> 1649997
defin e</w> 1649782
to String</w> 1648764
re pl 1642113
ter ms</w> 1641383
1 5 1641076
TE R</w> 1639257
expec ted</w> 1634168
lin e 1634149
k no 1633790
contin ue</w> 1632703
ate _ 1632232
il s</w> 1630150
e mpty</w> 1628358
Resp onse</w> 1627657
alo g</w> 1626340
0x 7 1625987
Mo du 1624259
con ver 1623237
ter s</w> 1621914
k _ 1621569
j u 1618077
Cl ass 1617747
k s</w> 1612422
fl ags</w> 1612220
0x 3 1611683
op en</w> 1610713
byte s</w> 1610553
la g</w> 1608876
n ames</w> 1604788
pro du 1604413
m i 1604349
c r 1603912
gi ven</w> 1602896
S cal 1601467
vi ew 1600226
ta g</w> 1599766
ar ch 1599030
R A 1598879
O b 1598686
m ulti 1598450
Proper ty</w> 1597536
c ache</w> 1596692
s ing 1596149
u i 1594112
1 2</w> 1592884
wri ting</w> 1590522
M ap 1589696
KIN D</w> 1589063
fil ter</w> 1587742
pl u 1586998
R u 1585751
c pp 1585363
gr ap 1584854
objec ts</w> 1584084
posi tion</w> 1582623
fo o</w> 1582333
iter ator</w> 1582156
m an 1580973
m_ p 1579809
it e</w> 1579354
ame ter</w> 1579295
pu sh 1577414
Lic en 1576386
f ree</w> 1575080
go ver 1573744
Add ress</w> 1573228
32 _t</w> 1572442
pro gram</w> 1571868
roo t</w> 1570323
1 8 1570138
ite ms</w> 1567490
CON DI 1565233
rol l 1564834
au se</w> 1564347
defin ed</w> 1563333
kw args</w> 1563317
B it 1562315
he ader</w> 1560150
S C 1560068
th on</w> 1559880
proper ty</w> 1559059
F l 1556204
S up 1553013
w indo 1552126
tr y 1551166
TH E</w> 1550711
le ct</w> 1550676
Ti m 1549626
sr c</w> 1549602
F ree</w> 1549419
Vec tor 1548122
in formation</w> 1546974
C ase</w> 1546589
L E_ 1546008
Me m 1542816
En ti 1542622
1 "</w> 1542267
1 4 1541331
ati ve</w> 1539764
CH AN 1539437
av e 1538466
bu g 1537259
p ass</w> 1531456
s h</w> 1530845
s in 1530161
el l</w> 1526681
goog le</w> 1525996
In dex 1525981
S che 1525302
In t</w> 1524256
Re quest 1523349
li ance</w> 1517990
Con tain 1517481
ch anne 1516873
in stance 1515779
co ding</w> 1511549
O ffset</w> 1509550
st ra 1506621
pro to 1506461
F OR</w> 1506201
se ssion</w> 1506094
ob tain</w> 1504898
Ima ge 1504090
par ser</w> 1503885
Gro up</w> 1501984
ar g</w> 1501559
F e 1499777
fol low 1497941
exp ress</w> 1497796
Sour ce</w> 1496992
M en 1496498
lab el</w> 1495839
r ary</w> 1495221
le vel</w> 1494846
or g 1493453
andro id</w> 1492902
Rec t</w> 1490854
st ore</w> 1488206
fo und</w> 1487972
s c</w> 1487672
2 0 1483548
ati ve 1483293
Gro up 1483245
B ase</w> 1483112
Licen sed</w> 1482086
ro u 1480329
W idth</w> 1479967
on t</w> 1479547
\ u 1479231
Un less</w> 1478912
E D</w> 1478449
C an 1478313
Q ue 1478073
ne t</w> 1477403
IN T 1476286
able s</w> 1475503
Con stan 1472965
ff ec 1470728
comp liance</w> 1468835
do m</w> 1466581
applic able</w> 1466328
col or</w> 1466034
S U 1464743
s on 1464367
Au th 1463039
tr an 1462820
D ec 1461006
v _ 1460721
limit ations</w> 1460512
in _ 1457746
new _ 1457480
Pro cess 1456163
Ed it 1456132
v ar 1456028
swit ch</w> 1455902
P r 1454493
gover ning</w> 1453334
I n</w> 1452693
CONDI TIONS</w> 1451154
fi x 1449745
do c</w> 1448955
C lo 1448103
comp le 1447392
Re f</w> 1447346
BAS IS</w> 1447289
p e 1445491
to t 1442888
Di sp 1442849
0x 00</w> 1442721
p ort 1438912
Lo g</w> 1438746
re ed</w> 1438331
EN T_ 1435559
te _ 1435188
for e</w> 1434818
B lock</w> 1432277
1 1</w> 1430962
fin d</w> 1426493
en v</w> 1425670
x ml</w> 1425525
3 4 1424656
EX P 1421859
ma ke 1420371
la w</w> 1419067
pu t_ 1418964
fr ame</w> 1418361
Bo x</w> 1418308
H tt 1418233
li g 1417889
re f 1417706
T a 1417495
key s</w> 1413972
Out put 1413072
AN D</w> 1412859
h ol 1411761
size_ t</w> 1409257
1 9 1408536
Arg um 1407607
s w 1406797
lo w</w> 1406644
ag reed</w> 1406526
Num ber</w> 1406283
ent ation</w> 1404582
C al 1403681
U E</w> 1402718
St ream 1402626
di r 1401332
tit le</w> 1400663
Uti l</w> 1399571
Lin e 1399220
p ass 1399166
boo st</w> 1396609
w as</w> 1396413
En d 1394918
bo dy</w> 1393994
assert True</w> 1393952
loc ation</w> 1392206
au to</w> 1390213
Imp l</w> 1389908
b t 1389168
ch ange</w> 1389130
Defa ult 1388014
Do cum 1386881
' '</w> 1386468
tr a 1385169
py "></w> 1385032
ma l</w> 1384951
ic k 1381928
ro l</w> 1380347
me ssage 1378027
o wn 1377264
p ath 1376990
on e 1376859
b l 1376782
TION _ 1376781
cpp "></w> 1374153
0. 0</w> 1373693
l li 1372389
ti c 1371820
sh ape</w> 1370936
1 00</w> 1369892
D is 1367679
i r</w> 1367282
D ate 1367272
. py"></w> 1367256
atter n</w> 1367101
le ft</w> 1366129
hand ler</w> 1365094
ck et 1364245
pro ject</w> 1363743
Htt p 1362404
for mat 1358721
g lob 1355874
' ''</w> 1355361
FI T 1355182
connec tion</w> 1355097
an not 1354349
p y</w> 1353724
ser vice</w> 1353599
ff e 1352149
java x</w> 1350599
su c 1350438
de bug</w> 1349752
print f</w> 1348182
remo ve</w> 1347703
ce s 1347582
. cpp"></w> 1346992
re _ 1345915
li ty</w> 1342161
deta ils</w> 1341976
le t</w> 1340912
G H 1340751
rec t</w> 1338793
we b 1336214
asser t_ 1333601
Cre ate 1333184
To ken</w> 1333113
ri d 1332528
th er 1332492
c er 1331613
fu l</w> 1331377
or s</w> 1331144
T able 1329989
Po s</w> 1328553
has h 1328284
P ath 1328216
Co de 1328007
ar y 1327074
al ize</w> 1326630
ht ml</w> 1325320
b it 1324872
L OC 1323344
in to</w> 1322731
G rap 1322574
Ser vice 1320943
specifi ed</w> 1320470
se _ 1320401
ad ata</w> 1319280
L oo 1315561
G et</w> 1315551
Op en 1314337
C T</w> 1314332
W idget</w> 1313381
M ulti 1313260
S Q 1312654
R a 1312461
D ate</w> 1311988
id s</w> 1310231
er i 1310029
secon d</w> 1308976
res s 1308406
U S 1306878
ima ge 1306001
chil d 1302119
1 .0</w> 1300350
Proper ty 1297745
N et 1297365
ap p</w> 1297287
l n</w> 1297032
U r 1297030
ser ver 1296265
vi si 1295124
n al 1293605
NAM E</w> 1293522
/ma in 1292439
Posi tion</w> 1292220
k er 1292058
r app 1290613
vo l 1290470
log ger</w> 1290301
De p 1290278
cm d</w> 1289771
y our</w> 1289529
r tu 1288711
en c 1287405
on s</w> 1287125
ON _ 1286541
th en</w> 1286478
att ribute 1284643
lin es</w> 1281802
ERR OR</w> 1281694
Ch anne 1281444
Re source 1280962
Re f 1279717
h ic 1278830
pro cess</w> 1277292
App lic 1275190
le ase</w> 1272498
lic ense</w> 1270970
b ar</w> 1270852
l d 1270814
s ing</w> 1270139
Fr ame</w> 1269675
UR L</w> 1268977
O P 1268238
Array List</w> 1267858
co pyright</w> 1267840
sp ec 1267394
3 3 1267160
Att ribute</w> 1267006
ma il</w> 1264954
Scrip t</w> 1262234
h i 1262223
p age</w> 1261989
hand le</w> 1259885
Q gs 1259515
el s</w> 1259470
res ults</w> 1258079
M ER 1257221
Ima ge</w> 1256453
sy stem</w> 1255965
ext en 1255949
cur ren 1255207
Ac tion 1253661
D B 1253383
av ail 1252269
Val id 1252113
He ight</w> 1251503
Retur n</w> 1249868
Lin e</w> 1248469
E mpty</w> 1248371
AL L</w> 1248366
Butt on</w> 1245460
s end 1245278
spli t</w> 1243951
re quest 1243877
n ull 1242992
E lement 1242610
o s 1242438
or y 1241347
M in 1241169
par t</w> 1241086
auth or</w> 1240872
de st 1240245
g er 1240098
buil d</w> 1239636
st yle</w> 1239447
push _ 1238409
M S 1237121
et er 1235906
Ex ecu 1235208
Co un 1234457
m er 1233004
Metho d</w> 1231467
TYP E_ 1230264
modi fy</w> 1229517
R _ 1229109
Cont rol 1229082
Th read</w> 1228656
t ree</w> 1228355
A G 1227624
Ma x 1225234
z er 1224875
follow ing</w> 1224861
H E 1224572
F OR 1223513
G e 1220873
cl s</w> 1220869
0x 8 1219377
A LI 1218358
As sert</w> 1218014
T H</w> 1217570
p p</w> 1217556
to m 1216076
ASSER T</w> 1215336
inte lli 1214551
sup por 1214454
u d 1214250
th ing</w> 1212873
AL _ 1211551
ne ed</w> 1211550
Cli ent</w> 1211485
p s 1211097
0 1</w> 1210033
/main /java/ 1208274
s n 1207689
chil d</w> 1207364
0x 4 1206994
0x 2 1206387
i led</w> 1204421
ad oo 1203546
th read</w> 1203288
pre fix</w> 1203173
th read 1202750
Lo ad 1201775
N e 1201601
publi sh 1201517
Config uration</w> 1200841
er r 1200746
te s</w> 1200103
buil der</w> 1199739
Fil ter</w> 1197403
Un it</w> 1196906
t w 1196338
in e 1196153
fac e 1195906
stati c_ 1195673
ad di 1195636
I P 1195100
_ type</w> 1194667
C E</w> 1193822
fa il 1192129
x y</w> 1192007
P UR 1191288
s ure</w> 1190841
lan g</w> 1189549
add r</w> 1189126
S ho 1188255
Ex pres 1188230
In c</w> 1187635
C P 1187366
ab ase</w> 1186326
id x</w> 1185373
de vice</w> 1184527
Cli ent 1183868
1 7 1183524
inter face</w> 1182858
P an 1181208
s ame</w> 1181155
I L 1180961
c ap 1179681
M an 1178193
Lay out</w> 1177849
Comm and</w> 1175759
in s</w> 1174928
TE D</w> 1174799
at s</w> 1174302
l l 1174087
Windo w</w> 1173940
NE SS</w> 1173643
a z 1173051
A U 1171969
Pro vi 1170055
T ree 1169642
g ing</w> 1169037
D AT 1168586
id enti 1168359
ST AT 1168214
l ate 1167969
M ar 1167741
contain s</w> 1167063
UL AR</w> 1166119
s amp 1164974
J av 1164531
is instance</w> 1163847
par se</w> 1163685
bo x</w> 1160546
h ere</w> 1160149
Set tings</w> 1158262
am p</w> 1158250
m t</w> 1158050
me di 1157406
t ask 1157298
M M 1156210
PAR TIC 1156113
cle ar</w> 1155986
fin d 1155267
remo ve 1155173
to ken 1154830
N ew 1154242
l d</w> 1154164
tar get 1152664
AC E</w> 1152489
D at 1152132
A t 1151910
fun c</w> 1151842
l ast</w> 1151515
push_ back</w> 1151125
PO SE</w> 1151049
MER CHAN 1148695
S imp 1148606
PUR POSE</w> 1148173
W OR 1147832
st ack</w> 1147621
FIT NESS</w> 1147041
MERCHAN TAB 1146359
connec t</w> 1145902
ste m 1144924
0 4 1144090
lo c</w> 1144023
Cur rent 1143909
ct x</w> 1142951
le d 1142626
Fun ction</w> 1142610
PARTIC ULAR</w> 1141234
n um</w> 1141157
> ></w> 1139893
MERCHANTAB ILITY</w> 1139761
has h</w> 1138401
nex t 1138059
k er</w> 1137866
er r</w> 1137756
e p 1137129
2 4 1137125
bu tt 1136458
1 _ 1136200
e ven</w> 1136044
De le 1133792
h adoo 1133050
no w</w> 1132762
Star t</w> 1132422
ser ved</w> 1131858
a in</w> 1131822
Sour ce 1131721
R oo 1131587
uint 32</w> 1131147
to p</w> 1131012
B ack 1130750
e ach</w> 1130662
at o 1130602
sear ch 1130595
att ribute</w> 1130519
ma pp 1128020
at ing</w> 1128004
Chec k</w> 1127669
equ al</w> 1127647
Cre ate</w> 1127571
P ack 1127545
param eters</w> 1126196
get Name</w> 1125880
Qu ery 1125166
t yp 1124995
lib rary</w> 1124719
In fo 1123935
end er 1122886
v m</w> 1122556
Star t 1122370
Mode l 1121372
atu re 1120106
yn am 1119027
c_ str</w> 1118188
Th read 1117711
For mat 1116419
re n</w> 1116412
te d_ 1116295
t able 1115948
Up date 1115706
te x</w> 1115035
U ser</w> 1114732
Lab el</w> 1114525
org / 1114097
po s 1110488
an s</w> 1110349
str act 1110296
Not Null</w> 1109906
so l 1109783
colum n</w> 1108453
ol d 1108352
Pro to 1107997
Con ver 1107638
F or</w> 1107369
no des</w> 1106529
c s 1105656
DE BU 1105622
In iti 1105618
on g 1104680
de d 1104617
ate d 1104031
H O 1103262
T OR 1100910
at tr 1100194
op s</w> 1099930
af ter</w> 1099758
de l 1099393
Byte s</w> 1098596
resp on 1098363
lo t</w> 1098080
mo ck</w> 1097478
th ere</w> 1096033
n s 1095102
TE X 1094521
un it 1093721
D O</w> 1090876
distribu te</w> 1090851
Vec tor</w> 1090709
direc tory</w> 1088829
d a</w> 1088761
Al l 1088701
condi tions</w> 1087646
M app 1087628
Fr ame 1086353
scrip tor</w> 1086308
t x</w> 1085235
cop e</w> 1084662
FA UL 1082868
Cont ent 1082229
t ask</w> 1080622
J o 1079987
ce _ 1079255
sp ec</w> 1078257
char ac 1076881
S iz 1075713
tor s</w> 1075587
a p</w> 1075403
En abled</w> 1074868
de re 1073526
st or 1073325
2 4</w> 1072747
check _ 1072404
test s</w> 1072130
ac tu 1072033
Scrip t 1071002
De fin 1070398
ou s</w> 1069260
m al 1068738
6 7 1068262
Log ger</w> 1066657
Iter ator</w> 1065265
read y</w> 1065022
recei ved</w> 1064991
Z E</w> 1063535
in it</w> 1063027
U T 1061950
I T 1060938
po int 1059753
frame work</w> 1059520
c ul 1059323
head ers</w> 1058216
re q</w> 1057046
Di r</w> 1056966
0 - 1056498
A g 1056162
resour ce</w> 1055175
pu ts</w> 1053960
up le</w> 1053404
co ur 1050237
al low 1049797
DE FAUL 1049628
T ypes</w> 1048124
am b 1048052
orig in 1047240
sp r 1047165
C ache</w> 1046695
ti fic 1046675
C u 1046393
di o 1045998
v ar</w> 1045739
st ate 1045227
L ong</w> 1044978
U P 1044922
do es</w> 1044489
al y 1044331
fiel d 1042502
p layer</w> 1042494
be fore</w> 1041820
ay s</w> 1040290
Qu ery</w> 1039090
En d</w> 1037522
ed it 1037110
W e</w> 1036794
I _ 1036022
b r 1035322
0x 1 1034831
c tions</w> 1034785
res ol 1034555
pl at 1034506
2 _ 1034417
o ver 1033690
Ab stract 1029682
N ull 1026000
b et 1025076
ra w</w> 1024860
c r</w> 1024644
TYP E</w> 1024123
in st 1023268
se cur 1021898
D E</w> 1021598
se qu 1021320
0 9 1020863
wh ere</w> 1020095
Id enti 1019598
d ri 1019491
Wri te 1019355
Metho d 1018272
dep end 1018058
t mp 1017696
O f</w> 1016867
time out</w> 1016670
IN F 1016655
comp u 1016316
P lu 1016231
Tim er</w> 1016085
con f</w> 1015542
e p</w> 1015227
Po int 1014381
N P 1013846
change d</w> 1013500
Th at</w> 1013012
lic y</w> 1012559
create _ 1012368
do main</w> 1012367
EC T_ 1012272
/tree/master/ src 1011794
d raw 1010696
t mp</w> 1010338
Hand le</w> 1010171
ke d 1009093
P OR 1007753
comm and 1007156
Ser ver 1007083
si mp 1006974
or der 1006708
rig h 1006524
exist s</w> 1006507
fa iled</w> 1006305
0x 5 1005382
Par ser</w> 1004587
ge o 1004529
ul t_ 1004250
R ender 1003154
mo ck 1002962
0 '</w> 1002393
jec t 1001786
s on</w> 1001427
Acti v 1000724
S te 1000498
s sion 1000469
s l 1000414
Windo w 998706
lo ok 998685
publish ed</w> 998342
static_ cast</w> 996607
ho st 996461
1 '</w> 996153
8 8 995639
Q t</w> 995616
t a</w> 994603
max _ 994569
vi ron 994278
use ful</w> 993997
w al 993967
A _ 993959
oo ls</w> 993576
Tar get</w> 993361
A I</w> 992541
He ader</w> 990176
Provi der</w> 989920
Re ader</w> 989086
Fi r 988859
lay er 988794
i ter</w> 988684
Di alog</w> 988288
cl ass 987139
Hel per</w> 984838
00 0</w> 984595
num _ 984549
T ask 984496
e d_ 983835
G P 983665
C ap 983046
end l</w> 981955
f er 981897
WARRAN TY</w> 980808
um e</w> 980727
_ m 980370
argum ent</w> 980246
F T 979443
P h 978797
P age 978337
r c</w> 978201
He ad 978145
2 "</w> 977401
S ign 977306
t ing 976999
Ch ar</w> 976314
to p 976106
avail able</w> 974886
SP EL 974777
Le vel</w> 973032
al loc 973016
set s</w> 972804
file _ 972662
n on</w> 972594
0 3 971888
po ints</w> 969391
con stan 967700
D ic 967511
inter nal</w> 966445
pass word</w> 966180
th an</w> 965978
X ml 965609
provi ded</w> 965553
b _ 964546
fro m 964086
O K</w> 963549
so lu 962252
retur ns</w> 961015
/src / 957560
ig ht 957507
f lag</w> 956580
si st 956405
lat er</w> 956241
py thon</w> 956150
LO G</w> 955808
Tar get 955631
r _ 955217
co re 954761
Ge o 954477
B in 954299
IN _ 954031
error s</w> 953958
W ar 952389
ac ket</w> 951119
b as 950329
v id 949464
U D 949328
Col lec 948610
g h</w> 948527
ch o 947732
if def</w> 947384
CO MP 946876
1 5</w> 946828
Ex ten 946822
Arg s</w> 946339
sto m 946057
GH T</w> 945812
0 8 945483
6 5 945228
\ \ 944745
I l 944607
Me di 942659
retur ned</w> 942485
M s 941649
h pp</w> 940582
ma ke</w> 940443
Simp le 940384
st d 940121
scrip t</w> 939642
ev ents</w> 938674
Ad d</w> 938597
proper ties</w> 938314
P age</w> 938097
cal led</w> 938079
2 3 937471
fro m_ 936808
F LA 936699
struc tor</w> 936588
ex ample</w> 935626
U _ 932759
do wn 931192
Connec tion</w> 931036
ju st</w> 930693
fi ed</w> 929848
G L_ 929786
I t</w> 929599
instance of</w> 929317
null ptr</w> 928946
HT T 927689
0 5 927523
In stance 927374
l i</w> 926970
Col or 925576
Con text 925219
Ta g</w> 925166
a a 925078
ab i 925049
Comm and 924187
Sy n 924090
0 "</w> 922936
I MP 922179
in sert</w> 922037
attribute s</w> 920859
V AL 920477
h er 919871
_ s 919640
TR I 919588
res sion</w> 917372
NO T</w> 917314
so me</w> 916819
par ameter</w> 916415
al ong</w> 915682
assert That</w> 915088
loc al</w> 913939
addi tional</w> 912643
P RE 912453
M atch 912424
p age 912059
S A 911531
intelli j</w> 911466
N ames</w> 911263
_ re 910748
Ac cess 910482
do m 910368
LE T 909855
Modu le</w> 907795
y e 907598
Chil d 907266
su m</w> 907258
li p 907257
v es</w> 907252
sup port</w> 907158
P layer</w> 906992
F in 905888
Op tions</w> 905043
OR _ 904617
sin ce</w> 904344
ev ent 904315
/src /main/java/ 904303
Au to 904037
Se ssion</w> 903484
Test Case</w> 902736
be en</w> 901485
Fl ags</w> 901009
T O</w> 900683
imp lements</w> 900274
AS F</w> 899190
Vi si 898805
in vo 898533
re distribute</w> 898469
Comp onent</w> 898198
ur l 897955
qu o 897520
MA G 896742
To ken 895244
tion _ 894871
windo w</w> 893760
Wri ter</w> 893574
Boo lean</w> 893237
CHEC K</w> 892799
Col lection</w> 891785
h op 891701
date time</w> 890428
a w 889653
C ache 889235
I S 888191
di t</w> 887090
N o</w> 887078
sc ri 886202
argum ents</w> 885882
ter min 885450
2 2 885305
print ln</w> 885121
F ai 883256
repl ace</w> 882604
Ser ver</w> 882090
Par se 881455
en coding</w> 881321
Re source</w> 879680
config uration</w> 878831
plu gin 878140
I T_ 877861
p ix 877577
Il leg 877103
St or 877028
is Empty</w> 876931
oper ator</w> 875477
defa ult 874946
flo w</w> 874863
St yle</w> 874253
tor y 874219
q ue</w> 874124
DE _ 873902
De bug 873829
ser i 873677
el ast 873030
d w 872962
or iz 872646
_ get_ 872349
En gin 871570
war ran 871539
mat rix</w> 871485
righ ts</w> 871310
d on</w> 870993
c am 870867
ab o 869252
m ask</w> 869125
do wn</w> 868548
docum ent</w> 867763
Inter face</w> 867177
fa il</w> 866238
sh a 865842
ver if 865448
Met a 864395
int 32_t</w> 864173
i _ 863774
Val ues</w> 863689
ap ter</w> 863621
par ti 863367
c ach 863168
s en 862808
de st</w> 862787
y le 862649
met adata</w> 862598
rapp er</w> 862477
log ging</w> 861765
ser ializ 861548
MA X_ 861423
ation _ 861408
Proper ties</w> 860994
T T 860978
sho w 860924
atu s 860840
co der</w> 860830
G O 860310
elast ic 860151
al ready</w> 859819
P Y 859071
b it</w> 858762
que ue</w> 857842
fic ation</w> 857149
ste p</w> 856490
Change d</w> 856195
AP I</w> 855950
warran ty</w> 855431
kno wn</w> 855333
sh ort</w> 855218
cont ribu 854799
TO DO</w> 854747
Value Error</w> 854152
r c 854128
Bu ffer 854061
Ser ializ 853996
W IN 853883
M y 853635
d y 853045
j unit</w> 852723
Argum ent 852369
P si 852343
L ast 850962
c f 850858
R ange</w> 850575
g reg 850517
N _ 850378
en ter</w> 850206
B _ 849745
on ent 849402
Mo ck 849386
Res ult 848807
re t 848006
vi ces</w> 847509
D raw 847152
TE ST_ 846521
Sy stem 846409
B E 845838
P R 845065
ch ron 844840
sq l</w> 843869
w idget</w> 843161
St r</w> 843097
d f 841750
execu te</w> 840177
r s</w> 839317
Th e 839164
res ult 838946
m ary</w> 838921
al ph 838538
hop e</w> 838502
rec ord</w> 837885
an ce 837814
m y</w> 836675
R en 835410
A li 835038
so cket</w> 834921
ser v 834728
st ream 834680
ynam ic 833981
3 . 833534
hel p</w> 833067
net work</w> 831403
de o 830663
an t 829972
Tr an 829952
wa y</w> 829615
o ff 829512
enti c 829354
P ix 827754
P ai 827620
ord in 827310
Constan ts</w> 827209
cr yp 827002
i tion</w> 826921
g u 826731
initi aliz 826454
Illeg al 826187
Re g 825897
p c 825600
atu res</w> 824993
ase s</w> 824892
ite m 823949
re pres 823532
Call back</w> 823409
G lob 823287
Comp le 823073
l l</w> 822310
w i 821947
un ds</w> 821844
call back</w> 821746
coun t 820947
tx t</w> 820671
Expres sion</w> 819751
distribu tion</w> 819156
6 6 819061
vi rtu 817777
hadoo p</w> 817766
str y</w> 817675
Enti ty</w> 817412
abo ve</w> 817308
S M 816818
channe l</w> 815709
N on 815411
curren t_ 815143
sh ip</w> 814705
flo at 814107
u mp 814017
ou se 813871
R an 813507
Se arch 813321
Mo di 812648
cre ated</w> 812238
in di 811933
d type</w> 811855
ec ause</w> 810921
P U 810659
ran dom</w> 810011
sy mbo 809958
ON E</w> 809640
S D 808407
an y 808171
Colum n</w> 808046
g en 807697
l amb 807486
C le 806569
ut able 806104
w ise</w> 804941
te mp</w> 804001
Loc ation</w> 803663
o k</w> 803166
x x 802893
In put</w> 802636
ax is</w> 802475
W _ 802447
si de</w> 802401
Sy mbo 802138
metho ds</w> 801926
k ed</w> 801163
ang le</w> 800661
Lo ader</w> 799836
is h 799361
feren ce 799318
Cont ent</w> 799216
bin ary</w> 798870
as h 798696
Fun ction 798579
ac cep 798305
li ke</w> 797681
I C 797463
LET TER</w> 796868
co py 795932
imp lement 795551
il li 795464
M u 795315
imp l</w> 795292
el y</w> 795260
1 3</w> 794907
o c 794488
M on 793623
0 7 792871
ex ter 792853
ti ve</w> 791783
mem ory</w> 791380
se ction</w> 789562
val u 789290
arg v</w> 789259
Siz e 789202
N or 789017
c on</w> 788860
or _ 788763
LI AB 787815
gener ated</w> 787527
di ff</w> 786758
G r 786661
multi p 786081
DEBU G</w> 785907
st amp</w> 785129
in put 785097
x y 785047
g or 784908
sto p</w> 784722
RE S 784645
s a 784577
li mit</w> 784307
2 7 783852
I T</w> 783070
Param eters</w> 782737
l er 781758
P ER 781059
it _ 780596
Sp ell 780570
user name</w> 780437
a in 780047
St ati 779671
Men u 779617
o ther 779527
U C 779462
ID _ 779377
tw o</w> 779056
Hash Map</w> 778917
com / 778603
HT M 777845
p as 777791
g r</w> 777026
ve _ 776702
pre vi 776399
und le</w> 776343
T ool 775599
St ore</w> 774817
4 4 774474
applic ation</w> 773549
t uple</w> 773154
regi ster 773149
ra di 772653
al l_ 772337
m anager</w> 772249
make _ 772144
S end 772120
te n</w> 771420
proto col</w> 771343
st u 770549
IN T</w> 770460
Lay out 770187
ri d</w> 769729
Chil d</w> 769084
Mat rix</w> 768831
co ut</w> 768535
ch un 768424
8 9 767759
f n</w> 767512
comp onent</w> 767078
di ffe 766290
ur i</w> 765587
IN CL 765455
X X 765007
0 6 764842
id get 764650
R ai 764366
F F</w> 763731
T er 763443
viron ment</w> 763425
Op tion 763176
ap sho 762403
A V 762355
A D</w> 762323
F AL 762210
h s</w> 761771
- =</w> 761558
or ds</w> 760347
SPEL L_ 760334
scal e</w> 760254
al so</w> 759229
Se qu 759202
eng ine</w> 759179
Par am</w> 758951
Param s</w> 758903
Input Stream</w> 758636
XM L 758341
gor ith 758021
data _ 757881
vari able</w> 757841
AN D 757547
t d</w> 757439
s ave</w> 757295
b ecause</w> 757180
pa y 756814
d ro 756225
ser vice 756086
G S</w> 755848
WAR E</w> 755682
Pro ject</w> 755600
De scription</w> 755369
S V 755235
p i 754688
fil ter 754473
Docum ent</w> 753555
CHEC K_ 753378
i el 753238
3 0</w> 753142
ol der</w> 752533
ac tions</w> 751819
CO L 749954
J son 749701
I F 748825
2 9 748046
gr am 747431
ol d</w> 747314
Str u 747018
str ing 746815
f y 746277
ac count</w> 745127
acti ve</w> 744938
Fil ter 744759
ac cess</w> 744543
fo re 744431
e lements</w> 744355
Param eter 744341
1 4</w> 744078
SO FT 744036
nor m 743627
re set</w> 742502
se g 742162
int 32</w> 741881
O B 741870
th on 741377
Out put</w> 741290
dat abase</w> 741205
_S I 740863
n er 740490
TA L</w> 740455
us h</w> 739945
ne e 739892
5 5 739575
D eci 739301
im um</w> 738612
lamb da</w> 738248
C C 737448
ateg ory</w> 736069
_S E 735469
tion ary</w> 734960
s b</w> 734831
/tree/master/src / 734663
Sp eci 733962
SOFT WARE</w> 733924
met a</w> 733425
A f 731759
P l 731130
il l 730942
D S</w> 730909
for ms</w> 730401
bo t 730362
alo g 730165
e i 730151
C or 729960
Fi x 729958
D ouble</w> 729689
J ob 728420
dere r</w> 728234
re served</w> 728151
S i 728104
_ b 727875
au th</w> 727839
fir st 727326
0. 0f</w> 726938
Q t 726909
d st</w> 726512
25 5</w> 726290
r up 726158
e x</w> 725055
T ag 724866
grap h</w> 724772
tu re 724087
re ference</w> 723629
ul d 722867
t ag 722164
N um</w> 721969
T ask</w> 721966
ser t 721601
ru le</w> 721579
De vice 720822
ad ded</w> 720820
spr ing 720819
TR UE</w> 719665
3 D 719014
V al</w> 718975
m d 718799
Ro w</w> 718723
IN G_ 718528
e mail</w> 718099
O _ 717958
ec lip 717856
child ren</w> 717588
C ore</w> 717391
cli ent 717042
FAL SE</w> 716314
to m</w> 716038
St o 715613
D et 715020
stru ction</w> 713358
U se</w> 712822
AP I 712691
acti v 712690
ad o 711898
Re ad</w> 711805
c a 711473
d um 711238
E ffec 710869
25 6</w> 710699
Up date</w> 710560
B as 709799
ob j 709632
s av 709157
P L 708903
p ool</w> 708456
au to 708170
clas ses</w> 707730
p attern</w> 707462
met ri 707453
en e 706596
3 6 706278
en um</w> 706060
C A 705752
do c 705281
T ex 705191
Cre ature</w> 704850
L en</w> 704416
P ass 704175
Que ue</w> 704103
h av 704098
SE D</w> 704062
Re ference</w> 703922
oper ation</w> 703857
U SE</w> 703190
De scriptor</w> 702717
ou s 702522
own er 702423
lo op</w> 702357
p c</w> 701080
Q _ 700171
V ALI 700085
Con stra 699982
Jav a 699789
se lect</w> 699632
amp le 699035
_ data</w> 698817
annot ation</w> 698179
w er</w> 696467
RI GHT</w> 696299
Pr int 695717
R el 695714
htt ps</w> 695129
scrip t 694195
pa ir</w> 694126
3 7 694047
d one</w> 693957
iz ed</w> 693928
Resp on 693406
Cl as 693274
0x 9 693175
VER SI 692725
Applic ation 692598
cont rol</w> 692528
- 201 692350
W al 691852
t ab 691728
Bo x 691654
ex it</w> 691347
INCL UD 691305
A t</w> 691120
NO TIC 690425
INCLUD ING</w> 690391
WOR D</w> 689827
Contain er</w> 689275
5 0</w> 689269
noti ce</w> 689153
w o 689080
ree n</w> 689040
uint 32_t</w> 689023
P C 688822
d r 687349
Cl u 687168
8 6 686583
suc cess</w> 686234
co ver 686140
LO G 685979
a k 685679
_ de 685569
O ut</w> 684831
f ul 684822
lo t 684238
cur sor</w> 683584
en abled</w> 682621
i st</w> 682217
De st 682121
EN D</w> 682025
c y 682024
S ing 681998
C E_ 681809
ur ation 681234
w ays</w> 680540
ver se</w> 679948
Run time 679851
buil d 679780
w er 679498
S SI 678980
No te</w> 678755
defa ult_ 678714
8 _t</w> 678699
sig n</w> 677406
n ings</w> 677314
fac tory</w> 676817
en e</w> 676559
mar k 676311
as _ 676273
s d 676198
st i 676134
in valid</w> 675779
100 0</w> 675453
elastic search</w> 675204
b its</w> 675039
I f 674764
get Value</w> 674168
T ree</w> 674125
s end</w> 674089
j ob 674075
Cont rol</w> 674013
CO PY 672332
in put_ 672260
x ml 672162
T UR 671773
V E</w> 670674
Colum n 670635
igh ts</w> 669134
am o 668991
DEFAUL T_ 668794
N ext</w> 668639
SQ L 668585
so ci 668339
De vice</w> 668280
C F 667611
col lec 667052
se d 666696
ator s</w> 666342
wri ter</w> 666015
LI MI 665513
d en 665481
boo k</w> 665392
N ext 665375
e sc 665037
da y</w> 664771
id _ 664634
enti ty</w> 664109
enc y</w> 664028
On ly</w> 663910
DAT A</w> 663901
g re 663893
secur ity</w> 663798
contain er</w> 663483
disp lay 663248
regi ster</w> 662903
zer o</w> 661811
o verride</w> 661761
Flo at</w> 661497
t ools</w> 661422
Pro du 661373
name __</w> 661303
f d</w> 660438
mo ve</w> 660070
in fo 659941
T it 659795
o si 659718
p lay 659169
Rec ord</w> 658843
St ack 658661
TR AC 658239
str act</w> 657453
T ER 656387
3 5 656163
W he 655994
Medi a 655522
ou t_ 654695
sho w</w> 654610
Mo ve 653720
suppor ted</w> 653387
R G 653373
ag ree 653349
we en</w> 652715
- -</w> 652453
Per mis 652301
Rec ei 651078
Met a</w> 650854
st ic 650750
lay out</w> 649696
Ur l</w> 649684
__ name__</w> 649111
Wor k 648479
equ al 648351
out put 648300
Uni code 648201
disp lay</w> 648007
i e</w> 647214
par t 646699
ag er 646569
2 '</w> 646498
O S</w> 646119
secon ds</w> 645472
c n 645437
con n</w> 644112
Buil d 644052
O ver 643897
flo w 643101
s ur 642761
I mm 642114
P ort</w> 642036
c ast 641937
s li 641899
In valid 641702
Test s</w> 641215
e mp 641128
low er</w> 640395
pres ent</w> 640277
G rid 639971
D el 639585
f p</w> 639579
mar k</w> 639370
Par ameter</w> 639284
For m 638928
En um 637929
Ro w 637862
rea der</w> 637612
Men u</w> 637506
ex ec 637467
Par ti 636728
eclip se</w> 636584
base d</w> 636440
a y</w> 636368
UR I</w> 636215
inter pre 636048
Li b 635945
D B</w> 635816
U p</w> 634282
s z 633271
mem ber</w> 632658
gn u</w> 632182
T op 631844
C am 631841
B ar</w> 631444
\ \</w> 631047
out put_ 630931
TE ST</w> 630694
w ant</w> 630015
Defa ult</w> 629741
exp ression</w> 629689
s p</w> 629580
ri x 629394
2 8 628919
or ity</w> 628811
butt on</w> 628692
Disp lay 628036
ent ri 627909
TI M 627244
group s</w> 627244
Pa rent</w> 626816
li st_ 626590
Fiel ds</w> 626531
d f</w> 626080
FA I 625956
LA TI 625788
ex ec</w> 625770
i e 625127
et ch 624956
v 2</w> 624508
P ol 624116
b a 623774
tran sp 623351
2 6 622749
Ex cep 622211
f ab 622125
jo b</w> 621902
s m 621858
has _ 621729
load _ 621362
Ms g</w> 621196
en ce 621031
c mp</w> 620769
message s</w> 620661
sour ces</w> 620174
gro und</w> 620138
Char ac 619596
pack age 619460
C H</w> 619435
An not 619394
ren der 618566
sing le</w> 618497
b ers</w> 618368
Enti ty 618292
star t_ 618027
Th row 617974
su b</w> 617802
modu les</w> 617787
L at 616754
Equ al</w> 616465
Al loc 616068
po p</w> 616021
ad min</w> 615561
F ail 615305
as on</w> 614901
expec ted 614753
C I 614587
3 8 614471
tex t_ 614441
implement ation</w> 614395
Or der</w> 614376
d ing 614262
4 5 614164
me try</w> 613806
cle an 613744
ver sion 613717
O ff 613591
e m</w> 613471
in stan 613284
vari ables</w> 613121
B ig 612697
wa it</w> 612679
C lic 612054
7 7 612004
de _ 611823
An im 611739
Lo ck</w> 611137
Ver sion 610742
n i 610380
W it 609899
EV ENT_ 609797
di o</w> 609795
pre v 609646
comp i 609321
inte ger</w> 609307
g ress</w> 608828
op tional</w> 608816
C R 608702
St atus 608505
W a 608458
uint 8_t</w> 608107
virtu al</w> 608089
St ack</w> 607976
de cl 607667
ic al 607391
y y 606953
or i 606130
F ont 605859
Modu le 605117
Net work 605000
c ar 604955
DE R</w> 604954
en um 603871
t ags</w> 602668
O TH 602581
G ame 602414
st and 602398
le v 602334
cont rol 601719
LE D</w> 601712
s v 601669
do es 601065
as soci 600955
the y</w> 600931
DA TA 600800
Ob j</w> 600745
0000 0000 599819
clu ster</w> 599702
ver bo 599506
Respon se 599411
c c 599318
A v 599103
sp ac 598937
P AT 598821
Oper ation 598609
Pan el</w> 597895
O rig 597753
ig no 597658
qu ery 597638
l ar 597163
g p 597125
y iel 597086
st op 596979
A D_ 596785
F IN 596757
get Instance</w> 596321
No des</w> 596292
NOTIC E</w> 596215
pro jec 595647
| =</w> 595577
cp p</w> 595556
F UN 595393
Bo dy</w> 594960
pa rent 594825
F lag</w> 594559
o ff</w> 594538
ve lo 593994
tot al</w> 593887
st der 593507
Num ber 593434
ar ding</w> 593305
tr ack 593274
T ri 593271
b r</w> 593119
Lay er</w> 592675
start s 592565
P attern</w> 592470
Sc roll 592345
en ted</w> 591897
ab stract</w> 591340
Ad apter</w> 590904
E QU 590799
Ser v 590434
EXP ECT_ 590416
3 9 590166
FI LE</w> 590034
t t</w> 589917
t ool 589194
U s 589175
Tr ack 588815
rec t 588775
L iter 588701
A syn 588630
po st 588486
FI EL 587982
V o 586923
0x 20</w> 586761
s To 586629
sequ ence</w> 586595
DI RE 586037
2 5</w> 585329
he ad</w> 585280
F RO 585245
posi tory</w> 584769
LATI N</w> 584344
uni code</w> 584257
owner ship</w> 584101
ap e 583783
the m</w> 583709
s ample</w> 583029
comm ent</w> 582238
ar ray 582099
se par 581804
le x 581757
V _ 581458
M ask</w> 580534
TY _ 580430
origin al</w> 580390
f ont</w> 580341
wor ds</w> 580252
Rai ses</w> 580127
D ri 580076
i a</w> 579919
C T 579839
cre ature</w> 579715
user _ 579422
G R 579347
Se g 579274
bin d</w> 579254
ab ase 579122
A A 578656
So cket 578605
in ation</w> 578252
la st_ 578199
I O</w> 577887
t ten</w> 577823
bet ween</w> 577766
Grap hic 577554
fun ctions</w> 577337
n g</w> 576896
attr s</w> 576412
St yle 576391
5 9 576240
P ool</w> 575782
LO G_ 575698
s _</w> 575650
Attribute s</w> 575372
wor d 575317
st ats</w> 575181
glob al</w> 575176
B l 574765
Pai r</w> 574620
W h 573961
op t</w> 573876
State ment</w> 573777
Engin e</w> 573617
p k 572980
Cu stom 572945
ac le</w> 572138
ra i 572128
contribu tor</w> 572082
r t</w> 571822
del ta</w> 571675
Con di 571654
sh are 571550
parse _ 571316
reg arding</w> 571311
Loo k 571248
ac ity</w> 571045
_ size</w> 570845
en code</w> 570839
Met ri 570268
_ to_ 569727
Ex tr 569607
Re sol 569466
stder r</w> 569418
g o</w> 569198
Hand le 568730
B Y 568669
if t</w> 568353
ste ad</w> 568350
colum ns</w> 568048
ST AR 567907
b in</w> 567581
O p</w> 567565
stri p</w> 567139
Scal ar</w> 566998
b ar 566967
st ack 566532
B ar 566502
up d 566460
Re qui 566371
lo ader</w> 565937
fiel d_ 565862
ut f</w> 565604
entri es</w> 564986
Un it 564782
U ID</w> 564556
NO _ 563967
v as</w> 563930
pl an 563471
v en 563050
bo x 563036
Flo at 562799
ame l</w> 561743
con stra 561742
\ t</w> 561430
Control ler</w> 561294
TO _ 560938
vi sion</w> 560898
F ont</w> 560586
cal cul 560546
Wit h</w> 560149
Channe l</w> 560067
comp ile</w> 559753
on ents</w> 559622
Argument Exception</w> 559093
Connec tion 558754
AT E</w> 558699
ge n</w> 558672
can not</w> 558610
d t</w> 558162
plat form</w> 558155
th rou 557444
ed ge 557401
N O</w> 557288
Fro m</w> 556200
Fai led</w> 555701
2 00</w> 555662
s ave 555640
ex clu 555628
agree ments</w> 555448
end _ 555427
E Q</w> 554658
Py thon</w> 554655
H AS 554242
t rig 554238
bi lity</w> 554041
Wor ld 553938
Has h</w> 553652
F E 553530
code _ 553363
al ways</w> 553338
W A 553156
I con</w> 553113
does n</w> 553086
ST AN 553067
read _ 553046
ma il 552892
so me 552701
Fr ag 552476
KE Y</w> 552339
war ning</w> 552091
fin ally</w> 551610
Do wn 551253
v 1</w> 551231
Output Stream</w> 551189
T ra 550999
s 2</w> 550805
buil d_ 550380
an aly 549977
sign al</w> 549902
M ENT</w> 549784
exp r</w> 549699
Direc tory</w> 549318
M A</w> 549238
unit test</w> 549209
de sc</w> 549130
ou ble 548226
ec h 548156
mat eri 547879
64 _t</w> 547827
AP _ 547793
de vice 547734
N UM 547425
Channe l 547222
t y_ 547164
pr e</w> 546297
Co re 546175
whe ther</w> 546118
sche ma</w> 546035
p ip 546005
ul ar</w> 546000
e ffec 545821
plu gin</w> 545635
time _ 545621
alph a</w> 545621
war d</w> 545393
VAL UE</w> 545286
lan k</w> 545164
4 . 544846
direc t</w> 544804
indi ces</w> 544693
Di st 544675
n on 544480
TH IS</w> 544380
sp e 544312
2 D</w> 543609
DA MAG 543578
Docum ent 543418
M B 543178
stor age</w> 542815
Illegal ArgumentException</w> 542715
Sche du 542686
Butt on 542554
4 8 542446
list ener</w> 542159
tar get_ 542041
ro n</w> 541985
resour ce 541978
clas s_ 541632
De sc</w> 541618
re lease</w> 540176
Ver tex 540044
Remo ve 539888
C RE 539745
wa it 539043
LI ED</w> 538743
c b 538371
str ings</w> 538282
men u</w> 538110
Fi les</w> 538099
type def</w> 538094
R ou 538020
cont ents</w> 537772
std out</w> 537489
sc an 537327
Plu gin 537029
Mem ory 537020
Mat rix 536736
Wri te</w> 536433
lo a 536118
cu sto 535882
r ate</w> 535739
S cre 535626
P A 535555
ab out</w> 535342
s ort</w> 535335
e lement 535300
V ar 534950
di g 534876
coun ter</w> 534745
6 0</w> 534601
Ma in 534470
Val id</w> 534313
pro xy</w> 533932
H I 533734
syn chron 533510
o bject 532762
u b</w> 532732
gorith m</w> 532477
Se ssion 532447
eng th 532379
use s</w> 532307
IMP LIED</w> 532108
yiel d</w> 531920
charac ter</w> 531798
Fir st 531271
bo und 530385
S ur 530241
GU ID</w> 530171
expec ted_ 529981
regi on</w> 529913
t f</w> 529654
TRI BU 529236
e k 528715
ms g 528596
V ol 528438
po inter</w> 528104
s cope</w> 527965
b row 527808
ro t 527792
net work 527662
permis sion</w> 527571
e k</w> 527561
res h 527558
own er</w> 527253
ss _ 527249
docum entation</w> 527171
CON T 527094
l t</w> 527074
3 _ 527065
4 9 526807
Comp ar 526511
P E 526384
Sec ur 526291
ra y_ 526222
Po licy</w> 526180
modu le_ 526123
sp ace 526121
Activ ity</w> 526000
modu le 525866
Be an</w> 525427
rel ated</w> 524903
A T</w> 524750
si ble 524737
re al</w> 524254
y si 524208
feren ces</w> 523811
St and 523751
provi der</w> 523721
Oper ation</w> 523715
/ test 523367
it u 523142
e ss 523119
s ser</w> 522983
Applic ation</w> 522965
cor rect</w> 522902
So cket</w> 522814
e m 522707
O P_ 522668
n ative</w> 522437
Glob al 522157
mode l 522156
c amel</w> 521961
P res 521868
fe atures</w> 521738
re al 521618
po st</w> 521583
mo d</w> 521566
Set s</w> 521253
0000 00 521103
Id x</w> 521018
S um 520221
i ms</w> 519790
in stead</w> 519650
d x</w> 519567
o f 519502
P lat 519494
T ab 519366
M is 519199
with _ 518733
M ath</w> 518673
p op 518577
run _ 518318
le ase 518300
co ok 518113
c ache 517913
hol d</w> 517874
JS ON 517792
de bug 517730
con sum 517531
wh at</w> 517328
command s</w> 517327
update _ 517156
u b 517153
z one</w> 516954
U I</w> 516835
Ma x</w> 516495
ASSER T_ 516057
resour ces</w> 515763
ns 3</w> 515613
Po inter</w> 515580
q _ 515497
s 1</w> 515459
Op tion</w> 515424
6 9 515407
Temp late</w> 514931
typ e_ 514825
Ite ms</w> 514724
lig ht 514347
IN VALI 513684
exten sion</w> 513623
dep th</w> 513382
c c</w> 513325
O S 513204
H i 513105
assert False</w> 513046
d enti 513006
Trans action</w> 512996
as yn 512574
cour se</w> 512512
GE T_ 512109
cle ar 511995
_SI ZE</w> 511827
Pro xy</w> 511628
V E_ 511421
it r</w> 511178
sp ar 511077
lin k 511062
Bas ic 510893
Exp ec 510825
in dic 510812
fr ag 510772
trans form</w> 510066
Le ft</w> 510050
get String</w> 509824
the se</w> 509632
2 2</w> 509571
T S</w> 509274
as h</w> 509084
de n</w> 508892
for _ 508872
RES UL 508833
v m 508021
s a</w> 507988
throu gh</w> 507576
con structor</w> 507543
w in 507467
1 8</w> 507193
Ho st 506968
po ly 506275
sche du 506241
3 "</w> 506223
s ent</w> 505939
1 7</w> 505349
pas sed</w> 505334
ver y</w> 505318
CON TRAC 505206
Do c</w> 505185
m ath</w> 505020
US A</w> 504976
INF O</w> 504958
spring framework</w> 504868
I R 504844
D F 504688
Pro ject 504653
0. 5</w> 504423
A x 504323
Le sser</w> 504222
be ing</w> 504135
Op en</w> 503674
Tran sp 503208
Imp ort 503169
am il 503100
K ind</w> 502949
2 1</w> 502603
3 1</w> 502215
OB J 502170
Ru le</w> 502162
RE G 502079
2 3</w> 501740
Head er 501548
ver ti 501547
M C 501293
other wise</w> 501218
r m 501090
In valid</w> 500628
A tom 500606
mapp ing</w> 500548
V E 500358
Re p 500121
c ent 500008
h oo 499942
su bject</w> 499842
dri ver</w> 499436
ST R</w> 499158
iz er</w> 498857
hand l 498763
lin e_ 498167
DE D</w> 498061
cont ent 498037
c lic 498009
M gr</w> 497839
si te</w> 497673
o ver</w> 497422
i pp 497329
e ar 497325
actu al</w> 497065
C all</w> 497057
c y</w> 496948
h r</w> 496693
For m</w> 496237
En try 496080
R T 495783
extr a</w> 495709
Vari able</w> 495701
imp or 495627
set Text</w> 495429
end ar</w> 495365
Imm utable 495302
F ind 495263
Dele te 495240
diffe rent</w> 494828
si ve</w> 494501
c l</w> 494435
op ts</w> 494426
B undle</w> 494331
ke y_ 494306
up _ 494239
hand le 494130
at _ 494124
ra p</w> 493979
add ing</w> 493968
U I 493861
fun ction 493483
Re g</w> 493479
m anage 493319
F O 493212
di st</w> 492847
en ci 492656
Sto re 492639
Sp ec</w> 492539
Text ure 492520
N ew</w> 492475
Inter nal 490912
ish ed</w> 490772
Config uration 490625
ex ist</w> 490376
S q 489724
bo ard</w> 489461
A n</w> 488979
S li 488752
ic ro 488653
Rec t 488600
de o</w> 488506
ic _ 488436
Pri vate</w> 488306
LIMI TED</w> 488130
con st_ 488004
Array s</w> 487693
ker ne 487322
block s</w> 487301
Exp r</w> 487202
verif y</w> 487140
4 7 487130
cl a 486606
U se 486523
U S</w> 485882
In vo 485870
Au dio 485720
B ind 485426
Sp li 485420
ar ray_ 485366
error _ 485345
ut able</w> 485036
n ump 484912
par ts</w> 484726
trans action</w> 484634
Roo t 484575
pl ace 484397
R ange 484367
mo d_ 484333
BU T</w> 484262
lab el 484016
g g 483896
po licy</w> 483762
p atch</w> 483710
amo unt</w> 483402
i m</w> 483160
sk ip</w> 483116
12 8</w> 482799
S n 482757
set ting</w> 482741
fin d_ 482106
assert Raises</w> 481942
uni que</w> 481881
f ull</w> 481855
WI TH</w> 481777
re por 481268
AR E</w> 481228
m iti 481057
vol ume</w> 481053
5 1</w> 481025
r ange 481016
pro b 480773
Excep tion 480669
M ach 480607
Gener ic 480459
/src/main/java/ org/ 480348
Me mb 480091
fab ri 479968
b lank</w> 479864
NO T_ 479744
se mb 479559
col or 479481
pa ren 479087
de f 479027
W N</w> 479000
4 0 478894
e valu 478789
pro file</w> 478770
inclu ded</w> 478654
L L 478486
Q String 478337
lab els</w> 478148
print _ 478003
Temp late 477951
ti l</w> 477704
ll vm</w> 477674
\ t 477245
I P</w> 477196
cal ls</w> 477121
de l</w> 477087
LIAB ILITY</w> 476812
No tific 476563
By te</w> 476489
trans l 476405
5 7 476332
Add ress 476286
AM _ 476235
wh o 476157
UR L 476150
ap i 475987
Lo ck 475973
produ c 475957
RE SS</w> 475764
set up</w> 475317
rec i 475282
windo w 475256
Acti ve 475020
TH O 474690
TEX T</w> 474684
Lin k 474641
File Name</w> 474378
C AS 474360
UR E</w> 474038
Man ager 474017
P lay 473779
wri tten</w> 473169
O P</w> 473150
N ative 473142
retur n_ 473119
ap ache 473000
5 . 472972
P layer 472805
W rapper</w> 472683
CON FI 472637
ar ch</w> 472611
S ol 472491
C AL 472163
E N</w> 471998
de v</w> 471935
CO R 471917
Identi fier</w> 471374
local e</w> 471230
SE LE 471228
and _ 470863
\ \u 470726
DE R 470566
CE SS</w> 470421
GE T</w> 469986
Vi rtu 469808
li ter 469787
excep tions</w> 469553
match es</w> 469491
htt p 469276
CO UN 469236
cp y</w> 469177
Tit le</w> 469032
in her 469029
CL AS 468932
ce l</w> 468906
Initi aliz 468797
th row 468795
Contain er 468782
b b 468680
nor mal</w> 468646
M ouse 468633
C ast 468457
ut ure 468111
Defin ition</w> 467971
pa re 467923
SI ZE</w> 467855
abi lity</w> 467207
s af 467200
mo ve 467143
re ge 467023
O bjec 466988
P e 466893
ateg y</w> 466681
time stamp</w> 466634
Mo ck</w> 466442
in puts</w> 466380
in c 465869
h _ 465753
1. 0f</w> 465492
Po st 465382
To t 465213
base _ 464944
fac es</w> 464883
e f 464821
li ties</w> 464642
c p</w> 464612
edit or</w> 464462
tot al 464455
v ent 464222
t 1</w> 464025
3 D</w> 463981
run ning</w> 463959
\x 00 463917
k es</w> 463458
si m 463398
ol d_ 463276
Rec ord 463276
XM L</w> 462850
Liter al</w> 462797
Di r 462752
ac tor</w> 462677
SE T</w> 462634
E mp 462474
su ch</w> 462330
h ist 462298
tim es</w> 462278
bu ff 462224
si s</w> 461687
O wn 461575
bu ffer 461445
su f 461356
RE QU 461207
8 7 460769
Bu f</w> 460671
cho i 460356
der i 459932
ye ar</w> 459813
T E_ 459761
P acket</w> 459474
com bin 459286
H AND 459148
ME THO 459058
Trans action 459011
An aly 458654
G u 458354
Key s</w> 458280
Comp onent 457853
var s</w> 457618
Det ail 457383
change s</w> 457086
app end 457082
ve d 457052
Stor age 457023
Pro cess</w> 456631
A N</w> 456111
le m</w> 456037
bo th</w> 455477
sp ath</w> 455459
B E</w> 455400
requi re 455383
exist ing</w> 455132
D WORD</w> 454958
p an 454874
d c 454850
POR T_ 454809
colum n 454768
produ ct</w> 454446
_ list</w> 454416
p 1</w> 454321
Serv let 454231
Vector 3</w> 453997
FOR MA 453656
tri es</w> 453536
Trans form</w> 453295
samp les</w> 453242
Posi tion 453202
Regi stry</w> 452930
c at 452774
V M</w> 452430
INT ER 452314
r g 452197
Su c 452151
ab solu 451892
acti ve 451722
Add r</w> 451680
SI GN 451435
metho d 451366
u uid</w> 451257
ri ter 451253
C M 450961
f ull 450935
col lection</w> 450819
COPY RIGHT</w> 450769
Pol y 450652
g t 450599
ai l</w> 450493
b ran 450486
en co 449835
W E 449749
nex t_ 449545
Vari ant</w> 449508
ic al</w> 449400
Fo re 449389
per io 449028
per s</w> 448919
co uld</w> 448737
user s</w> 448728
EQU AL</w> 448265
clu ster 448128
ig r 448111
hash Code</w> 448103
STR ING</w> 447687
B its</w> 447483
E MP 447173
C S 446936
p id</w> 446893
ff ff 446891
EV ENT</w> 446741
di men 446648
get Id</w> 446640
Ru le 446136
comm un 446101
do main 446015
for ce</w> 445909
res p</w> 445803
4 0</w> 445709
wo uld</w> 445699
ta b</w> 445649
sc reen</w> 445587
ac comp 445555
I M 445325
Ar g</w> 444729
h igh 444567
get Type</w> 444477
De bug</w> 444411
I m 444286
dic tionary</w> 444246
selec ted</w> 443989
identi fier</w> 443813
write _ 443723
Ch ange</w> 443322
ul ar 443312
pro p</w> 443137
A re 442877
roo t 442486
P ort 442330
3 0 442262
CH AR 442203
Clu ster 441569
we b</w> 441440
an ti 441286
hav i 440916
conver t</w> 440643
Dat abase</w> 440500
ad er 440422
sn apsho 440281
Bo und 440140
ten sor 440079
Roo t</w> 440005
able _ 439989
g ress 439987
N ONE</w> 439931
b 2 439881
A M</w> 439842
Gener ator</w> 439563
in cre 439447
re g</w> 439319
CO MM 439189
EN AB 439095
W idget 439066
ex p</w> 438702
F LO 438674
end ing</w> 438624
c ategory</w> 438574
U P</w> 438460
de code</w> 438426
constan t</w> 438398
s le 438383
ap pro 438368
ru les</w> 438352
si ty</w> 438287
Co py</w> 438178
L EN 438013
PR OC 437944
d l 437761
n d</w> 437739
comm on 437525
S cope</w> 437511
m ac 437403
Z er 437317
Po inter 437260
cf g</w> 436838
gro und 436775
de v 436723
test ing</w> 436703
L ev 436701
g ame 436468
Met adata</w> 436276
charac ters</w> 436206
se ssion 436058
di alog</w> 435846
FRO M</w> 435710
suc cess 435570
vid er 435558
cel l</w> 435310
is h</w> 435211
Cur sor</w> 435098
re port</w> 435061
M illi 434823
34 5 434734
No ti 434615
Char Field</w> 434517
mock _ 434462
confi g_ 434323
ne g 434234
sp el 434229
ne d 434225
du mp 433791
log _ 433564
an im 433546
Windo ws</w> 433475
ac cess 433449
p t</w> 433416
An g 433277
u d</w> 433172
pos sible</w> 433171
inter val</w> 432966
c al</w> 432844
F u 432748
Sh are 432584
TH _ 432518
annot ations</w> 432386
Selec tion 432244
us age</w> 432229
direc t 432063
st atu 431743
CO DE</w> 431704
distribu tions</w> 431583
le an 431365
use _ 431234
1 9</w> 430945
speci al</w> 430918
auth entic 430346
valid ate</w> 430322
Type Error</w> 430166
M IN 430097
b ro 429734
id d 429668
en vironment</w> 429484
De f</w> 429444
L ong 429284
EN TI 429256
associ ated</w> 429218
sc ore</w> 429153
MA X</w> 429146
S en 429129
TA R 429067
ti ve 428980
co ordin 428928
multip le</w> 428919
B y</w> 428879
DATA _ 428734
HTT P 428387
TR AN 428345
Regi ster 428292
FI LE_ 428073
ed ge</w> 428050
_ f 427945
Dic t</w> 427754
Dec l</w> 427651
Sing le 427645
0x f 426868
token s</w> 426785
Deci mal</w> 426649
o f_ 426273
dele te 426236
num er 426196
t s 426012
Vi deo 425371
get C 425305
sto re 425301
AD D 425057
sk ip 424913
tr ace</w> 424881
orig in</w> 424800
1 99 424553
ell o</w> 424293
get attr</w> 424045
Comp u 423884
Local e</w> 423879
Con sum 423789
BOOST_ CHECK</w> 423784
cla im 423718
G RO 423678
Or der 423634
Regi on</w> 423510
amp les</w> 423424
nee ded</w> 423156
we ight</w> 422583
E lements</w> 422525
op tion 422272
mit ted</w> 422176
clo se 422107
al ity</w> 422080
en able</w> 421920
mo d 421459
Secur ity 421046
BOOST_ CHECK_ 420447
x 1</w> 419952
lo b</w> 419922
Loc al</w> 419598
de termin 419501
al low</w> 419464
js on 419397
H older</w> 419363
p c_ 419184
Lo c</w> 419085
ali as</w> 418956
n d 418846
Par t</w> 418724
Execu tion 418338
n am 417729
retur n 417630
statu s_ 417620
app ly</w> 417431
Lab el 417305
U S_ 416941
A ur 416834
th ri 416801
Di alog 416769
be gin 416760
h ref</w> 416653
compu te</w> 416596
sho uld 416582
d d 416487
py thon 416282
AT E_ 416131
direc tion</w> 415874
nump y</w> 415643
arg e</w> 415626
Ag greg 415622
Do wn</w> 415619
CH AR</w> 415614
pl ace</w> 415546
C D 414831
re du 414733
M er 414723
Re ference 414695
l s 414625
min _ 414512
lig ht</w> 414375
c ro 414368
S LO 413631
6 8 413364
k ind</w> 413345
path s</w> 413341
previ ous</w> 413240
ig n</w> 412938
to o</w> 412749
state ment</w> 412712
re en 412621
G ER</w> 412524
que ue 412382
co ls</w> 412337
P lan 412209
Dat abase 412204
DIRE CT</w> 412184
O ne 412094
PAT H</w> 411991
cl one</w> 411983
ERR OR_ 411869
Ex ist 411824
wor ld</w> 411785
ic on</w> 411524
st at</w> 411421
Fir st</w> 411324
H ist 411302
War ning</w> 411126
M AR 411017
Unicode String</w> 411017
M EN 410952
Null able</w> 410939
s al 410855
rep e 410731
n one</w> 410564
sign ature</w> 410504
loa ded</w> 410503
F ull 410488
objec t_ 410276
P RI 410227
B S 410183
apache / 410130
condi tion</w> 410116
h d 409866
F ree 409799
pro to</w> 409743
Sho w 409705
Wor ld</w> 409412
ind ent</w> 409228
KE Y 409128
m d</w> 409079
up lic 409065
VERSI ON</w> 408966
ge st</w> 408923
control ler</w> 408885
p acket</w> 408578
att ach 408394
Sequ ence</w> 408270
Lin k</w> 407859
di stance</w> 407825
U Int 407587
st on</w> 407463
gi c</w> 407461
STAT E_ 406915
tim er</w> 406845
lo y 406814
Sec on 406759
F a 406673
li ty 406673
Byte s 406594
Lay er 406476
Collec tions</w> 406248
und er 405975
Boo l</w> 405949
S in 405843
at er</w> 405785
lu a_ 405343
it or</w> 405273
ato m</w> 404742
de red</w> 404620
comp res 404274
Remo ve</w> 404039
al et 403393
in line</w> 403295
ne ss</w> 403169
u int</w> 403095
0 _ 402679
d ur 402323
b ra 402221
r t 402166
G E</w> 402092
op tim 402038
Co m 401813
LOC K</w> 401765
Or acle</w> 401762
de li 401610
check ed</w> 401598
proper ty 401593
bot tom</w> 401382
Virtu al 401304
i ve</w> 401257
SM ALL</w> 401236
ro le</w> 401140
LA Y 401121
v is 401074
qu er 400874
Sp ace</w> 400647
Ren derer</w> 400586
at temp 400518
Stati c 400493
Sc an 400268
run time</w> 398920
Do c 398802
8 0</w> 398771
EN _ 398768
grap hic 398512
t ree 398235
pro ject 398078
comple te</w> 398057
val s</w> 397935
o th 397930
ign ore</w> 397895
se lection</w> 397578
ch ain</w> 397466
fe ature</w> 397357
verbo se</w> 397312
T L 397268
M anage 397068
comp onents</w> 397058
sha red</w> 397014
angu age 396737
contain ing</w> 396698
C er 396677
ag greg 396456
name _ 396429
IN T_ 396164
re main 396088
Ho st</w> 395962
al le 395863
dest ro 395778
uint 8</w> 395764
comp are</w> 395569
m_ b 395505
B LE</w> 395339
u al 395254
struc ture</w> 395253
gener ator</w> 395223
W in 395094
AG E</w> 395032
comp ati 395027
o _ 394928
De leg 394859
M i 394680
I S_ 394555
I g 394433
AP P 394372
Auth entic 394367
3 '</w> 394329
symbo l</w> 394097
Edit or</w> 393771
ou ch 393507
Process or</w> 393279
_ info</w> 393215
Selec t 393107
k ing</w> 392880
Ex t 392833
fil l</w> 392759
Tr ace</w> 392735
on es</w> 392687
4 j</w> 392551
Proto col 392409
Permis sion</w> 392394
allow ed</w> 392212
b s</w> 392066
synchron ized</w> 391945
Ob j 391923
ri b</w> 391908
co in 391822
String Builder</w> 391552
choi ces</w> 391222
Pu bli 391210
ser vices</w> 391068
R ight</w> 391044
Ar ch 390761
b atch 390750
Pack age</w> 390668
02 11 390609
n def</w> 390512
f oo 390413
00 00</w> 390162
P ay 390027
with in</w> 389915
li n</w> 389571
Ra w 389563
KE Y_ 389363
Whe n</w> 389328
Set ting 389321
sw ing</w> 389273
Inte ger 389195
m ach 389155
sq l 389135
g rid</w> 389037
Coun t 388988
do _ 388845
dis able</w> 388570
Mapp ing</w> 388532
pu sh</w> 388082
end point</w> 388026
CON NE 387767
In it</w> 387744
P C</w> 387662
w rapper</w> 387656
V e 386669
Sh ape</w> 386656
V O 386540
HTM L 386537
Bo ston</w> 386471
do t</w> 386408
o m 386286
Proto col</w> 386258
ig h</w> 386215
ren der</w> 386139
pay load</w> 385615
f etch 385545
ro ut 385480
Remo te 385408
4 2</w> 385261
et s</w> 385184
u _ 385114
SU B 384880
Scal e</w> 384793
A TION</w> 384650
x 2</w> 384613
Symbo l</w> 384583
comp are 384383
im um 384302
di m</w> 383885
AC H 383843
AR RA 383819
GU I 383810
if ndef</w> 383808
Sche ma</w> 383806
a / 383769
Al ph 383718
starts with</w> 383660
pro t</w> 383579
z ip</w> 383469
dele g 383353
e f</w> 383294
T en 383195
instan ces</w> 383116
o id</w> 383073
8 '</w> 382971
Call back 382947
m l_ 382865
Hand ler 382852
no te</w> 382825
n ative 382763
Mapp er</w> 382708
claim er</w> 382647
set Up</w> 382233
atch er</w> 382180
CH _ 382139
8 5 382105
_ path</w> 382070
saf e</w> 382059
enci es</w> 381929
Ap p</w> 381917
un c 381906
Ma ke</w> 381896
0x c 381700
Memb er 381508
_S H 381376
FLA G_ 381331
av ig 381264
st ed</w> 381211
TH RE 381202
Trans form 381096
ab s</w> 380993
vi deo 380962
get Class</w> 380944
T ER_ 380929
B AC 380758
un til</w> 380658
Atom ic 380498
I TE 380406
dir s</w> 380337
Ste p</w> 380318
fi ci 380255
l on 380225
thread s</w> 380088
fi er 380076
j et 380030
ad ata 379882
fail ure</w> 379608
en tr 379517
compi ler</w> 379348
Fo und</w> 379299
f uture 379258
cont act</w> 379227
res hold</w> 379201
A TI 379171
mis sing</w> 378996
Vari able 378836
mer ge 378801
I gn 378708
pre v</w> 378642
ST E 378626
b ad 378559
Ser i 378545
z z 378440
Graphic s 378410
HE A 378174
en ch 378111
In st 377705
In it 377604
Ur i</w> 377571
request s</w> 377548
cal ly</w> 377540
BU FF 377514
ps z 377503
Sec tion</w> 377422
RESUL T</w> 377295
remo ved</w> 377273
Att ach 377079
cu r</w> 376967
Vi sible</w> 376757
samp le 376621
cp u</w> 376517
repl ace 376453
Throw able</w> 376410
O NE 376379
war n</w> 376302
H ER 376278
d uration</w> 376274
End point</w> 376258
dep rec 376134
an sible</w> 376071
s qu 376017
V AR 375945
f ree 375821
value Of</w> 375321
u l</w> 375320
cam el 375251
tor ies</w> 375236
cli p 375179
Grap h</w> 374998
de ci 374844
F R 374635
dis claimer</w> 374609
Po ints</w> 374590
v ing</w> 374556
Lat in 374243
g ame</w> 374233
G L</w> 374197
mo st</w> 374131
initi al</w> 374069
target s</w> 373968
fil ters</w> 373860
Li mit</w> 373703
Dist ribu 373615
Co py 373554
al gorithm</w> 373476
M D 373415
arg c</w> 373384
the ir</w> 373376
In st</w> 373104
To String</w> 373103
Ali gn 373065
fi ed 373063
2 d</w> 372945
AG E_ 372913
Clo se 372437
St ats</w> 372238
And ro 372140
Ch un 372133
f mt</w> 372015
Stor age</w> 371925
ev ent_ 371867
Bit map</w> 371850
St op 371821
par tic 371699
t 2</w> 371395
N db 371354
G oog 371158
0x ff</w> 371010
t p 370883
ti fac 370877
g t</w> 370741
D b 370698
sp an</w> 370536
re verse</w> 370490
Sup port</w> 370392
di ff 370058
mo unt</w> 369992
comm it</w> 369700
no _ 369627
Se lection</w> 369445
defa ults</w> 369371
Dep end 369218
p ur 369197
De scrip 369189
P I 369010
VER IF 368988
G l 368975
Message s</w> 368909
re st</w> 368800
_p tr</w> 368699
M atch</w> 368623
Dele te</w> 368390
ble m</w> 368378
cu stom 368356
Av ail 368354
UN IT_ 368236
S ample 368070
m any</w> 368051
ext end</w> 367878
F T</w> 367826
a b</w> 367458
W RI 367251
M AS 367209
o v 367023
Ver if 366978
Run n 366836
u r</w> 366800
Lib rary</w> 366749
Pu b 366652
kno wn 366644
comp onent 366598
Date Time 366573
T yp 366556
ex c</w> 366357
Pre fix</w> 366197
pa ir 366120
log in</w> 365902
D 3D 365800
ma n</w> 365714
Pa rent 365671
SI G 365667
PRO VI 365576
Re port 365445
wal let</w> 365255
pre dic 365242
c enter</w> 364972
a g</w> 364959
er a</w> 364923
SIGN AL</w> 364790
G en 364772
TA G</w> 364459
d ynamic 364311
DI R</w> 364092
code s</w> 364081
Re distributions</w> 364070
loc al_ 364002
W i 363781
TI ME 363459
lib / 363388
tor _ 363202
st mt</w> 363118
col lect</w> 363093
gener ate</w> 363033
Ex ter 362827
an other</w> 362753
bo unds</w> 362687
Be an 362609
per sist 362587
CONTRAC T</w> 362481
p 2</w> 362434
0 2</w> 362425
P ip 362404
db _ 362061
w d</w> 361667
a ws</w> 361539
are a</w> 361363
temp l 361295
JS ON</w> 361126
Ran dom 361068
N S</w> 361029
Edit or 360974
un known</w> 360822
S ave 360790
No t</w> 360515
re ason</w> 360426
pro ces 360391
E dit</w> 360384
I ds</w> 360381
cor respon 360288
p i</w> 360207
Tex ture</w> 360160
Are a</w> 360034
D ouble 359964
pri mary</w> 359900
rig ht 359883
c 1</w> 359865
sor ted</w> 359854
tran si 359805
P H 359718
rec ur 359692
in ser 359584
TE ST 359480
B rea 359163
en vi 359163
\ s</w> 359065
C API 359031
oriz ont 359012
look up</w> 358963
aw t</w> 358955
D ig 358895
d d</w> 358733
w are 358662
ter _ 358658
f s 358510
enum er 358475
add res 358454
d st 358373
Op tional</w> 358316
el ine</w> 358303
u al</w> 358198
simp le</w> 358177
Stru c 358150
P T 358049
cal l_ 357999
oo d</w> 357957
7 . 357773
l p 357532
t / 357454
f er</w> 357442
bo und</w> 357331
p ack</w> 357281
Error Code</w> 357032
open api</w> 356689
Que ue 356673
r o</w> 356368
Bo unds</w> 356180
In struction</w> 356171
Mat eri 356111
z e 356062
te red</w> 355905
r v</w> 355890
f ont 355863
file Name</w> 355808
at er 355737
Lo ad</w> 355594
HTT P</w> 355551
Ig no 355473
can vas</w> 355241
int 64</w> 355075
mar y 354726
c at</w> 354616
i con 354599
Us age</w> 354497
mode l_ 354426
Emp ty 354422
pres s 354063
upd ated</w> 353959
10 24</w> 353728
a h 353658
vi deo</w> 353601
Sp e 353405
S w 353267
Mem ory</w> 353195
l / 353088
ME SS 353002
se c</w> 352906
Coun ter</w> 352516
end ing 352484
In clu 352383
DEFAUL T</w> 352206
CAPI TAL</w> 352198
L AN 352082
di d 352034
TOR S</w> 351933
f re 351922
Grap h 351906
Ro le</w> 351377
Att r</w> 350960
gl yp 350937
Inter face 350883
M AT 350813
Regi ster</w> 350789
ate d_ 350495
3 f</w> 350472
war nings</w> 350425
rol l</w> 350282
Bin ary 350175
id th 350165
f printf</w> 350155
Inter rup 350066
equal To</w> 349293
ati o</w> 349260
DE FIN 349057
S S_ 349001
Fun c</w> 348825
Re al 348717
mb ed 348699
que st_ 348647
op t 348581
has attr</w> 348548
w x</w> 348534
ve c</w> 348279
Share d 348267
I con 348073
ic k</w> 347935
G o 347794
fi ers</w> 347790
G C 347567
iz ation</w> 347364
Date Time</w> 347228
0x b 347117
tr l</w> 347103
OR I 347044
ou gh</w> 346874
ar n 346834
Cre ature 346807
de scriptor</w> 346725
im g</w> 346695
envi ron</w> 346692
Objec ts</w> 346676
um e 346607
At temp 346542
a x</w> 346490
F L 346364
En um</w> 346328
an g</w> 346283
ari es</w> 346254
re tri 346222
c ause</w> 346032
fabri c_ 345985
c b</w> 345852
END _ 345841
3 4</w> 345660
0. 5 345490
dest ination</w> 345233
un ch 345170
h al 344916
remo te</w> 344812
P lease</w> 344621
Comm ent</w> 344600
RE TUR 344530
bu f 344492
Constan t</w> 344442
7 5 344413
U TE</w> 344258
v s</w> 344084
G ui</w> 344060
Lev el 343973
so le</w> 343919
b y_ 343879
accep t</w> 343811
4 _ 343706
ho w</w> 343699
AR Y</w> 343697
o verri 343454
g s</w> 343365
In spec 343365
an i 342814
rec ords</w> 342698
Fe ature 342522
FA IL 342512
d s 342462
\ a</w> 342341
C TION</w> 342209
Exten sion</w> 341963
l ap 341880
fol der</w> 341825
Col li 341804
re size</w> 341796
J N 341732
con current</w> 341652
Ap i 341632
b ri 341098
chun k</w> 340952
per form 340747
assert_ equal</w> 340722
SLO T</w> 340716
s lot</w> 340675
Ac cep 340641
b atch</w> 340620
ran k 340605
get Message</w> 340585
0x a 340548
7 9 340506
mar sh 340498
ac e_ 340468
Pro xy 340370
Time out</w> 340334
l en 340005
po l 339908
IN G 339899
IN DE 339740
out puts</w> 339699
A TION_ 339680
W HE 339650
a red</w> 339421
Ru n</w> 339342
p tr 339291
typ ename</w> 339247
Retur n 338969
INVALI D_ 338714
sc reen 338674
g ith 338390
regi stry</w> 338376
x x</w> 338306
Sh ort 338156
um b 338129
amil y</w> 337942
suppor ted 337799
NP T_ 337790
d t 337768
comp ar 337725
custo m</w> 337615
E D_ 337391
Milli s</w> 337384
C r 337232
P ool 337127
Plu gin</w> 337127
sh e 337060
p ick 336893
num ber 336868
reci sion</w> 336805
D ro 336758
v a</w> 336744
e st 336718
b al 336476
V ar</w> 336152
str ing_ 336024
__ future 335922
l ong 335852
__future __</w> 335719
ke _ 335502
4 6 335440
fac tor</w> 335410
Clo se</w> 335399
us r</w> 335395
pro ps</w> 335283
Di men 335097
Ro t 334868
lem ented</w> 334808
it o</w> 334597
Int ent</w> 334330
m t 334299
ma p_ 334274
B ro 334266
co in</w> 334259
image s</w> 334169
visi t</w> 334020
spel l_ 333990
task s</w> 333904
clo sed</w> 333837
CE P 333826
. . 333783
nec ess 333736
arg in</w> 333710
.. .</w> 333705
pro gress</w> 333606
m y_ 333373
En vironment</w> 333128
res h</w> 333107
Hash Set</w> 333096
constan ts</w> 333021
ev al</w> 332950
UT F 332798
hol der</w> 332642
U L</w> 332489
T x 332137
lic it 332107
t_ id</w> 332049
U RE 332019
fl ush</w> 331985
T C 331850
Comp osi 331755
pri ority</w> 331528
test /java/ 331373
tr ack</w> 331325
S E_ 331182
S W 331174
ar n</w> 331172
thri ft</w> 330957
CON TRIBU 330872
Po s 330778
w rap 330683
re stri 330659
Al low 330551
max imum</w> 330482
Comp i 330420
i fe 330405
v o</w> 330308
w rap</w> 330144
Re t</w> 329945
con text 329584
ma ster</w> 329581
fabric_ mod_ 329482
tex ture</w> 329481
di v</w> 329457
o und</w> 329382
SC RI 329300
un its</w> 329277
Runtime Exception</w> 329161
defin ition</w> 329088
d raw</w> 329054
as sign 328889
sc roll 328748
I F</w> 328714
di ag 328548
Ma ke 328441
Cal endar</w> 328355
channe ls</w> 328228
Inter val</w> 328227
cu s</w> 328120
ato m 328007
In di 327917
contain s 327683
int _ 327543
bo ard 327360
Wal let 327277
ev er</w> 327116
bas ic</w> 327079
st ers</w> 326959
TH ER</w> 326956
CONTRIBU TORS</w> 326871
go to</w> 326784
Pix el 326610
Res ults</w> 326599
C ell 326346
AS T</w> 325968
S L 325763
fir st_ 325739
Multi p 325635
0x F 325519
on ce</w> 325457
Par ser 325262
se cre 325231
Pack age 325230
Fu ture</w> 325142
c us 324998
Ed ge 324944
norm aliz 324927
5 00</w> 324541
hel per</w> 324453
set Value</w> 324304
\ 0 324223
me an</w> 324137
u res</w> 324086
Selec ted 323925
V ER</w> 323781
b an 323699
h app 323669
BY TE</w> 323605
Sche ma 323505
e mit 323480
me ans</w> 323399
tt y</w> 323398
stic s</w> 323335
up per</w> 323240
Fe ature</w> 323235
ado w 323182
M ENT_ 323018
C UR 322975
O F_ 322890
for m_ 322864
m k 322833
Sup press 322696
1 e 322587
initi alize</w> 322571
de sc 322544
SQ L</w> 322435
SV G 322232
R ate</w> 322230
process or</w> 322121
Ev ents</w> 322100
AM E 322019
War nings</w> 322019
fi t</w> 321823
IN E 321712
ren derer</w> 321654
T y</w> 321649
pro p 321564
AC TION_ 321557
Acti ve</w> 321396
UN I 321359
Re sources</w> 321242
w idget 321236
n t</w> 321224
stand ard</w> 321166
H igh 321144
M S</w> 321068
Child ren</w> 321019
d ers</w> 320921
BE G 320912
mer ge</w> 320658
c le</w> 320480
tic al</w> 320462
Re served</w> 320449
2 8</w> 320393
D a 320368
M ix 320357
sto red</w> 320153
sup er 319929
produ ce</w> 319870
p e</w> 319794
O n</w> 319661
depend ent</w> 319658
dur ing</w> 319351
in valid 319250
Comm on</w> 319232
Head ers</w> 319215
ta x 319180
16 _t</w> 319080
is o 318961
sup p 318947
201 4</w> 318864
bu cket</w> 318653
host name</w> 318637
ON G</w> 318596
U SE 318534
Co in 318471
O ther 318396
fail _ 318312
VAL U 318284
oper ations</w> 318098
ran dom 318088
quest i 318081
EC T</w> 317860
se s 317787
sion _ 317757
st ill</w> 317724
Ac count 317719
LEN G 317598
re interpre 317567
0x0 1</w> 317498
ver tex 317236
k w</w> 317178
atter n 317162
suf fix</w> 317109
_ T</w> 316989
modi fied</w> 316926
inher it 316925
FI L 316680
2 f</w> 316531
boo k 316409
inter nal 316321
Re set</w> 316305
sr c_ 316250
S wit 316166
M in</w> 316161
radi us</w> 316127
en try 316110
su ite</w> 316080
1 - 316037
F low 315873
process ing</w> 315455
work s</w> 315272
Sq l 315158
Regi str 315074
Z one</w> 315005
pre pare 314959
Jo b</w> 314747
test s/ 314660
o se</w> 314617
lin ks</w> 314587
3 3</w> 314284
g uid</w> 314220
OR Y</w> 314214
imp ort 313928
c ase 313718
sle ep</w> 313666
con tain</w> 313654
201 5</w> 313649
PROVI DED</w> 313609
D ynamic 313505
ou se</w> 313422
Flo or</w> 313238
Ed ge</w> 312978
Sn apsho 312956
t k 312936
Lin ked 312596
clas si 312583
se c 312531
DO M 312449
conver t 312438
8 . 312363
t_ cast</w> 312326
pa int</w> 312300
Ex ec 312189
z ip 311857
Fore ign 311751
M ac 311741
TIM E</w> 311720
stati c 311679
V M 311614
Rou te 311613
source _ 311591
et ch</w> 311495
as ure 311425
6 . 311338
se q</w> 311271
Stand ard 311256
Se arch</w> 311237
vi sible</w> 311172
face book</w> 311172
STAT US_ 311152
IN TE 311011
ti es 310962
U SER 310763
0x e 310747
Cre ates</w> 310608
Con structor</w> 310563
RG B 310559
jet bra 310263
Trans l 310082
k it</w> 309960
r hs</w> 309958
DAMAG ES</w> 309827
Inter nal</w> 309819
U sed</w> 309721
node _ 309638
4 8</w> 309286
Boo lean 309284
alet te</w> 309080
lib r 309054
sh ift</w> 308985
F ind</w> 308971
load s</w> 308922
ful ly</w> 308901
re st 308848
D r 308703
TAB LE</w> 308689
Ma in</w> 308613
current ly</w> 308560
g ui 308555
Pro vider 308491
Valid ation 308460
US E_ 308446
c o</w> 308437
spe ed</w> 308349
hadoo p 308346
or m</w> 308329
ju st 308319
no thing</w> 308268
Equ al 308246
Dec lar 308120
und le 307928
S ort 307907
2 6</w> 307867
AR IS 307828
le ft 307827
Comm on 307687
mon th</w> 307677
GP L</w> 307672
FAIL URE</w> 307365
Expres sion 307315
c ation</w> 307279
up le 307108
Cal cul 307102
C ase 307071
PU T</w> 306907
let on</w> 306872
ch ed 306689
v ely</w> 306685
SELE CT</w> 306623
d c</w> 306603
spac es</w> 306232
p b 306222
plugin s</w> 305721
Oper ator</w> 305544
ut f 305488
coun ts</w> 305321
st ates</w> 305298
c 2</w> 305181
S m 305137
B L 305058
Look up 304943
Su ite</w> 304929
it y_ 304924
Un known</w> 304875
ted Exception</w> 304853
ment _ 304741
S el 304701
inclu ding</w> 304582
AC TI 304529
SER VI 304529
Oper and</w> 304435
EXP RESS</w> 304401
Q T_ 304399
per _ 304228
Con struc 304204
de scri 304138
SH ALL</w> 303941
back end</w> 303739
LIAB LE</w> 303667
MA X 303643
d ra 303610
e dit</w> 303478
grap h 303420
B r 303330
e mit</w> 303319
reinterpre t_cast</w> 303246
gl m</w> 303171
a 1</w> 303041
Bo dy 302816
FI X</w> 302785
Off set 302632
Mo d 302629
ite m_ 302589
Pro gress 302540
end s 302507
spli t 302388
et c</w> 302182
le ast</w> 301931
Not Found 301904
M UL 301872
0 , 301630
DI S 301622
u st 301615
tot al_ 301615
LA I 301545
in sert 301505
bin d 301344
SP EC 301331
effec t</w> 301289
c v 301244
Pu sh 301221
Ste p 301187
get Logger</w> 301178
S ig 301147
Charac ter 301144
EXPECT_ EQ</w> 301118
en ded</w> 301029
bin ding</w> 300950
am az 300878
const_ iterator</w> 300756
materi als</w> 300706
Asyn c 300703
dele te_ 300673
y et</w> 300572
pro blem</w> 300173
On e</w> 300138
de lay</w> 300116
Resol ver</w> 300031
D o</w> 299947
inte gr 299892
glob al 299868
OTH ER 299838
ERR _ 299830
w in</w> 299811
ARIS ING</w> 299804
ver y 299683
intelli j 299671
sy ste 299633
OU N 299612
C ast</w> 299583
tom ati 299567
no t_ 299516
Pa int</w> 299506
ex change</w> 299466
C ach 299463
No w</w> 299441
En able 298987
WHE THER</w> 298943
b on 298924
B Y</w> 298850
Wa it 298823
cel l 298771
dele ted</w> 298607
send _ 298562
Conver ter</w> 298514
tr ace 298473
Tran si 298411
T rig 298259
S im 298107
lic y 298051
ut down</w> 298043
B I 297943
be havi 297940
sum mary</w> 297587
E mit 297451
5 8 297345
WI SE</w> 297290
Meta Data</w> 297274
ab c 297207
Nor m 297107
W S</w> 297083
g l</w> 296976
f c 296966
fil en 296833
NAM E 296746
set up 296742
tu res</w> 296735
Geo metry</w> 296684
CO DE_ 296539
plat form 296496
St d 296478
th is 296285
OU T 296166
* =</w> 296148
Effec t</w> 296138
be low</w> 295975
tion al 295912
Bo t 295882
inst all</w> 295789
m its</w> 295743
F rank 295694
String Utils</w> 295671
dum p</w> 295595
Mar k 295591
wh ite 295543
B row 295524
7 6 295480
esc ape</w> 295477
Latin 1 295410
4 "</w> 295389
f th</w> 295365
3 5</w> 295356
FIEL D_ 295225
Re pository</w> 295209
an ch 295180
k l 295067
se ed</w> 294989
ta x</w> 294923
ch _ 294795
sa fe 294734
exten sions</w> 294729
E D 294669
HO L 294562
necess ary</w> 294228
D um 294123
Be gin</w> 294116
po se</w> 294094
Disp lay</w> 294081
de d_ 294030
Pre dic 293977
ffe red 293847
Ver ti 293833
g y 293728
seri alize</w> 293449
f d 293336
Ra di 293335
5 6 293062
Buil d</w> 292997
1 / 292785
p k</w> 292720
c ases</w> 292679
vi a</w> 292597
Ran dom</w> 292588
Z ER 292565
Igno re 292545
en cryp 292472
tran s</w> 292427
Frank lin</w> 292309
13 01</w> 292295
m ight</w> 292176
call back 292152
server _ 292051
denti als</w> 291823
SH A 291787
Byte Array</w> 291755
LE FT</w> 291592
S R 291586
s - 291546
OTHER WISE</w> 291452
Ro ws</w> 291407
a k</w> 291378
Str ategy</w> 291371
FAI LED</w> 291366
w r 291342
t in 291275
m ask 291240
0211 0- 291126
de velo 291075
a f</w> 291056
char set</w> 290895
i i</w> 290744
02110- 1301</w> 290706
pro c</w> 290587
2 7</w> 290548
l ength 290452
TOR T</w> 290425
fu ture</w> 290288
3 .0</w> 290235
3 6</w> 290092
init _ 289961
go t</w> 289959
Be fore</w> 289946
TE MP 289904
Q Latin1 289898
HTM L</w> 289876
9 4 289835
ar r</w> 289442
Fi fth</w> 289387
Argum ents</w> 289364
ar y_ 289233
d k 289229
N ING</w> 289179
rep r</w> 289075
201 3</w> 288884
st at 288856
IN STAN 288807
L S</w> 288798
b ig 288717
u 32</w> 288698
mem cpy</w> 288607
As ser 288452
err no</w> 288431
8 "</w> 288119
p la 288082
c ateg 288063
cont ent_ 287967
Error s</w> 287946
EN CE</w> 287910
id den</w> 287893
g i</w> 287837
ent er 287724
ter m</w> 287687
Le ft 287618
syn c</w> 287456
DE R_ 287373
COUN T</w> 287201
li er</w> 287100
ap i_ 286949
AU TH 286817
QString Literal</w> 286780
Pro gram</w> 286697
' 0'</w> 286671
fi re 286667
co me</w> 286456
fl u 286450
R ights</w> 286373
ne ver</w> 286356
fl ag 286330
av oid</w> 286302
rel ative</w> 286290
and s</w> 286284
s Per 286264
Py thon 286253
STR I 286156
345 67 286148
age _ 286144
add r 286086
c er</w> 286083
St ri 286074
t f 286046
ten sor</w> 286037
LE TE</w> 286035
roo t_ 285971
extr a_ 285948
C ES</w> 285881
Dic tionary</w> 285848
St at 285805
C T_ 285750
MS G_ 285745
t z 285730
head er 285583
re pository</w> 285572
ph ase</w> 285536
D C</w> 285501
FF FF 285343
ad v 285261
cach e_ 285195
sy stem 285143
Pub Key</w> 285094
cop ies</w> 285091
Buil der 285037
w ere</w> 285018
me sh</w> 285006
oc cur 284989
visi t 284982
AT OR</w> 284958
Tr ace 284946
Exten sion 284909
e ar</w> 284827
sub string</w> 284771
el ine 284684
in st</w> 284414
on e_ 284311
kerne l</w> 284296
res _ 284240
so cket 284200
Dep th</w> 284181
en able 284011
do m_ 284011
Co ordin 283897
C ell</w> 283869
seg ment</w> 283813
en ers</w> 283616
en su 283603
op _ 283580
rep ly</w> 283411
sq rt</w> 283247
0x00 00</w> 283213
con f 283182
tific ate</w> 283143
ke ep</w> 283054
comm ons</w> 283037
S or 282886
s_ to_ 282833
Co ok 282816
sche me</w> 282813
char s</w> 282762
c ent</w> 282600
en i 282573
Ac ces 282562
param eter 282536
ang le 282392
ch ro 282359
EN TR 282330
pl y 282308
jetbra ins</w> 282088
an o 282013
ge d</w> 281970
format _ 281963
selec ted 281825
Af ter 281818
Se lect</w> 281757
Frag ment</w> 281704
Plat form 281700
Me sh 281691
Do main 281604
uni que 281542
n b 281529
_ 0</w> 281518
load ing</w> 281517
Test .java"></w> 281463
M P</w> 281368
Dest ro 281364
t ool</w> 281354
Mem ber</w> 281294
for ce 281210
si te 281098
ac es</w> 281093
SA Y_ 281046
To p</w> 281044
Goog le</w> 281012
Ac cess</w> 280957
1 f</w> 280920
D RA 280908
Clic k 280864
verti ces</w> 280770
0x C 280731
nee ds</w> 280650
n pc_ 280630
su n</w> 280621
Pro file</w> 280603
Effec t 280593
Initi alize</w> 280366
P P 280240
D OU 280093
0x E 280078
Se par 280022
BOO L</w> 280002
2 9</w> 279916
C ategory</w> 279882
Co mbo 279846
is su 279755
p ng</w> 279715
trans form 279549
t ables</w> 279440
share d_ 279389
En v</w> 279360
we ights</w> 279351
ste red</w> 279313
di sc 279309
A I 279291
\ 1 279289
Fil ename</w> 279050
v ate 279029
hand le_ 278924
Constan t 278758
initi al 278749
gith ub</w> 278622
sh ell</w> 278517
3 d 278415
0. 00 278392
TE D_ 278360
PO ST</w> 278258
ss l</w> 278215
ne igh 278169
As semb 278106
coun t_ 278054
fil l 277996
As sign 277887
Regi on 277792
d i</w> 277783
c pu 277605
Orig in 277574
wa p</w> 277356
F older</w> 277294
O F 277285
/src/ test/java/ 277140
image _ 276943
K NO 276846
DAT E</w> 276845
rep lic 276748
m igr 276726
cor rect 276712
st ate_ 276545
in ner</w> 276532
previ ous 276255
Ac count</w> 276210
Scre en 276195
Get s</w> 276176
d uplic 276115
M E</w> 276029
STAR T</w> 276010
Tot al 276001
A X 275999
Suppress Warnings</w> 275831
str cmp</w> 275757
Byte Buffer</w> 275621
32 _ 275474
modi fication</w> 275313
clo ud</w> 275287
ta ke</w> 275278
me t</w> 275241
s In 275224
n al_ 275019
TH E 274973
FI XM 274873
del ta 274848
s ort 274703
i de 274635
tra in 274590
er t</w> 274534
w t 274348
Di ag 274288
A ss 274263
FIXM E</w> 274236
al ign 274223
U M</w> 274163
Sp ell</w> 274149
L LI 274072
Ch ain</w> 273994
Fac tory 273932
re quest_ 273930
DER S</w> 273799
dir name</w> 273786
deri ved</w> 273761
4 '</w> 273725
S rc 273688
In stan 273582
q s</w> 273577
transp ort</w> 273477
C SS 273439
str um 273416
ver sions</w> 273340
so le 273046
At tr 273011
so ck 272999
Cre ated</w> 272786
C G 272759
c v</w> 272556
a 2</w> 272462
Direc tion</w> 272416
gener ate 272349
OTH ER</w> 272342
B i 272326
SQL Exception</w> 272164
w _ 272078
si l 272065
rep o</w> 271996
MS G</w> 271979
N OR 271956
rege x</w> 271800
GU I</w> 271792
fix ed</w> 271785
posi tory 271710
min u 271659
ath er</w> 271654
metri cs</w> 271539
e q</w> 271500
LI G 271468
HER E</w> 271379
in spec 271254
_S UC 271201
js on_ 271131
Defin i 271021
By Id</w> 271010
Sh ader 270997
201 2</w> 270973
neg ative</w> 270971
ho st_ 270804
decl ar 270787
int 64_t</w> 270584
Engin e 270571
W rap 270545
Pan e</w> 270496
Visi tor</w> 270451
le d_ 270359
b undle</w> 270357
Un supported 270287
st itu 270285
medi a</w> 270279
PRO PER 270112
aa aa 270072
E last 269999
Ph ysi 269926
log y</w> 269857
Runn able</w> 269818
m o</w> 269659
st ud 269645
fic ation 269638
sc ene</w> 269556
Scal e 269535
assert NotNull</w> 269419
Selec ted</w> 269365
0. 0. 269297
Mach ine 269170
m i</w> 269076
h i</w> 269006
B al 268959
am pl 268748
si g</w> 268629
o t 268601
deta il</w> 268495
en sure</w> 268457
z oo 268423
9 9</w> 268379
Orig in</w> 268321
connec ted</w> 268256
Per io 268205
bo t</w> 268044
Do main</w> 267973
enc y 267943
st yle 267910
al th 267814
Ver tex</w> 267706
enti ty 267700
Pr int</w> 267673
check s</w> 267646
i ce 267616
ver tex</w> 267534
C LI 267464
Detail s</w> 267462
Pro gram 267431
con struc 267425
S lot</w> 267416
mem bers</w> 267359
sh ort 267349
F ol 267297
seri al 267272
sp a 267223
Direc t 266995
8 _ 266988
ter n 266870
p m</w> 266805
Sh ader</w> 266798
g on</w> 266769
Setting s 266748
Con f</w> 266725
1 , 266724
geo metry</w> 266511
H _ 266386
t re 266277
ste ps</w> 266266
loc ity</w> 266254
w ay 266172
m idd 266149
re lease 265971
goog le 265667
0000 0</w> 265622
exec utable</w> 265532
de si 265506
re ver 265423
on y 265414
Gl yp 265406
In formation</w> 265368
F S 265356
B R 265078
sub process</w> 264818
REG I 264728
MA P</w> 264693
Aur a 264597
si x</w> 264549
A s</w> 264539
Argum ent</w> 264368
dis k</w> 264325
un d_ 264050
cour se_ 263999
requi res</w> 263966
0x FF</w> 263965
g rid 263956
fun c_ 263856
l o</w> 263694
GO SSI 263558
rou te</w> 263501
k o 263464
cho ice</w> 263365
Sup por 263344
A mount</w> 263205
O L 263174
SU C 263123
B B</w> 263059
Dri ver</w> 263016
TAR GET_ 263008
D uration</w> 262967
P LAY 262950
U int32</w> 262937
ti le</w> 262811
Bu ffered 262759
Cur rent</w> 262721
sche ma 262692
ur l_ 262537
SPEC I 262476
ic s</w> 262371
Name d 262364
K er 262289
0 7</w> 262277
look up 262051
E x</w> 261986
execu te 261961
A rea 261867
riter ia</w> 261834
PO SI 261730
AM P 261707
sc an</w> 261684
b b</w> 261598
C y 261574
secon d 261520
com m</w> 261510
Serializ er</w> 261430
some thing</w> 261340
c s_ 261286
B IT 261142
frag ment</w> 261092
g ui</w> 261071
m m</w> 261023
m 1</w> 260951
Co ur 260864
NAM E_ 260844
snapsho t</w> 260790
mar ker</w> 260786
ti ck 260780
u ff 260667
9 7 260608
Collec tion 260592
ab c</w> 260581
ER R</w> 260508
H RESULT</w> 260412
star ted</w> 260383
ge st 260344
w rapp 260322
O ri 260288
ma de</w> 260262
e lem</w> 260155
inst al 260100
RE MO 260023
se p</w> 260003
100 00</w> 259905
fer red</w> 259895
has Next</w> 259874
c d 259576
S cop 259486
S end</w> 259444
rep ort 259153
Cle an 259080
SE T_ 259018
C LO 258993
w ell</w> 258908
a ver 258904
Ti le 258887
CONT RO 258668
cum ul 258615
: 00 258537
NP C_ 258513
Log ger 258457
Str ings</w> 258451
hist ory</w> 258442
lic it</w> 258439
initializ ed</w> 258405
E LE 258381
m icro 258365
cont ro 258343
lev el 258314
per son</w> 258112
r am 258025
ap _ 258010
G ui 258005
match ing</w> 257920
l ang 257906
y 1</w> 257776
sy s 257762
quo te</w> 257742
e ded</w> 257711
depend encies</w> 257679
block _ 257614
c i</w> 257612
a fe 257595
k it 257571
E P 257533
dic t_ 257521
J O 257427
Activ ity 257392
edge s</w> 257335
Loc ation 257231
key word</w> 257097
En co 257085
c x</w> 257062
data set</w> 257059
Notific ation 256951
Qu o 256923
mu tex</w> 256820
exter n</w> 256790
Pass word</w> 256625
TH RO 256564
v ch 256506
run ner</w> 256452
re d_ 256313
re ach 256238
Fix ed 256228
ne ed 256151
ma z 255986
Spli t 255970
m illi 255952
P AS 255952
u x</w> 255949
Sp ec 255938
group _ 255927
to k</w> 255847
Re st 255809
deleg ate</w> 255781
expec t</w> 255767
Jav a</w> 255713
ult i</w> 255706
v a 255638
2 / 255517
FLA GS</w> 255445
_S U 255385
f ur 255378
class_ _</w> 255282
P tr 255240
Cle ar</w> 255178
_ 1</w> 255173
dis abled</w> 255149
SCRI P 255034
p ec 255010
Af ter</w> 254877
met a 254829
u red</w> 254810
b ad</w> 254750
cm d 254707
cn t</w> 254703
ing / 254610
f x</w> 254606
TR ACE</w> 254554
Per sist 254539
wx T</w> 254494
Pro gress</w> 254450
3 d</w> 254427
butt on 254371
Run ner</w> 254370
OR T</w> 254298
U INT 254171
b m 254134
ag ain</w> 254122
SY N 253855
Sh ort</w> 253819
rai ses</w> 253793
Exter nal 253783
enco ded</w> 253712
Foreign Key</w> 253692
IN I 253647
__ class__</w> 253575
lo ts</w> 253536
g h 253490
Scre en</w> 253478
Ms g 253472
l y_ 253441
valid ation</w> 253441
ret val</w> 253377
O FF 253349
Block s</w> 253283
process _ 253276
config ure</w> 253233
ac t_ 253219
UT F</w> 253085
an ts</w> 253026
re c</w> 253015
trans late</w> 253014
en _ 253009
res ult_ 252966
0x A 252950
/src/main/java/ com/ 252553
C AN 252488
In cre 252468
G uid</w> 252405
correspon ding</w> 252337
Cle ar 252127
pro x 252102
y / 252068
ro und</w> 252014
tr act</w> 252003
q t 251990
0x D 251942
Pro file 251830
vol um 251680
p t 251673
sti mat 251595
list s</w> 251557
99 99 251488
Cont act 251477
Syn c 251401
5 0 251400
er / 251385
ran dom_ 251357
j s</w> 251350
U UID</w> 251304
inter faces</w> 251090
inc ip 251008
st atus 250781
str len</w> 250756
De coder</w> 250712
tic le</w> 250669
SO UR 250618
Ma ster 250528
sen der</w> 250420
An ch 250394
bit map</w> 250387
de cor 250307
perio d</w> 250265
co gn 250264
Condi tion</w> 250245
filter _ 250028
e very</w> 249940
UR E_ 249897
sp ell 249895
thread _ 249883
Cli p 249842
view s</w> 249783
activ ity</w> 249751
_SUC CESS</w> 249727
Match er</w> 249667
E valu 249596
NE G 249566
exp res 249485
request ed</w> 249361
d x 249279
0x7 f 249255
Fail ure</w> 249247
so ft</w> 249188
return_ value</w> 249165
igno red</w> 249152
h igh</w> 249119
Ad ap 249100
Th ere</w> 249065
Sy s 249048
me m</w> 249039
en ari 248972
\x 7 248969
0 x</w> 248934
set Enabled</w> 248719
5 9</w> 248705
M AN 248698
af fi 248690
boo t 248666
ator _ 248607
8 4 248567
ms g_ 248561
au tomati 248553
AC TION</w> 248548
at ely</w> 248519
B ran 248409
wal let 248409
Fac tor</w> 248397
12 3</w> 248304
Elast ic 248299
bran ch</w> 248295
con st 248242
off set 248219
so ck</w> 248202
Ta b</w> 247944
as ci 247926
A T_ 247842
M ag 247794
200 0</w> 247772
BU TT 247622
as c 247313
app _ 247285
p ed</w> 247257
sup port 247181
M at</w> 247135
B IN 247037
En coding</w> 246933
V is 246826
m_ n 246621
5 '</w> 246613
vent ory</w> 246507
m ut 246502
I C</w> 246438
NotFound Exception</w> 246361
A maz 246198
Li br 246181
St op</w> 246179
men u 246120
Loo p</w> 245921
STR E 245892
ar _ 245790
s i</w> 245739
co mp</w> 245629
be an</w> 245591
remove _ 245562
ti le 245353
p n 245346
SE CON 245287
C an</w> 245169
Selec tor</w> 245134
Do m 245118
cook ie</w> 245052
Can not</w> 245016
p recision</w> 244938
An y</w> 244885
back ground</w> 244866
0x d 244846
Ch o 244789
ST OR 244693
r a</w> 244667
L ex 244619
0x 01 244519
register _ 244479
RO O 244409
5 4 244406
tho se</w> 244289
mach ine</w> 244287
qu anti 244279
Constra int</w> 244269
diffe ren 244241
S K 244208
iz ed 244165
en code 244031
in struc 243959
ce d 243820
Q Object</w> 243793
exp i 243777
NAME SP 243713
andro id 243699
Expec ted</w> 243659
POR T</w> 243537
e e 243425
call ing</w> 243355
f name</w> 243186
sub scri 243174
In dic 243164
W HERE</w> 243100
scal e 243078
Valid ator</w> 243068
W ID 242950
for ward</w> 242858
Schedu le 242824
QU E 242805
m ouse 242716
Option s 242712
ans wer</w> 242638
CAS E</w> 242495
in struction</w> 242381
k i 242343
temp or 242249
in side</w> 242111
get Current 241891
bo ss_ 241818
co s 241783
Imp lement 241779
repres entation</w> 241756
Line ar 241699
Par se</w> 241651
ar ds</w> 241619
In sert 241517
ag ent</w> 241323
col ors</w> 241313
Set ting</w> 241263
fail_ json</w> 241208
n er_ 241205
execu tion</w> 241202
i ft 241197
format s</w> 241098
pix el</w> 241069
ma ps</w> 241045
lo gic</w> 240984
ched ul 240941
Re ge 240854
Q Variant</w> 240835
val _ 240816
pop ul 240757
Ter min 240755
RETUR N</w> 240751
HAS _ 240695
MI T</w> 240686
The se</w> 240541
Ex change</w> 240346
c lean</w> 240295
TEX T_ 240295
ver i 240267
lin en 240251
set ting 240203
comp il 240185
L Y</w> 240133
A ffer 240030
fr ames</w> 240013
Affer o</w> 239998
war d 239984
Z E_ 239871
direct ly</w> 239817
L P 239762
m ix 239705
Ax is</w> 239666
w s 239621
se ss</w> 239598
cur r 239540
simp le 239484
respon se 239447
G RE 239377
Pri miti 239171
ar ound</w> 239119
Time stamp</w> 239112
mem set</w> 239098
SE QU 239097
status_ code</w> 239053
OR S</w> 239045
instance _ 238707
deprec ated</w> 238609
Not Imp 238540
r m</w> 238412
value _ 238409
c m</w> 238350
de scrip 238327
_ value</w> 238151
nam ed</w> 238098
fabric_mod_ name</w> 238014
do cs</w> 237953
si n</w> 237941
d ays</w> 237859
D S 237850
3 7</w> 237710
c a</w> 237696
it or 237665
proto buf</w> 237561
c d</w> 237524
AR G 237505
arch ive</w> 237448
ru le 237295
is n</w> 237289
AN D_ 237163
0 5</w> 237155
/ j 237139
comm ents</w> 237115
Parti tion 237087
LIN E_ 237040
Di ff</w> 237005
int f</w> 236964
as List</w> 236939
S pri 236932
imp lemented</w> 236840
200 9</w> 236825
GE NE 236788
cap acity</w> 236519
e as 236494
Compar ator</w> 236484
2. 1</w> 236479
p lot</w> 236478
Sequ ence 236468
0. 1</w> 236454
regi str 236432
e ve</w> 236371
Qu ali 236318
CAL L 236295
fr ont</w> 236270
WIN DO 236219
Metri cs</w> 236144
per mitted</w> 236025
9 0</w> 236010
Pro p 235885
S EC 235872
0x3 0</w> 235798
Stack Trace</w> 235779
pa int 235762
v 4</w> 235724
H t 235696
gra di 235506
U Char</w> 235482
MAS K</w> 235435
L ast</w> 235429
_ file</w> 235349
par ser 235334
BS D</w> 235276
Constra ints</w> 235252
ac cor 235212
quer y_ 235211
S ave</w> 235205
Co lo 235189
Sh ape 235160
mapp er</w> 235149
num bers</w> 235114
DEBU G_ 235074
bu cket 235022
L u 235019
kno w</w> 234794
Brea k 234748
ma j 234697
get Key</w> 234591
lo ok</w> 234585
Sc ene 234494
comple x</w> 234426
graphic s</w> 234425
bo dy 234410
qu ali 234345
Mo ve</w> 234319
O W 234247
la z 234182
ar t 234174
Met adata 234108
ser ve</w> 234085
server s</w> 234081
T uple</w> 233885
Clo ud 233800
fun c 233793
EX CEP 233639
g ue 233609
Bin ding</w> 233587
0 3</w> 233519
verif y 233505
ch ain 233474
he x</w> 233397
L L</w> 233388
I MAG 233378
Import Error</w> 233376
C tx</w> 233321
I p 233233
F C 233195
Fo o</w> 232943
par sed</w> 232924
cach ed 232787
handl ers</w> 232772
e s_ 232684
ph ysi 232650
9 6 232614
Un able</w> 232599
org/ apache/ 232567
sp i 232562
0x B 232539
dum my</w> 232532
path _ 232342
R ight 232331
gr an 232292
ti m</w> 232246
ho me</w> 232225
M T</w> 232173
DI SC 232112
L ight 232086
Clas spath</w> 232059
LE S</w> 232040
se ction 232035
D l 231998
si c 231994
con sist 231870
lig h 231831
CONFI G_ 231798
end or 231783
NUM B 231638
rec ord 231562
connec tion 231521
open h 231467
Ad min 231378
per son 231335
selec t 231293
GO O 231208
fer red 231099
th ir 231057
ynam ic</w> 230971
get Property</w> 230954
Po pu 230796
Re port</w> 230778
Http Servlet 230652
resol ve</w> 230554
an _ 230420
th reshold</w> 230378
col li 230289
Path s</w> 230266
t p</w> 230136
t c 230115
inherit Doc</w> 230090
Po licy 230031
M I</w> 229834
201 1</w> 229808
connec tions</w> 229691
star ting</w> 229657
TR _ 229607
uint 64_t</w> 229603
it ch</w> 229521
B LOC 229386
UR I 229224
Lo wer 229084
re tain</w> 229033
Suc cess</w> 228897
R C 228843
En tries</w> 228757
b er_ 228687
\x 6 228686
action _ 228669
fac tor 228599
s z</w> 228589
s /tree/master/ 228579
N a 228550
Cam el 228518
QLatin1 String</w> 228483
in dependent</w> 228482
in ner 228408
" 1"</w> 228306
RE AD 228197
Deleg ate</w> 228177
Colum ns</w> 228128
ma ster 228096
Own er</w> 228020
get Num 227969
Di stance</w> 227934
e qui 227929
P i 227920
LENG TH</w> 227914
8 6</w> 227865
regi stered</w> 227857
Sign ature</w> 227683
di n</w> 227676
Comp res 227653
con si 227604
VI E 227511
z er</w> 227433
IN C 227432
paren t_ 227405
s cop 227351
N avig 227303
or t_ 227169
Le g 227087
Symbo l 227079
Re lease</w> 227050
wx String</w> 227036
b la 227034
por ts</w> 226963
Wor d</w> 226949
T uple 226782
cont rib</w> 226631
ti c</w> 226616
/tree/master/src /main/java/ 226615
4 5</w> 226612
metho d_ 226521
r 1</w> 226453
I ter</w> 226366
get Text</w> 226323
L a 226295
HEA DER</w> 226275
0 4</w> 226223
x ml_ 226204
manage ment</w> 226185
0x 000000 226046
B ad 226023
en ted 225968
Cap acity</w> 225896
File System</w> 225883
201 0</w> 225868
tensor flow</w> 225837
Annot ation 225784
pro gram 225769
Execu tor</w> 225705
e g 225662
B it</w> 225655
9 5 225595
ps i</w> 225568
wr ong</w> 225553
L ength 225542
P ass</w> 225466
any ing</w> 225447
identi ty</w> 225445
accomp anying</w> 225312
0- 9</w> 225263
am l</w> 225238
D V 225229
separ ator</w> 225215
Seg ment</w> 225199
S K_ 225188
po st_ 225118
local host</w> 225057
index Of</w> 224962
o wn</w> 224815
code c</w> 224640
fi es</w> 224631
inter rup 224472
R out 224392
1 L</w> 224299
actu ally</w> 224269
throw n</w> 224209
S C_ 224205
P K 224164
Byte Array 224139
b ul 224083
d it 224038
war ds</w> 223960
sm all</w> 223905
Colli sion 223899
Si g</w> 223878
Ex ample</w> 223813
UN KNO 223798
top ic</w> 223790
B atch 223761
ur s</w> 223713
a c</w> 223682
K no 223659
raw _ 223648
vari able 223574
read ing</w> 223560
T x</w> 223350
clo ud 223347
End point 223340
9 8 223199
mem ber 223148
re ference 223095
is Valid</w> 223052
curren cy</w> 223049
Boo k 223046
remo te 222981
er a 222920
ac y</w> 222912
ste p 222892
invo ke</w> 222877
parti tion</w> 222868
\ d</w> 222791
pix el 222790
Requi red</w> 222722
is on</w> 222721
Sur face</w> 222574
h ex 222550
cur _ 222471
COL UM 222273
gr ad 222244
comm on_ 222208
s .py"></w> 222112
speci fy</w> 222109
Dr ag 222043
er arch 222001
att le 221969
glob al_ 221910
addres ses</w> 221844
cli ent_ 221727
yp o 221662
un t 221650
E E 221626
Par t 221394
d am 221336
_S P 221262
\x00 \x00 221191
ip _ 221110
Fun c 221015
W S 221001
sp ri 220968
pri or</w> 220955
ch oo 220934
comp osi 220773
FUN C 220680
g am 220656
ad ap 220650
C U 220582
l ing</w> 220485
L anguage</w> 220472
use d 220457
Me sh</w> 220417
pu b 220345
amaz on 220332
Annot ation</w> 220305
py test</w> 220224
TE S</w> 220193
it self</w> 220128
linen o</w> 220062
e q 219961
s \</w> 219930
appro pri 219901
v m_ 219889
Direc tory 219871
Enum er 219871
MO DE_ 219827
p atch 219812
r d 219786
g ate 219746
ip h 219686
f n 219656
bi lity 219647
x p</w> 219638
uint 16_t</w> 219511
g ri 219502
dig its</w> 219495
c ri 219464
B IT</w> 219400
re l</w> 219356
DAMAG E</w> 219328
Z one 219244
FAI L</w> 219094
Ang le</w> 219094
h u 219093
Serializ able</w> 218720
Ac tions</w> 218714
Code c</w> 218612
r y</w> 218549
_ n 218527
HOL DERS</w> 218463
e b 218396
p layer 218321
I G 218305
temp late 218253
alloc ate</w> 218204
date _ 218058
serializ er</w> 217899
DO WN</w> 217806
argum ent_ 217634
M icro 217607
D D 217602
fin ished</w> 217554
Conver t</w> 217548
VERIF Y</w> 217511
selec tor</w> 217501
Charac ter</w> 217385
pr ag 217373
d 1</w> 217326
Pl ace 217293
m_ i 217257
Sm all 217166
down load</w> 217084
s For 217040
ity /tree/master/ 217028
Co uld</w> 216947
PRE FIX</w> 216920
secre t</w> 216834
ful l_ 216749
S C</w> 216729
inclu des</w> 216680
34567 89 216665
exter nal</w> 216651
Sh ard 216574
li es</w> 216553
constra int</w> 216541
origin al 216476
et a</w> 216448
Transp ort 216444
par sing</w> 216392
float 32</w> 216361
destro y</w> 216346
Operation Exception</w> 216269
rec ip 216229
repres ent 216213
V T</w> 216199
ef fici 216164
W K 216155
Re lease 216118
cu t</w> 216105
in v 216000
g c</w> 215948
So ft 215882
Web K 215793
D one</w> 215722
st amp 215718
pair s</w> 215575
E sc 215553
task _ 215533
au dio 215523
Lin es</w> 215490
e ff 215475
L D 215360
o / 215316
auth oriz 215297
Sc ene</w> 215296
st ro 215190
s ent 215184
s d</w> 215180
ma y 215136
A ST 215057
in v</w> 215008
HAND LE</w> 214998
core / 214981
FIEL D</w> 214887
STRI CT</w> 214885
Wor d 214842
ran k</w> 214803
th en 214784
SU P 214575
Check ed</w> 214488
I P_ 214466
qu ency</w> 214434
Pack et 214422
leg al</w> 214407
me try 214373
E FF 214270
min imum</w> 214169
w so 214147
0x6 5</w> 214114
serv let</w> 214041
200 8</w> 214021
s co 214009
ta il</w> 213982
t k</w> 213973
WAR NING</w> 213878
Clic k</w> 213878
behavi or</w> 213782
\x 8 213758
mar t 213663
message _ 213644
G i 213611
page s</w> 213492
t un 213406
f t_ 213346
bri ef</w> 213317
BU S 213227
T ool</w> 213223
0 .</w> 213211
A F 213138
enti ties</w> 213135
brow ser</w> 213113
S afe 213111
1 .</w> 213028
B order 213005
COMP ARE</w> 212948
zer os</w> 212840
esc ap 212795
WA Y</w> 212777
app s</w> 212770
contribu tors</w> 212743
Net work</w> 212722
li mits</w> 212665
Pro to</w> 212533
sp i</w> 212507
C trl</w> 212498
Ch at 212435
ic tim</w> 212425
Mo tion 212333
BOOST_CHECK_ EQUAL</w> 212324
Ex it</w> 212309
DE LETE</w> 212254
RO M_ 212230
sur face</w> 212229
d ue</w> 212220
U SED</w> 212207
Q Widget</w> 212076
De f 212040
S av 211929
atter ns</w> 211924
Consum er</w> 211910
V ER_ 211884
r and 211862
Jo in 211815
compu te 211778
0 L</w> 211760
DOU BLE</w> 211758
de code 211748
ra ft</w> 211688
ri b 211682
pix els</w> 211678
emp ty 211542
s b 211538
SS L</w> 211524
Recei ved</w> 211426
p ho 211404
En able</w> 211342
sli ce</w> 211308
p adding</w> 211286
rec or 211278
CO M 211269
lay ers</w> 211248
Loo p 211225
S he 211168
al loc</w> 211056
app ly 210969
& =</w> 210948
boo t</w> 210879
m_ h 210820
Co mb 210817
AM E</w> 210806
m 2</w> 210732
por t_ 210686
ser ies</w> 210665
m on</w> 210632
De sc 210631
REQU E 210625
RG B</w> 210543
impor t_ 210481
sh ap 210462
nor m</w> 210414
sav e_ 210358
ation al</w> 210321
host s</w> 210254
samp le_ 210242
hand led</w> 210197
Stru ct</w> 210168
te ar 210106
exp an 210047
lo ss</w> 210046
G T 210039
st rip 210033
/test / 210020
Bind ing 209974
GOSSI P_ 209965
roll er 209870
J son</w> 209864
de vices</w> 209811
ra m</w> 209776
P ic 209659
Dep rec 209578
h ello</w> 209560
Sp ace 209542
1 01 209538
r and</w> 209528
ce d</w> 209487
SPECI AL</w> 209470
0 / 209390
ge ther</w> 209329
FLO AT</w> 209281
table _ 209219
l arge</w> 209212
cal ler</w> 209205
er ase</w> 209195
Be fore 209188
uint 256</w> 209027
set Name</w> 209007
- commun 208997
cach ed</w> 208983
ENTI AL</w> 208937
TUR E_ 208866
tr u 208814
An sible</w> 208667
MO D 208626
co ver</w> 208518
g ers</w> 208501
im medi 208474
f etch</w> 208463
T al 208457
noti fication</w> 208417
State Exception</w> 208396
ERR UP 208304
cover y 208287
i b 208074
neigh b 208056
n ing 208050
INT ERRUP 207986
sen si 207931
ME D</w> 207807
in es</w> 207803
H it 207707
trig ger</w> 207628
P I</w> 207505
y 2</w> 207439
w idth 207410
ID s</w> 207401
prag ma</w> 207325
25 6 207292
ed u</w> 207263
C la 207165
gener ic</w> 207064
-commun ity/tree/master/ 207051
DE VI 206984
Zer o</w> 206947
pa inter</w> 206938
class method</w> 206921
gra de</w> 206867
con sole</w> 206801
Man y 206786
b 1</w> 206777
can cel</w> 206700
W X 206629
Equ als</w> 206610
Fil l 206569
Ag ent</w> 206568
S OC 206492
package s</w> 206481
de c 206460
ST ATI 206444
B B 206351
constra ints</w> 206182
op code</w> 206181
Key Error</w> 206157
p m 206122
get Re 206031
po t 206001
7 8 205992
Plat form</w> 205949
cl az 205862
re set 205861
9 7</w> 205853
M ON 205814
7 0</w> 205789
co s</w> 205743
intellij -community/tree/master/ 205701
BO X</w> 205692
PU T_ 205683
dep loy 205673
cre ating</w> 205647
M IN_ 205643
5 "</w> 205599
Char s</w> 205570
4 4</w> 205465
2 d 205395
ARRA Y</w> 205391
g it</w> 205308
Un its</w> 205283
pe er</w> 205249
b 2</w> 205138
Message Box</w> 205110
provi de</w> 205100
Q List</w> 205042
L anguage 205034
Ph ase</w> 204811
pro xy 204752
_ c 204736
H ello</w> 204690
se ek</w> 204678
0x8 0</w> 204658
" 12 204625
ac ed</w> 204509
deci mal</w> 204372
Sho uld</w> 204360
Te am</w> 204272
abi lities</w> 204254
INSTAN CE</w> 204226
buff er_ 204143
Interrup tedException</w> 204034
ip s</w> 203974
Can vas</w> 203891
as sign</w> 203870
BU IL 203807
Per form 203717
HO W 203714
ME DI 203712
he re 203552
de red 203456
ad apter</w> 203254
P D 203222
B ILITY</w> 203175
MM MM 203126
par alle 203114
requi re</w> 203062
Group s</w> 203062
G G 203000
ma c</w> 202974
Auth oriz 202928
instal led</w> 202928
ife st</w> 202906
get Default 202893
ke d_ 202823
categ or 202816
collec tions</w> 202731
Align ment</w> 202684
Pri ority</w> 202683
ST IT 202528
ign ite</w> 202509
LI ST</w> 202483
Sec tion 202432
I s</w> 202248
s si 202247
SE TT 202221
remain ing</w> 202211
to gether</w> 202210
assert Is 202181
PROC E 202164
Co l</w> 202050
hoo k</w> 202024
RE AC 201969
\ 2 201883
ob tain 201823
u tion</w> 201780
Ker ne 201698
s lot 201681
Auth or</w> 201669
sp ell</w> 201497
int ent</w> 201454
absolu te_ 201453
AB LE</w> 201444
Nor mal</w> 201428
Dro p 201420
print StackTrace</w> 201338
Metho ds</w> 201290
et ri 201276
ag ain 201148
C ir 201145
me d 201112
Back ground 201083
age s</w> 201038
1. 1</w> 201022
3 9</w> 201019
C ateg 200997
Exist s</w> 200997
resol ve 200909
Bu ff 200879
rid ge</w> 200811
s an 200786
\ 0'</w> 200750
T ouch 200683
h ar 200670
po wer</w> 200648
G RA 200644
pro mo 200598
W N 200583
eng ine 200579
buff ers</w> 200507
Class Name</w> 200479
C ro 200476
En coder</w> 200417
clean up</w> 200371
Conver t 200369
Fac e 200331
9 . 200271
10 1</w> 200242
Fo cus 200199
vari ant</w> 200042
ge d 200034
f all 200033
atu re_ 200014
wa it_ 199975
inst all 199900
B undle 199795
On ly 199778
Bit map 199702
view _ 199657
Andro id 199585
Wh ite 199555
C ar 199515
COPY ING</w> 199456
Anim ation 199406
row _ 199405
oo l_ 199386
se q 199318
xx xx 199314
O k</w> 199283
ke e 199198
wh o</w> 199152
G rid</w> 199098
Op code</w> 199060
s f</w> 199059
AU SED</w> 199046
auth ors</w> 199010
al th</w> 198969
bo ss</w> 198924
ma g 198921
jo in 198883
b a</w> 198851
ali ases</w> 198829
O c 198807
So und 198805
Ref Ptr</w> 198805
P attern 198705
ac ces 198692
Q COMPARE</w> 198605
b g 198584
sy m</w> 198580
Z oo 198561
tu de</w> 198457
e v</w> 198455
extr act</w> 198415
compati ble</w> 198397
dimen sion</w> 198384
ag ing</w> 198339
SI L 198307
channe l 198296
s wap</w> 198281
C enter</w> 198258
_S ER 198248
Name space</w> 198217
Col l 198210
t l 198008
LO SS</w> 197988
S pr 197980
ex ample 197956
<DOCUMENT_ID=" j 197952
Clu ster</w> 197951
MUL TI 197943
le ss 197931
bo un 197910
f 4j</w> 197883
be st 197793
pri miti 197778
Y Y 197742
claz z</w> 197628
Verif y</w> 197616
lay out 197575
5 _ 197511
Type Id</w> 197498
EV EN</w> 197454
H ex 197429
r h 197403
Mar sh 197342
Publi c 197314
mon itor</w> 197209
String IO</w> 197163
valid ate 196964
fl av 196939
comm it 196874
IN DIRECT</w> 196853
url lib</w> 196853
ac qui 196822
FIT S</w> 196822
tri m</w> 196802
FORMA T</w> 196797
Cont ents</w> 196760
ass and 196693
ho me 196677
En cryp 196636
Ar tifac 196602
List ener 196570
B an 196524
r atio</w> 196495
7 5</w> 196375
match er</w> 196342
EV ER</w> 196318
AS CI 196278
Con st 196241
fa ils</w> 196188
f ra 196181
y es</w> 196159
SEQU ENTIAL</w> 196126
re q 196115
Pa int 196114
dro p 195988
i a 195984
ac ing</w> 195937
sh utdown</w> 195885
w k 195883
Tim er 195865
b order</w> 195746
D raw</w> 195661
S l 195648
ur ls</w> 195613
LO AD</w> 195588
b ench 195560
P AC 195439
posi tion 195427
ro und 195423
MA L</w> 195422
dri ver 195396
Defini tion 195331
x t</w> 195299
lin k_ 195296
An y 195287
S rc</w> 195135
U ErrorCode</w> 195134
appropri ate</w> 195118
o d 195085
Dec l 195025
ul ation</w> 195014
upd ates</w> 194993
UInt 32</w> 194875
error Code</w> 194867
0000 00</w> 194766
TIM E_ 194686
AT TRIBU 194655
3 8</w> 194649
e mbed 194622
_ set_ 194618
te am</w> 194615
re produce</w> 194566
2 D 194522
PO SSI 194515
St ro 194484
d 2</w> 194476
FORMA T_ 194329
ID EN 194313
a i</w> 194309
lem ented 194296
f ri 194230
metri c</w> 194217
In struc 194169
CON SEQUENTIAL</w> 194161
A lig 194138
sub class</w> 194100
Comp il 194086
ME M 194082
m ulti</w> 194079
bt Scalar</w> 194056
ree t</w> 194046
p x</w> 194027
Dimen sion</w> 193991
tra in</w> 193989
is s 193958
Attribute Error</w> 193932
at ing 193912
search _ 193904
r 2</w> 193859
valid ate_ 193859
0x ff 193821
pan el</w> 193809
se cs</w> 193800
Version UID</w> 193762
st ed 193405
Op tim 193223
Fl ag 193218
f amily</w> 193190
en ces</w> 193186
_ dir</w> 193171
D X 193054
Clas ses</w> 193044
again st</w> 193011
Fun ctions</w> 192987
Anim ation</w> 192981
p ent 192980
t m</w> 192928
H oo 192873
r b</w> 192869
Format ter</w> 192856
correct ly</w> 192751
AR _ 192721
Re tri 192692
orizont al 192675
cer t</w> 192634
serial VersionUID</w> 192625
ad s</w> 192601
plan e</w> 192596
OU T_ 192590
array s</w> 192583
produc ts</w> 192529
NE X 192522
STIT UTE</w> 192515
PRO FITS</w> 192496
o m</w> 192409
Libr ary 192409
Seg ment 192408
P ick 192398
C B 192370
f b 192352
publi sh</w> 192298
fac ts</w> 192294
T w 192223
docum ent 192145
fa ke</w> 191992
RE D</w> 191892
NEG LIG 191872
NEGLIG ENCE</w> 191845
Re pository 191832
er ci 191828
enumer ate</w> 191815
allow s</w> 191795
\x e 191782
NO TE</w> 191761
Menu Item</w> 191706
Cr yp 191705
SU CH</w> 191624
projec t_ 191600
FE AT 191563
if _ 191540
en ough</w> 191495
s l</w> 191347
E l 191298
al ign</w> 191237
Er r</w> 191237
0 e 191204
Indi ces</w> 191140
v p 191100
E ach</w> 191092
authentic ation</w> 191090
PAR AM</w> 191031
VERSI ON_ 191027
o de</w> 191021
0 b 191004
Cour se 190991
Re distribution</w> 190944
proto col 190909
t z</w> 190897
starts With</w> 190851
noti fy</w> 190844
ENAB LE</w> 190823
_ state</w> 190753
Ad di 190626
b le_ 190547
ac ts</w> 190477
Big Integer</w> 190464
Illegal StateException</w> 190415
O ld 190334
ma pre 190166
head er_ 190063
Rep lic 190029
\x b 190022
Pro jec 189948
can di 189941
be ans</w> 189893
SUB STITUTE</w> 189885
i ve 189831
Fe atures</w> 189824
te ct</w> 189799
be st</w> 189799
add ress 189747
Sor ted 189736
H int</w> 189713
Q Name</w> 189654
provi des</w> 189651
AD VI 189639
Ab solu 189601
N S 189576
S ample</w> 189525
Tr y</w> 189437
sl f4j</w> 189408
Alph a</w> 189371
fin ish</w> 189296
Comm it 189201
Up d 189183
part ner</w> 189138
lo op 189125
Cont act</w> 189090
o s_ 189079
de co 189009
SERVI CES</w> 188993
Logger Factory</w> 188978
M U 188890
wor ld 188868
STAT E</w> 188867
Class Loader</w> 188854
m argin</w> 188840
solu tion</w> 188807
BUS INE 188716
co st</w> 188713
show _ 188539
Re s</w> 188507
po inter 188490
swit ch 188447
Syn tax 188396
cre dentials</w> 188350
set up_ 188346
Deci mal 188325
Wal let</w> 188320
n db 188313
auth _ 188298
st y 188283
symbo ls</w> 188237
Visi ble 188205
gener ate_ 188190
index _ 188189
BEG IN</w> 188134
Q Text 188120
ref resh 188090
C L</w> 188058
d ay 188049
d ar 187995
t up 187940
Re du 187939
automati cally</w> 187892
pro vid 187859
200 7</w> 187842
coordin ates</w> 187635
de coder</w> 187617
Authentic ation 187542
Inter pre 187516
j _ 187510
G radi 187498
di gest</w> 187445
Proper ties 187414
P ending 187396
si s 187304
p ic 187248
Mu tex</w> 187170
Hist ory 187126
contain er 187091
Run ning</w> 187040
schedu ler</w> 187026
GOO DS</w> 187020
per form</w> 186997
/src/ com/ 186982
INC IDEN 186918
cour se 186905
jo ur 186890
affi li 186841
ex it_ 186803
INF O_ 186801
id ent</w> 186755
INCIDEN TAL</w> 186732
re p</w> 186674
Frag ment 186672
C md</w> 186646
En code 186628
attemp t</w> 186611
T S_ 186597
\x a 186594
Ver i 186591
LAI MED</w> 186580
ex c_ 186561
sk ipp 186548
tr y_ 186497
Other wise</w> 186495
URE MENT</w> 186493
POSSI BILITY</w> 186464
f x 186443
\ sa</w> 186434
e 1</w> 186416
ADVI SED</w> 186416
App end</w> 186339
tit le 186252
Check er</w> 186248
file system</w> 186178
ony m 186178
Text Field</w> 186165
R UN 186156
f e</w> 186128
ab sent</w> 186116
i 1</w> 186113
Sho w</w> 186052
Re pe 186016
g ood</w> 185952
lem s</w> 185952
DISC LAIMED</w> 185941
RE F</w> 185899
k / 185879
l int</w> 185756
Spe ed</w> 185728
th umb 185683
l anguage 185661
EMP L 185589
4 00</w> 185587
THE ORY</w> 185562
Cur sor 185520
BUSINE SS</w> 185508
fa ke_ 185496
f 1</w> 185462
XX XX 185397
HOW EVER</w> 185359
d n 185286
File Path</w> 185242
transl ation</w> 185238
0x7 4</w> 185100
C AUSED</w> 185071
P S 184951
Compi ler</w> 184897
ch r</w> 184822
get s</w> 184801
i on</w> 184792
T ags</w> 184777
spr intf</w> 184775
FI R 184751
c lock</w> 184722
ai r 184705
Fo cus</w> 184699
4 1</w> 184645
call able</w> 184630
cel er 184568
0.5 f</w> 184558
ar m 184550
' 1'</w> 184525
INTERRUP TION</w> 184493
Text View</w> 184485
F etch 184476
0 8</w> 184364
DB _ 184315
module s/ 184301
EX EMPL 184295
widget s</w> 184289
ref resh</w> 184276
consum er</w> 184258
PROC UREMENT</w> 184217
SS L 184173
evalu ate</w> 184127
config ur 184124
proces sed</w> 184089
Print f</w> 184054
Data Type</w> 184042
EXEMPL ARY</w> 184024
a ur 184011
liter al</w> 184010
C at 184000
dump s</w> 183997
cm d_ 183911
order _ 183845
htt p_ 183826
Constra int 183824
inclu de 183803
ec t</w> 183789
V R 183788
MO DE</w> 183770
visi tor</w> 183696
G E_ 183694
0x0 2</w> 183676
con d</w> 183619
f r</w> 183617
k i</w> 183594
clic k</w> 183568
Z ip 183561
0x0 3</w> 183555
Ch oo 183554
execu tor</w> 183541
In d 183514
test / 183466
R PC 183453
low er 183390
C GUI 183329
in f</w> 183317
stor age 183305
sp o 183195
G S 183162
Draw able</w> 183134
sig ned 183105
Po wer 183104
s By 183055
e di 183034
Sup er 183027
Test ing</w> 182845
C md 182808
templ ate_ 182757
Da o</w> 182727
partic ular</w> 182720
Z _ 182558
fe ed</w> 182495
11 11 182464
d ouble 182431
P df 182419
n or</w> 182404
set Property</w> 182340
i mat 182306
D on</w> 182282
En ter 182259
Initi al 182100
NO N</w> 182081
o w 182067
par e</w> 182054
Zer o 182051
Num er 182048
U P_ 182028
T C_ 181981
au dio</w> 181913
SECON DS</w> 181903
uint 64</w> 181898
0x6 1</w> 181808
ex it 181801
e stimat 181741
S pa 181723
en s</w> 181680
Dri ver 181656
vol ati 181621
Ma ster</w> 181483
spar se</w> 181468
_ 2</w> 181412
yp er 181369
r s 181359
Com bin 181344
number Of 181323
descri b 181308
ci r 181303
scrip ts</w> 181223
po lic 181213
5 2</w> 181207
Per son</w> 181200
Sign al</w> 181120
pri ce</w> 181062
persist ence</w> 181048
MI N</w> 180918
repor ter</w> 180917
chil d_ 180872
pa d</w> 180818
NUM _ 180785
or ph 180742
di d</w> 180689
n io</w> 180685
ah o</w> 180655
Mar ker</w> 180642
J u 180617
DAT E_ 180599
Vol ume</w> 180574
windo ws</w> 180548
err ln</w> 180440
Materi al</w> 180390
I net 180385
st age</w> 180363
List s</w> 180354
posi tive</w> 180335
OBJ ECT_ 180278
scal ar</w> 180253
He x</w> 180247
Asyn c</w> 180234
T A</w> 180158
tex ture 180047
exp ort</w> 180043
asci i</w> 180028
CON STAN 179906
CLAS S</w> 179889
class Name</w> 179853
d p</w> 179655
vi le 179650
Re set 179619
CH E 179583
LE VE 179508
L _S 179505
al ler</w> 179499
ac l 179454
any thing</w> 179321
siz es</w> 179318
go ing</w> 179307
Ob serv 179290
Dest ination</w> 179280
bas ename</w> 179227
LO W</w> 179186
Temp or 179172
An sible 178908
Py Object</w> 178870
MESS AGE</w> 178860
is Null</w> 178803
s entry</w> 178802
pro mp 178797
ST D 178734
_ count</w> 178719
fe ature 178709
ori entation</w> 178651
in j 178610
DE P 178557
ti d</w> 178545
RE F 178513
ti p</w> 178402
re vision</w> 178388
C A</w> 178356
amazon aws</w> 178321
9 5</w> 178317
re ally</w> 178166
ac ked 178125
fo und 178025
JSON Object</w> 178001
ch a 177987
int en 177889
OP ER 177886
fac e_ 177861
stu b</w> 177843
index es</w> 177840
Time Millis</w> 177815
tr unc 177778
Bu s 177769
applic ation 177691
Un known 177657
b re 177640
Uni ver 177615
actu al 177523
O ther</w> 177492
C ACH 177484
st a 177431
Swit ch 177396
D en 177340
gi ve</w> 177323
NotImp lemented 177290
QString List</w> 177282
pi ec 177241
G D 177170
respon se_ 177093
um p</w> 177090
AN _ 177027
Comp o 176985
Avail able</w> 176983
di vision</w> 176966
lu c 176956
Ur l 176900
co ords</w> 176808
V AL</w> 176804
ev t</w> 176795
_ get 176780
Oper and 176688
M R 176661
M ask 176596
Ad min</w> 176596
ac l</w> 176566
in k</w> 176478
SY STE 176413
rel ation 176409
o prot</w> 176408
Cont in 176401
Ad v 176398
n av 176393
Op s</w> 176385
Pri vate 176350
pre fix 176334
DEFIN E_ 176255
M D</w> 176193
in ation 176169
Vo id</w> 176124
E S 176113
determin e</w> 176052
ag rap 176045
Re al</w> 176006
sh ader</w> 175948
for ce_ 175934
argument_ spec</w> 175811
st o</w> 175804
q t</w> 175759
or dered</w> 175739
dr ag 175726
Inte gr 175667
trace back</w> 175638
NotImplemented Error</w> 175637
v 3</w> 175601
P B 175445
t l</w> 175440
cam era</w> 175199
str ategy</w> 175156
conver t_ 175153
G ame</w> 175152
Ex clu 175131
201 6</w> 175104
C S</w> 175100
Ro le 175067
get P 175044
then Return</w> 175043
iss ue</w> 174994
de t 174974
ar d_ 174907
oper and</w> 174905
s_ _</w> 174720
UNKNO WN</w> 174677
format ter</w> 174651
Comm ent 174598
USER _ 174585
re direct</w> 174556
Time Unit</w> 174510
Wa it</w> 174507
she et</w> 174505
handl ing</w> 174437
N S_ 174390
Comple te</w> 174377
sav ed 174374
Dep loy 174356
remo te_ 174331
Predic ate</w> 174295
C C</w> 174277
glob als</w> 174262
p ts</w> 174247
B ul 174236
Back ground</w> 174225
Bu cket 174184
to gg 174181
mi ter</w> 174136
Di ff 174134
as semb 174094
Combo Box</w> 174080
Uni code</w> 174045
AL L_ 174021
th ree</w> 174017
si de 173952
Dis k 173948
v in</w> 173906
order ing</w> 173892
Ru les</w> 173884
ar tifac 173858
get S 173851
T ur 173845
instruc tions</w> 173688
cl i</w> 173602
i 18 173546
s m</w> 173508
pl us</w> 173502
Web Core</w> 173477
Big Decimal</w> 173432
Integer Field</w> 173413
con text_ 173392
affili ates</w> 173380
Log ical 173377
Rect angle</w> 173372
ver se 173357
D eri 173352
Stru ct 173289
N ON 173250
la unch 173216
var _ 173212
Ex pr 173209
as si 173127
1 0. 173111
bro ad 173111
AM E_ 173035
De code 173034
f c</w> 173005
F n</w> 172963
w ever</w> 172950
Get GUID</w> 172828
F AC 172736
De velo 172726
wor d_ 172704
v l 172674
Lo a 172584
Hel p</w> 172584
i prot</w> 172583
Access or</w> 172579
Ch ain 172549
af ter 172549
Hel p 172546
get User 172522
g ing 172488
c / 172475
n an</w> 172447
bt Vector3</w> 172445
Sh adow 172418
info _ 172390
Tot al</w> 172358
bu s</w> 172354
Or g 172354
g mail</w> 172221
e ds</w> 172205
ht ml 172141
pip eline</w> 172127
Unsupported OperationException</w> 172017
7 4 171986
dynamic _ 171974
Alloc ator</w> 171961
U INT</w> 171951
Ax is 171938
anim ation</w> 171908
ang les</w> 171857
Fa ke 171843
B RE 171838
AU TO_ 171769
B ra 171709
resour ce_ 171679
noti fy 171666
end ar 171645
Vol ume 171645
Look up</w> 171567
ad min 171500
s List</w> 171443
disp atch 171370
instan ti 171249
si d</w> 171248
g m 171234
j ack 171177
sy m 171110
ID E</w> 171079
Read er 171063
mo st_ 171027
org an 171019
Notific ation</w> 170999
require ments</w> 170954
can cel 170852
F C</w> 170806
_ test_ 170780
R PC</w> 170771
recei ve</w> 170771
re ferences</w> 170766
parti tion 170704
exten sion 170698
ser ve 170648
conver ter</w> 170526
200 6</w> 170499
j p 170405
0x0 4</w> 170387
Cor por 170354
who le</w> 170342
Un der 170289
P op 170241
Bo und</w> 170136
dere r 170109
Uni que 170078
RE AD</w> 170046
_ check_ 169992
Bro ad 169990
PAR AME 169968
Thread s</w> 169968
enti al</w> 169959
cli p</w> 169937
asyn c</w> 169931
ab ly</w> 169918
val ent</w> 169918
Log in 169907
r y 169854
Mapp ing 169832
ends with</w> 169695
Radi us</w> 169690
si c</w> 169635
\x c 169591
m_ ui 169549
X Y 169529
O ff</w> 169467
P ur 169464
absolu te</w> 169431
uni code_ 169425
cre ation</w> 169409
C Y 169371
O M 169344
UM M 169285
Load er 169227
me sh 169197
t c</w> 169185
Visi bility</w> 169162
Glob al</w> 169104
compu te_ 169093
Mix in</w> 169055
I SO 169036
fe ed 168907
Attach ment</w> 168907
DO M</w> 168889
LOG GER</w> 168874
connec t 168817
licit ly</w> 168755
B M 168710
Uni form 168710
XX X</w> 168590
AC K</w> 168425
cer tificate</w> 168408
G LO 168403
analy sis</w> 168386
6 3</w> 168374
Mer ge 168228
stri ct</w> 168222
Re pres 168207
rou ter</w> 168203
De li 168187
exclu de</w> 168151
represent ing</w> 168141
Pre pa 168118
co lo 168105
iter items</w> 168099
up load</w> 167958
check ing</w> 167919
C EN 167917
get Parent</w> 167810
E S_ 167716
B attle 167716
Ne g 167677
Me asure 167662
Verif y 167565
W R 167562
F ast 167542
St reet</w> 167536
ass um 167431
bu ff</w> 167386
CHEC K 167371
Rec ur 167368
INDE X</w> 167331
e very 167306
U tf 167286
E lem</w> 167241
h idden</w> 167158
_p ath 167155
w led 167142
be _ 167116
b p</w> 167065
uti l 167062
rot ation</w> 167029
as signed</w> 167012
Corpor ation</w> 166979
Can cel 166975
equal s 166966
gran ted</w> 166943
Cal led</w> 166896
dro p</w> 166884
sav ed</w> 166858
Sk ip</w> 166781
to l</w> 166695
x 0</w> 166688
b l</w> 166653
no tes</w> 166596
fi g 166554
R P 166542
h ard 166515
F M 166513
t b</w> 166506
n 1</w> 166502
add_ argument</w> 166475
Sc ore</w> 166467
As sert 166462
e mail 166454
Track er</w> 166427
uint 16</w> 166392
CUR R 166391
01 2 166374
et _ 166339
St ub 166326
MA P_ 166326
p ending</w> 166288
sc r 166275
ar ti 166264
Andro id</w> 166253
Pro c 166242
6 5</w> 166236
CO P 166234
or ts</w> 166233
Psi Element</w> 166229
De st</w> 166214
e po 166152
3 00</w> 166137
ex per 166058
fic ations</w> 166040
assert In</w> 166030
_ Get 166024
Scal ar 165978
/t ool 165964
String Buffer</w> 165944
Suc cess 165940
ex amples</w> 165936
5 5</w> 165893
con version</w> 165826
METHO D</w> 165812
i ed</w> 165793
a de 165779
Ap i</w> 165737
hi de</w> 165732
Permis sion 165691
O S_ 165680
f li 165534
b lob 165516
Attemp t 165513
coordin ate</w> 165502
5 6</w> 165469
re r</w> 165407
do t 165391
ti n</w> 165375
Del ta</w> 165367
under ly 165355
restri ction</w> 165351
r pc</w> 165328
Fe ed 165325
vec tor 165288
bl ue</w> 165244
v 6</w> 165129
config ured</w> 165128
w tx</w> 165109
re pr 165021
sh ard 165016
p r</w> 164993
Imp l 164929
Coin s 164852
h it</w> 164784
recei ver</w> 164748
calcul ate</w> 164743
/src/main/java/org/ apache/ 164726
cover y</w> 164707
p ing</w> 164704
S t</w> 164650
auth or 164644
p index 164615
hadoop - 164579
D ump 164545
\x 9 164540
pri v 164454
WRI TE</w> 164446
\1 \ 164442
CLAS S_ 164336
sy mp 164321
numer ic</w> 164304
Dec or 164277
le ad 164275
Nor mal 164269
AD D_ 164252
p ad 164238
templ ates</w> 164215
F oo 164105
V o</w> 164080
D T 164048
F X 164044
P ut 164023
s With 164021
work er</w> 164017
INI TI 163908
module_ utils</w> 163870
16 _ 163853
u x 163839
a a</w> 163819
Boo l 163713
OUN D</w> 163679
viron ment 163675
exp and 163672
cal endar</w> 163627
V K_ 163593
OBJ ECT</w> 163590
I L</w> 163586
Pl ace</w> 163575
Mock ito</w> 163558
Immutable List</w> 163555
Ch ro 163466
Sum mon 163462
file _name</w> 163450
Cach ed 163436
SUC CESS</w> 163408
MI LLI 163388
CONNE C 163385
dat abase 163322
Sche me</w> 163289
TRAN S 163268
Te mp</w> 163261
ent ation 163227
F S</w> 163190
line ar</w> 163176
T X 163165
Destro y 163139
200 5</w> 163137
di ms</w> 163114
gre ater</w> 163086
w il 163077
Sup port 163009
App end 163007
job s</w> 162973
0 6</w> 162966
ne sted</w> 162906
Pai r 162894
B order</w> 162885
j ac 162876
d r</w> 162871
so ft 162820
_m m_ 162819
Rep ly</w> 162810
Con f 162806
\x f 162786
WebK it 162683
wso 2</w> 162652
se ctions</w> 162651
Schedule Event</w> 162641
seri al</w> 162598
code cs</w> 162550
v out</w> 162549
Spli t</w> 162506
volum e_ 162495
happ en</w> 162478
se l</w> 162465
St mt</w> 162453
p in 162349
Ali as</w> 162327
Pix map</w> 162300
do ck 162287
add All</w> 162172
un checked</w> 162151
CO DE 162139
plugin s/ 162136
sh are</w> 162122
Model Index</w> 162073
C Script</w> 162056
M ath 162051
byte s 162040
1_ 0</w> 162039
Publi sh 162023
el ap 161965
Ex p</w> 161947
Click Listener</w> 161943
defin i 161878
arg 1</w> 161873
c ss</w> 161797
X Content 161698
m id</w> 161683
i ch 161680
align ment</w> 161649
sp h 161635
4 3</w> 161632
UTF 8</w> 161622
ac count 161603
S_ OK</w> 161602
O K 161525
SI ON</w> 161466
un used</w> 161460
Cu sto 161445
s mal 161439
" 0"</w> 161417
TR A 161410
U_ FAILURE</w> 161389
stru ct 161381
c are 161329
trans actions</w> 161294
c assand 161287
Del ay</w> 161270
WIN 32</w> 161231
Null Pointer 161190
Ve hic 161130
W rapp 161103
Dep th 161095
v c 161070
UN USED</w> 161039
geo m</w> 160930
trans action 160917
syn tax</w> 160901
NE R</w> 160880
di an</w> 160830
ta kes</w> 160829
Cont ribu 160820
f 2</w> 160791
STAT US</w> 160780
fa st 160755
url lib 160704
LE N</w> 160669
emp ty_ 160663
Trans fer 160655
assert _</w> 160631
tt le</w> 160616
chun k 160597
pla in</w> 160544
ado w</w> 160449
c ation 160373
i 2</w> 160368
j ar</w> 160327
SH _ 160317
R S 160296
im p</w> 160209
cer r</w> 160191
_ create_ 160188
Re ason</w> 160182
Sur face 160165
pos si 160160
g on 160119
ip her 160088
m b</w> 160086
brow se</w> 160058
w char 159992
shared_ ptr</w> 159990
assert_ array_ 159988
Con st</w> 159981
Us age 159962
selec tion 159955
po pu 159950
Ra ster 159846
w t</w> 159831
Ign ite 159820
s n</w> 159751
Be st 159712
Pre ferences</w> 159700
up per 159674
0x FF 159673
Tree Node</w> 159643
te am 159640
1 : 159562
max_ length</w> 159532
V ictim</w> 159527
se ver 159513
iz e 159474
B LOCK</w> 159471
f on 159456
p d</w> 159442
static method</w> 159434
er t 159408
Modi fier</w> 159275
ENTR Y</w> 159252
a rea 159248
asc rip 159205
Struc ture</w> 159204
comp any</w> 159119
TA TION</w> 159102
l hs</w> 159099
imp lement</w> 159099
TEX TURE_ 159080
Pro c</w> 159071
REAC H</w> 159058
bound ary</w> 159021
un k</w> 159018
h y 158999
Ex it 158969
De tec 158969
pl t</w> 158918
in ventory</w> 158881
ati s 158859
dig it</w> 158854
Att ack 158776
J et 158769
2 - 158740
iti es</w> 158700
sto re_ 158683
ME MB 158682
Al gorithm</w> 158672
EX T 158663
Time out 158599
Channe ls</w> 158565
3 - 158525
contain ed</w> 158505
Cont roller 158501
I ss 158427
tr ail 158357
success ful</w> 158351
Modi fied</w> 158305
supp lied</w> 158294
un less</w> 158261
Noti fy 158255
op ener 158244
stri de</w> 158211
5 12</w> 158210
loc ation 158121
assert Not 158068
volati le</w> 158062
Set up</w> 158044
Tr ack</w> 158015
In sert</w> 157979
Re place 157976
BOOST_ TEST</w> 157971
Condi tion 157900
I C_ 157815
Fin ished</w> 157781
posi tions</w> 157718
g reen</w> 157636
Qt Gui</w> 157629
range s</w> 157607
Pan el 157592
h int</w> 157584
Ref resh 157575
f ec 157529
th is_ 157497
Hist ory</w> 157475
DI SP 157445
so und</w> 157413
ge red</w> 157409
Q ByteArray</w> 157402
he ap</w> 157366
get Local 157362
bl ing</w> 157285
F lu 157266
MOD UL 157263
Asser tion 157244
Chun k</w> 157238
6 '</w> 157228
se u 157212
se ss 157197
Uti lities</w> 157185
Implement ation</w> 157178
ati ent 157174
brea k 157166
can on 157161
Vari ables</w> 157102
Pass word 157094
eter min 157054
rel ative 157046
b ab 157045
4 7</w> 157010
st ic</w> 157006
mi ted</w> 156988
Mon itor</w> 156980
de al</w> 156959
th e_ 156937
get In 156842
qu ick 156835
re store</w> 156808
expec t 156793
se en</w> 156760
Iter able</w> 156755
al t</w> 156725
ne tty</w> 156719
Separ ator</w> 156706
medi a 156602
cur sor 156600
Lex er</w> 156592
Cam era</w> 156518
tur n</w> 156436
Vec 2</w> 156407
P S</w> 156405
g res 156395
clic ked</w> 156394
p l</w> 156385
mat ri 156363
incre ment 156359
Ignore Case</w> 156358
R IN 156356
200 0- 156271
absolute_ import</w> 156252
3 / 156210
ic ally</w> 156208
or y_ 156152
Chun k 156145
de sk 156125
Diag no 156113
mo v 156106
s Count</w> 156084
ax is 156077
r b 156048
C ALL</w> 156020
de st_ 155879
do c_ 155853
redu ce</w> 155847
pent aho</w> 155831
St ates</w> 155830
white space</w> 155793
gy p</w> 155786
Check s</w> 155735
Al so</w> 155706
Co ord</w> 155690
ti v 155643
Produ ct 155634
il y</w> 155627
de sign 155605
spa wn 155515
s/ src 155514
6 "</w> 155445
app ear 155440
un lock</w> 155396
li te 155351
ac tor 155324
ty / 155310
T ick 155257
CR C</w> 155241
excep tion 155178
g y</w> 155177
d types</w> 155076
s lu 155068
cep t</w> 155052
Ob server</w> 155049
who se</w> 155039
initializ er</w> 154984
Connec t</w> 154935
i mm 154879
conver ted</w> 154871
String Ref</w> 154818
ON LY</w> 154776
su g 154771
mal loc</w> 154765
frame _ 154732
Ter m</w> 154729
NullPointer Exception</w> 154728
t le 154721
acti ve_ 154706
sh all</w> 154654
Ht ml 154580
app lied</w> 154571
x bm 154562
Element Type</w> 154510
LE R</w> 154509
Wri table</w> 154492
com ing</w> 154473
D ay</w> 154417
kl ass</w> 154415
88 59 154388
Su ch 154333
channe l_ 154331
d st_ 154278
run time_ 154263
fin ity</w> 154207
IMAG E_ 154186
An imat 154149
parti al</w> 154145
Comp onents</w> 154130
v r 154126
ul ator</w> 154078
Imp ort</w> 154056
y arn</w> 154035
Key word</w> 154004
L GPL</w> 153991
FO REACH</w> 153968
IO _ 153963
CT x 153946
Ti p</w> 153894
find View 153855
MO DE 153853
get Value 153820
r ing</w> 153770
star ts</w> 153753
Date Format</w> 153743
Pre vi 153718
le ware</w> 153711
ti te 153701
comple ted</w> 153641
Ass o 153640
contains Key</w> 153612
b lob</w> 153609
So me 153580
Ser vices</w> 153566
seg ments</w> 153538
op tion_ 153528
b j</w> 153474
D etermin 153432
th _ 153392
lo ye 153334
F ri 153292
bet a</w> 153187
R ol 153176
AV E_ 153077
ar m</w> 153055
CP U</w> 153045
0 a 152975
al most_ 152866
r type</w> 152861
Ori entation</w> 152805
bin ding 152803
40 4</w> 152748
bu g_ 152697
pre v_ 152667
fl at 152622
GH T_ 152622
N LS</w> 152601
suc ce 152598
JN I 152587
add_ option</w> 152533
D am 152469
ME TA 152446
Gener ate 152435
di c</w> 152419
n ers</w> 152417
Be gin 152402
Glyp h 152319
field Name</w> 152283
Re vision</w> 152274
Block Index</w> 152165
0 9</w> 152062
commun ic 152037
O O 152034
Fai led 151904
pre sto</w> 151901
ent ly</w> 151898
g oo 151876
py lint</w> 151871
Cur ren 151866
e 2</w> 151841
mar ks</w> 151813
Pro b 151806
Run time</w> 151796
no va</w> 151766
findView ById</w> 151717
f i</w> 151699
alloc ated</w> 151687
S N 151654
b c</w> 151652
T R</w> 151615
cs v</w> 151610
Mar k</w> 151596
os v</w> 151591
He ap 151540
u ally</w> 151523
d ynamic</w> 151519
u 8</w> 151504
Na N</w> 151480
ou ch</w> 151471
Geo metry 151462
F T_ 151432
as m</w> 151429
Sign al 151420
oth er_ 151361
EX _ 151337
ref lect</w> 151306
Transp ort</w> 151283
Change d 151280
P ER_ 151227
p lay</w> 151182
GE T 151169
Produ ct</w> 151164
te le 151067
az el 151054
M M</w> 151045
depend ency</w> 151001
Pre v 150944
elastic search 150882
F UL 150842
Con current 150837
la b</w> 150830
AR D</w> 150813
Absolu te 150813
for ge</w> 150781
secur ity 150781
match ed</w> 150779
No Such 150775
Process ing 150751
Declar ation</w> 150730
G I 150727
Re d</w> 150692
h our</w> 150669
p lot 150656
mo vi 150651
ke ep 150560
Pro ps</w> 150551
java - 150534
to po 150517
4 6</w> 150473
Bit coin 150469
ad just 150403
Qu ick 150385
off sets</w> 150356
im g 150355
Flo w</w> 150315
f req</w> 150313
h am 150308
Sk ip 150301
fin al 150254
incip al</w> 150251
S o</w> 150234
l a</w> 150214
glyp h 150206
By Name</w> 150172
R D 150125
64 _ 150113
PT R</w> 150103
Enco ding 150085
mis sion</w> 150067
or ing</w> 150057
d n</w> 150055
su sp 150008
de lay 150006
Add r 149985
Auth ors</w> 149973
Pre fix 149957
Pri mary 149914
In jec 149907
Sin ce</w> 149881
BAC K 149858
B et 149837
ac c 149825
H al 149797
C riteria</w> 149733
F X_ 149719
E OF</w> 149712
8 8</w> 149697
We ight</w> 149659
KE T</w> 149645
ITE M_ 149645
tr in 149629
BO R 149616
m x 149606
SIG N</w> 149571
ho t 149570
bi g</w> 149566
d at</w> 149551
Execu tor 149522
Con sole 149521
materi al</w> 149519
_ r 149441
u u 149434
cast er</w> 149390
po w</w> 149344
dimen sions</w> 149323
no te 149282
indi vid 149239
butt ons</w> 149238
get Max 149217
t al 149207
la s</w> 149135
s ou 149110
6 7</w> 149105
to lua_ 149080
as ure</w> 149077
k a 149073
AA AA 149071
sh adow 149002
qu ad 148998
5 3</w> 148977
se d_ 148968
run s</w> 148942
incre ment</w> 148913
te ction</w> 148876
ex act</w> 148857
pp er</w> 148815
F re 148773
C ard 148769
v p</w> 148752
ill a</w> 148741
set Attribute</w> 148707
ch arge</w> 148656
Buff ers</w> 148633
L ONG</w> 148619
almost_ equal</w> 148565
INTE GER</w> 148553
Spr ing 148522
por ter</w> 148516
re cogn 148508
lock ed</w> 148437
Verti ces</w> 148437
Identi ty 148430
5 8</w> 148422
Extr a</w> 148395
P as 148353
rel ation</w> 148319
en coder</w> 148295
NOR MAL</w> 148273
copy _ 148261
min ec 148248
occur s</w> 148238
ph an 148203
Scrip ted 148192
So und</w> 148162
suppor ts</w> 148161
No te 148157
list eners</w> 148155
4 9</w> 148152
w as 148106
v a_ 148070
_ url</w> 148019
CON F</w> 148013
Popu p 148010
lon ger</w> 147975
N am 147924
igno re 147902
Bot tom</w> 147887
stu ff</w> 147878
Y ear</w> 147868
Q ModelIndex</w> 147858
CONFI G</w> 147813
9 8</w> 147801
s 3</w> 147788
Config ur 147771
s_ list</w> 147768
comple te 147751
Rel ative 147738
de cl</w> 147689
underly ing</w> 147677
so ap</w> 147666
/ intellij-community/tree/master/ 147650
at ur 147647
al ig 147625
6 1</w> 147617
C String</w> 147551
in e_ 147543
loc ations</w> 147529
arg _ 147524
coun try</w> 147461
ro s</w> 147450
x s</w> 147383
ac cumul 147375
get Bytes</w> 147334
co ord</w> 147311
C RI 147290
Ten sor</w> 147288
Prepa red 147276
wchar _t</w> 147266
B LE_ 147260
Compu te</w> 147255
c ard</w> 147233
direc tories</w> 147230
Sup p 147197
Snapsho t 147118
Del ay 147106
io _ 147081
au to_ 147072
ar s</w> 147069
iph er</w> 147038
desi red</w> 146978
s ampl 146955
EFF ECT_ 146939
AL LOC 146831
Base d 146761
server / 146749
j boss</w> 146707
NE T 146707
WID TH</w> 146696
current TimeMillis</w> 146686
tab s</w> 146675
Identi ty</w> 146663
valid _ 146601
0x 0</w> 146599
ORI Z 146551
Descrip tor 146525
6 _ 146524
field_ name</w> 146523
Elastic search</w> 146509
mar y_ 146477
SH O 146454
C X 146444
C AP 146417
DE A 146413
g a</w> 146360
Adap ter 146354
Multip le 146335
ne t_ 146333
w 3</w> 146320
p alette</w> 146279
add Widget</w> 146263
4 2 146224
tific ate 146207
te ch 146186
ve locity</w> 146167
b g</w> 146164
regi on 146129
Equal To</w> 146099
r ase</w> 146090
s ch 146089
la in 146031
RE AD_ 146025
3 f 146007
get Data 145971
recip i 145938
aliz ed</w> 145885
itu de</w> 145794
LIN E 145793
Ten sor 145787
NUMB ER</w> 145708
S ame</w> 145679
VALU E_ 145679
colum n_ 145674
Auto Field</w> 145629
iter able</w> 145584
GLO B 145567
syn c 145550
Time Zone</w> 145480
byte s_ 145399
extr act 145382
L U 145367
NO DE_ 145367
Vector 4</w> 145353
p si 145348
iz ation 145317
Typ e_ 145302
comp o 145248
c f</w> 145185
Dis able 145133
C EL 145097
K o 145073
201 0- 145072
Ag ent 145043
it al 144991
O V 144975
USE R</w> 144971
C v 144946
Spell Script</w> 144902
He ad</w> 144810
cur r</w> 144806
Aura Script</w> 144796
time zone</w> 144786
Route Builder</w> 144750
T 2</w> 144729
un ch</w> 144703
di vi 144689
i x</w> 144648
G en</w> 144634
12 8 144619
comple x 144592
sim il 144588
is In 144574
char At</w> 144561
Th reshold</w> 144555
I GHT</w> 144541
LAN G_ 144535
pl an</w> 144523
W atch 144517
W nd</w> 144485
z _ 144482
AUTH ORS</w> 144460
default Value</w> 144444
s Exception</w> 144413
n a</w> 144376
mi me 144353
promo te</w> 144344
share d 144321
ax es</w> 144319
m ir 144257
2 , 144210
compres sed</w> 144166
Graphic s</w> 144119
MA IN</w> 144101
g ht 144057
\x d 144055
D R 144052
Fi re 144052
Node Id</w> 144052
Ac tu 144039
bran ch 144025
Clas si 143999
- core 143977
g a 143976
D ay 143968
Perio d</w> 143954
interpre ter</w> 143947
M AC 143942
Defa ults</w> 143929
AL LO 143875
rai sed</w> 143848
Rel ation 143823
differen ce</w> 143821
ar t</w> 143804
Au to</w> 143719
C V_ 143669
to p_ 143613
m_ f 143607
A tom</w> 143594
read y 143578
accomp ani 143557
as on 143466
al ert</w> 143450
accompani ed</w> 143442
ti cs</w> 143412
g d 143398
match _ 143395
d ash 143377
Execu te</w> 143371
w iz 143334
o stream</w> 143318
or acle</w> 143275
U nex 143269
F ace</w> 143247
sc i 143240
VERIF Y_ 143122
So me</w> 143077
G ate 143050
get Height</w> 142994
print_ function</w> 142944
U ri 142916
ASCI I</w> 142915
wn d</w> 142911
fix ture</w> 142866
Li b</w> 142862
str _ 142859
11 0</w> 142857
v 8</w> 142799
verif y_ 142717
user _id</w> 142703
B G 142666
_SU B 142626
Ap ply 142583
iter ation</w> 142544
CONNE CTION</w> 142540
F RE 142474
S ite 142470
Be havi 142434
Tit le 142410
AS _ 142389
M utable 142381
in jec 142353
el ls</w> 142347
man ifest</w> 142336
fy ing</w> 142332
t i</w> 142295
buil t</w> 142281
de tec 142277
R eci 142269
hol ders</w> 142263
Down load 142209
bet ter</w> 142185
Er r 142180
d m 142151
S qu 142143
we igh 142137
Exten ded 142118
sensi tive</w> 142104
JS Value</w> 142077
0x6 9</w> 142064
Mu st</w> 142063
f ast</w> 142017
log s</w> 141897
compati bility</w> 141848
con struct</w> 141841
Ex tra 141831
M L 141808
c as 141722
_ is_ 141680
Oper ator 141652
RE SOUR 141620
act ly</w> 141618
n avig 141613
get Width</w> 141594
mo ve_ 141540
5 09 141536
int Value</w> 141535
erci al</w> 141507
bi tr 141495
STAR T_ 141474
R atio</w> 141466
wait ing</w> 141459
ste d_ 141458
in ver 141429
an sible 141422
oth ers</w> 141362
flu sh 141349
Open GL 141347
PRO TO 141271
mi um</w> 141271
fi x_ 141255
De v 141182
y_ id</w> 141178
T OR</w> 141171
m id 141164
Y P 141159
B ench 141139
Q Abstract 141078
assert All 141058
cor rec 141033
Asso ci 141020
x range</w> 141013
An d</w> 141013
Parse Exception</w> 140994
get Path</w> 140962
Alph a 140939
obj _ 140936
met adata 140932
z ynamic 140903
w atch 140893
Pre pare 140873
compare To</w> 140838
Sp an</w> 140835
a v</w> 140823
ut ing</w> 140820
Out Of 140761
F D</w> 140726
THRO W</w> 140686
norm alize</w> 140677
hand les</w> 140668
opener p</w> 140667
repres ents</w> 140656
P alette</w> 140615
temp _ 140595
contro l_ 140593
ti l 140574
s From 140554
sub str</w> 140542
12 0</w> 140510
common / 140507
retri eve</w> 140507
Si de</w> 140477
Number Of 140365
Hel per 140358
orizont al</w> 140358
command _ 140288
comp ress</w> 140272
SP _ 140266
get Int</w> 140250
11 1</w> 140231
200 1</w> 140230
Bin ary</w> 140212
syste m_ 140188
re al_ 140177
ACE_ OS</w> 140104
d h 140054
alloc ator</w> 140054
s un 140026
W idth 139915
mat h 139889
E DI 139843
IN SER 139790
V ec</w> 139777
dis able 139761
ROO T</w> 139742
cal c 139740
os g</w> 139701
m u</w> 139691
Connec t 139664
exter nal 139636
_ meta</w> 139625
ve red</w> 139623
Ra dio 139620
st s</w> 139604
an te 139592
check sum</w> 139587
der _ 139488
on o 139483
type _</w> 139441
DE F</w> 139424
FUN C</w> 139422
ba z</w> 139400
Cam era 139380
l p</w> 139366
questi ons</w> 139365
Re t 139356
De scri 139329
Th is 139299
lin ked</w> 139277
e ff</w> 139214
vo l</w> 139212
C Log</w> 139183
selec t_ 139181
k u 139148
Key Event</w> 139120
ver ts</w> 139097
maj or</w> 139097
TIC AL</w> 139096
si ve 139093
c wd</w> 139031
me an 139015
DateTime Field</w> 138997
ber n 138884
chun ks</w> 138861
get Context</w> 138819
r x</w> 138812
B ack</w> 138808
new Instance</w> 138808
array_ ops</w> 138807
k a</w> 138772
La unch 138759
conf lic 138746
Local e 138744
frame work 138714
Comple tion 138712
D U 138686
result ing</w> 138679
constan t_ 138647
ZER O</w> 138639
Inclu de 138633
TOR _ 138629
scrip t_ 138599
Su f 138589
work ing</w> 138560
luc ene</w> 138451
trig gered</w> 138448
exp licit</w> 138364
over flow</w> 138306
comm ent 138288
ri t</w> 138276
6 2</w> 138258
pk g</w> 138204
A W 138172
Materi al 138138
contin u 138134
_ v 138128
D C 138083
f g 138056
Sho uld 137988
file_ path</w> 137984
openh ab</w> 137979
AD D</w> 137970
gu ar 137947
key words</w> 137943
gener al</w> 137933
VI SI 137925
let on 137918
a ffec 137869
initi al_ 137858
inclu de_ 137853
Compu te 137841
equals IgnoreCase</w> 137794
d l</w> 137791
SW T</w> 137766
Ter m 137743
/tool s/ 137717
AR G</w> 137699
sub _ 137691
lo we 137687
Mo re 137683
Creature Script</w> 137620
ER S</w> 137615
0x 10</w> 137611
execu ted</w> 137540
Ign ore</w> 137514
stream s</w> 137513
CHAN NE 137509
Loc ator</w> 137497
real m</w> 137492
diag no 137464
destro y 137432
4 3 137424
po sed</w> 137418
reg ular</w> 137367
Secon ds</w> 137337
m ouse</w> 137295
Mis sing 137279
fir e</w> 137258
6 6</w> 137251
u su 137242
quer ies</w> 137234
Stat s 137223
filen ames</w> 137213
9 '</w> 137204
w on</w> 137158
Recei ver</w> 137154
Collec tor</w> 137150
Per son 137146
4 f</w> 137137
wait For 137114
Cre ator</w> 137092
ge s</w> 137018
mu ch</w> 137007
ac c</w> 137005
ITE M</w> 136970
anch or</w> 136902
b en 136898
le e 136894
Contain s</w> 136886
a ren 136882
__ str 136826
m q</w> 136798
Dum my 136776
Ad ded</w> 136761
Symbo ls</w> 136721
Sp in 136719
v as 136697
u n</w> 136642
Name space 136638
seg ment 136634
R pc 136631
Vari ant 136600
p index</w> 136586
200 8 136550
disp atch</w> 136538
mock ito</w> 136514
Vec 3</w> 136500
sing le 136450
wrapp ed</w> 136446
N T</w> 136409
in ject</w> 136392
Primiti ve 136379
ptr _t</w> 136363
5 4</w> 136342
set Visible</w> 136336
Do Cast</w> 136308
tempor ary</w> 136303
de ps</w> 136259
Q VERIFY</w> 136254
service _ 136229
Oper ations</w> 136196
access _ 136185
in k 136119
an t_ 136106
__str __</w> 136038
/ =</w> 136008
AP I_ 135971
Secon d 135924
acti vate</w> 135920
g ht</w> 135910
Requi re 135902
modi fi 135864
syste ms</w> 135860
y a 135851
sh ip 135832
Up per 135816
origin al_ 135799
ass ume</w> 135766
m x</w> 135759
7 2</w> 135748
met a_ 135726
S parse 135705
O verri 135634
OR T_ 135630
R M 135597
B G_ 135593
tmp _ 135586
num ber_ 135539
rg b</w> 135476
config ure 135470
n 2</w> 135461
Pre v</w> 135432
Window s 135391
Cont ro 135367
get Operand</w> 135366
Con struct</w> 135340
Te am 135320
/test s/ 135302
open _ 135280
T B 135264
Token s</w> 135263
sd k</w> 135225
le x</w> 135209
Co ord 135185
RE G_ 135176
ap s</w> 135173
bu f_ 135109
AR D_ 135054
le av 134988
5 000</w> 134951
con ven 134947
serializ ed</w> 134946
TAB LE_ 134924
y y_ 134883
accor ding</w> 134881
Parti cle 134863
out side</w> 134826
S ame 134824
th on_ 134818
AL PH 134818
Result Set</w> 134793
su bli 134764
List eners</w> 134764
Al gorith 134625
Re c</w> 134583
F ON 134560
VAR I 134560
n on_ 134554
custo m_ 134538
be fore 134527
tear Down</w> 134472
HTT P_ 134468
config s</w> 134465
late st</w> 134443
. 0f</w> 134427
A TE 134404
g c 134401
trans fer</w> 134396
Change s</w> 134357
0x3 1</w> 134334
PU B 134329
declar ation</w> 134320
CO L_ 134308
po ll</w> 134273
Disp atcher</w> 134259
z illa</w> 134256
Q MessageBox</w> 134256
assert Null</w> 134240
GE MENT</w> 134233
sc ene 134223
mapre du 134212
read only</w> 134166
gen _ 134162
Re q</w> 134111
back up</w> 134106
CONSTAN T</w> 134057
FOR M</w> 134013
' 1. 133986
stud ent</w> 133981
Mo d</w> 133898
mp _ 133853
Bu f 133842
Con v 133774
sq l_ 133760
PL AT 133725
candi date</w> 133722
pri v</w> 133685
NAMESP ACE</w> 133661
Map s</w> 133653
Fol der 133643
CRE ATE</w> 133609
1 f 133605
Registr y 133598
B ag 133567
K E</w> 133557
se e 133528
string stream</w> 133517
fe ature_ 133515
sub stitu 133510
S lot 133503
di alog 133502
Sub scri 133450
Schedu ler</w> 133443
Fin der</w> 133430
sh ape 133395
E mbed 133373
FLA G</w> 133359
hd fs</w> 133250
G re 133234
extr a 133224
COL OR_ 133216
Unex pec 133179
po ly</w> 133144
cer tain</w> 133141
L D</w> 133040
re f_ 133033
if y</w> 133014
Mach ine</w> 133005
ul se</w> 132988
igno re_ 132988
ra ft 132942
f fic 132933
pc l</w> 132880
Key board 132842
app e</w> 132808
b ly</w> 132800
proper ly</w> 132787
get Type 132786
M argin</w> 132763
__ repr 132740
P N 132715
re try</w> 132704
fre quency</w> 132684
n u 132671
Di stance 132668
Back end</w> 132652
immedi ately</w> 132645
tr l 132627
al location</w> 132626
LI T</w> 132609
tern ati 132583
cel ls</w> 132575
Gener ate</w> 132574
ZER O_ 132565
_p layer</w> 132532
int 16</w> 132504
8 5</w> 132489
201 4 132475
col or_ 132461
__repr __</w> 132445
ation Exception</w> 132432
T ech 132406
Star ted</w> 132385
pre pa 132358
Scop e 132358
thumb n 132303
SHA 1</w> 132290
Par alle 132288
defin es</w> 132249
get All 132237
Read y</w> 132231
1. 5</w> 132210
Not Found</w> 132188
page _ 132185
spac e_ 132139
get Attribute</w> 132124
6 8</w> 132123
ab b 132105
f g</w> 132074
Sen sor 132052
Table Model</w> 132046
Pr inter</w> 131969
Fai l</w> 131906
Col ors</w> 131864
po s_ 131818
repor t_ 131712
NE _ 131653
Top o 131630
Vi deo</w> 131620
dy n_ 131618
ro les</w> 131521
S amples</w> 131504
atom ic</w> 131499
sd k 131472
ve hic 131435
Seri al 131411
COL OR</w> 131390
_ vm</w> 131385
point _ 131383
sub net</w> 131336
ma r</w> 131327
0x0 6</w> 131272
Boo k</w> 131254
Min i 131206
gp l</w> 131192
network _ 131191
L S 131180
201 7</w> 131154
Mouse Event</w> 131127
ct ypes</w> 131121
AL S</w> 131119
inst all_ 131106
Data set</w> 131104
Li mit 131086
thread ing</w> 131059
Pro p</w> 131025
Ti le</w> 131015
Bas ic</w> 131009
success fully</w> 130993
In strum 130982
com es</w> 130951
fo cus</w> 130950
Whe ther</w> 130921
place holder</w> 130886
get Next 130835
ENAB LED</w> 130822
2 f 130819
expres sions</w> 130802
equi valent</w> 130747
id den 130744
duplic ate</w> 130725
prev ent</w> 130710
1 e</w> 130707
Match ers</w> 130697
g 2</w> 130690
est im 130679
cl ause</w> 130674
PO INT</w> 130662
st din</w> 130646
ath er 130623
T ools</w> 130572
up dat 130544
entr y_ 130542
RE SP 130532
me asure 130508
gam ma</w> 130492
h n</w> 130455
amil y 130454
li d</w> 130449
ALI Z 130447
mm etri 130420
m_ data</w> 130408
Sign ature 130376
Ma il 130353
v 4 130314
bt n 130306
fa i 130286
stream _ 130270
L L_ 130249
Tal k</w> 130245
/ g 130190
le ave</w> 130171
NO DE</w> 130168
In ner 130163
assign ment</w> 130150
scrip tion 130145
v n 130137
Set up 130126
M igr 130092
Syn c</w> 130070
T wo 130061
E mail 130022
F ill</w> 130011
Amaz on 129994
le af</w> 129961
ver s 129929
BOOST_ FOREACH</w> 129895
Stati stics</w> 129887
Poly gon</w> 129855
vec tors</w> 129854
N et</w> 129799
aliz ation</w> 129787
x 3</w> 129783
P en</w> 129769
GO _ 129758
Composi te 129755
t v</w> 129730
We ap 129728
33 33 129720
V D 129715
prox y_ 129649
ma _ 129640
L C 129613
REMO VE</w> 129565
Cook ie</w> 129549
g er_ 129545
Change Listener</w> 129528
fr ont 129514
predic ate</w> 129514
SD L_ 129511
th ings</w> 129498
s mo 129486
Colo ur</w> 129467
pre d</w> 129453
bo x_ 129356
al bu 129355
port al</w> 129297
ensu re 129279
di ct 129264
p en</w> 129226
to do</w> 129193
su re 129159
content_ type</w> 129143
EX T</w> 129138
Ren derer 129090
sc roll</w> 129080
ul ate</w> 129065
projec ts</w> 129061
2 e 129044
10 5</w> 129041
an a</w> 129032
e st</w> 128996
Sh ift</w> 128966
slu g</w> 128959
NO TI 128943
retur ning</w> 128938
minu tes</w> 128927
co cos 128914
hel pers</w> 128909
p atterns</w> 128860
Content Type</w> 128829
Que st 128794
liter als</w> 128764
Check Box</w> 128757
n e</w> 128741
categor ies</w> 128728
11 6</w> 128712
/tree/master/ lib/ 128703
ac y 128692
LE D_ 128664
0x7 2</w> 128623
le arn</w> 128617
n t 128609
y y</w> 128589
S um</w> 128582
de g 128551
l 2</w> 128474
W rap</w> 128467
200 4</w> 128447
met h</w> 128441
endor se</w> 128439
F B 128431
Snapsho t</w> 128408
cu b 128406
ma kes</w> 128403
Ex t</w> 128402
St u 128327
arg in 128323
p d 128305
confi rm 128302
QU ER 128292
12 7</w> 128273
Swit ch</w> 128219
XM L_ 128218
\ brief</w> 128209
roo m</w> 128209
Data Source</w> 128205
allow _ 128193
Con sole</w> 128172
8 4</w> 128165
Wor k</w> 128159
in strum 128143
t ouch 128141
api / 128120
Sum mary</w> 128099
comp iled</w> 128094
S I</w> 128065
Basic Block</w> 128033
BLOC K 128017
5 7</w> 128005
lev els</w> 127991
Value s 127949
V EC 127935
to Array</w> 127928
S WI 127923
i18 n</w> 127906
hal f</w> 127897
re direc 127885
make_ pair</w> 127884
get File 127864
K E_ 127842
ance d</w> 127839
__ dict_ 127805
Or dered 127803
prop ag 127803
Br ush</w> 127803
an is 127797
9 6</w> 127765
c au 127755
HttpServlet Request</w> 127728
AR E_ 127719
C ri 127718
op eng 127712
AB LE_ 127702
mo st 127695
Event Handler</w> 127673
REQU IR 127666
sing leton</w> 127657
D jang 127635
N DB 127597
ge _ 127584
nor mal 127555
DI P 127553
Action Listener</w> 127547
pro gress 127523
Pre conditions</w> 127510
set attr</w> 127487
Can on 127477
djang o 127404
Manage d 127398
5 f</w> 127379
comp at</w> 127356
D uplic 127241
S G 127204
Di ffe 127198
EV T_ 127142
a de</w> 127135
f link</w> 127128
ado c</w> 127117
web kit 127115
fl ater</w> 127106
AR M 127102
respon ses</w> 127102
A P</w> 127101
AC CE 127096
v 0</w> 127072
Manage ment 127050
Exp an 127036
every thing</w> 127027
stati stics</w> 126965
TIME OUT</w> 126944
fr appe</w> 126935
entry Set</w> 126935
INF RIN 126903
comp ression</w> 126887
/tree/master/ tests/ 126867
hash _ 126860
f y_ 126859
gt k_ 126817
Qu anti 126795
__dict_ _</w> 126786
r d</w> 126758
Brow ser 126745
resol ver</w> 126729
abi lity 126725
Mo vi 126721
get H 126669
Connec tor</w> 126651
pri me</w> 126635
te red 126632
the me</w> 126629
p g 126610
ma king</w> 126600
p at 126574
valid ator</w> 126556
ht ml_ 126549
transi tion</w> 126496
x path</w> 126492
ou ter</w> 126482
t 0</w> 126456
can _ 126454
INFRIN GEMENT</w> 126453
db c 126384
n n</w> 126372
aver age</w> 126320
tu re_ 126307
Instance State</w> 126297
' 12 126267
VI DE 126260
p df</w> 126257
p lease</w> 126256
8 9</w> 126247
F E</w> 126225
b order 126206
The me 126205
Li te 126200
app ear</w> 126150
cro ss</w> 126150
BAC K</w> 126140
Wrapp ed 126099
sign al 126096
ac count_ 126068
la p</w> 126054
Noti fy</w> 126054
Sc enari 125987
Pip eline 125960
Avail able 125895
b el 125874
ti al</w> 125835
1e - 125834
To gg 125821
S chedul 125765
BUFF ER_ 125761
LO AD_ 125749
METHO D_ 125749
\t \t 125737
Typ ed 125735
S ite</w> 125712
parse Int</w> 125677
Bu cket</w> 125640
lu a 125615
ab spath</w> 125575
r l</w> 125524
5 .0</w> 125506
i / 125504
Do ck 125487
in c</w> 125394
0 F</w> 125387
tup les</w> 125376
q a</w> 125345
publi c 125326
U Bool</w> 125317
re start</w> 125289
to ler 125287
B lob 125279
P IP 125261
p v 125250
11 _ 125249
flow _ 125233
SE T 125214
CHAR _ 125210
LA Y</w> 125209
S ort</w> 125208
re v</w> 125144
poly gon</w> 125125
D TO</w> 125028
ex e</w> 125022
LI ST_ 125001
MESS AGE_ 124984
get Data</w> 124946
Syn chron 124943
repe at</w> 124887
param _ 124869
e lem 124864
sh uff 124860
Univer sity</w> 124799
Rec ords</w> 124796
Y E 124779
prob ably</w> 124776
GRO UP</w> 124773
UP DATE</w> 124764
TO K 124748
o l</w> 124743
sel eni 124740
Pix el</w> 124722
mu l</w> 124708
s 2 124655
zynamic s</w> 124655
pip e</w> 124636
s mar 124633
paren ts</w> 124601
GL enum</w> 124595
le arn 124590
ou ts</w> 124590
DA G</w> 124581
change _ 124569
Read Only</w> 124560
B atch</w> 124553
H S</w> 124553
Q Action</w> 124543
sto gram</w> 124541
Linked List</w> 124532
d ns</w> 124520
Pix els</w> 124495
N either</w> 124475
exp licitly</w> 124471
draw able</w> 124412
sin k</w> 124374
time delta</w> 124372
5 00 124370
bl ue 124366
promp t</w> 124312
invo ke 124284
midd le</w> 124279
h ass</w> 124271
In line 124266
ST Y 124262
Ti Xml 124241
fur ther</w> 124236
check er</w> 124235
Pa inter</w> 124210
ou s_ 124207
sh ard</w> 124079
Exp ort 124076
Process or 124019
fun cs</w> 124015
enc il 124015
Sin k</w> 123992
Incre ment 123984
sign als</w> 123979
U G 123922
runtime_ error</w> 123911
for war 123872
da e 123866
virtu al 123853
E mail</w> 123847
For ce 123833
Li ve 123804
Get Position 123791
ac cur 123784
c ard 123780
fail ures</w> 123705
enti al 123658
State ment 123637
bas ic 123632
L PC 123593
libr aries</w> 123555
sn ipp 123546
property Name</w> 123532
p itch</w> 123516
gro ov 123469
state ments</w> 123431
Sp ati 123424
resol ution</w> 123405
Dl g</w> 123387
schedu le</w> 123376
hand ler 123370
m_ current 123333
clo u 123333
Ne sted 123322
B C 123311
b d 123281
ir _ 123265
Lab els</w> 123239
BAS E</w> 123230
Ho me</w> 123221
Utf 8</w> 123216
C LE 123200
io / 123181
callback s</w> 123158
BUFF ER</w> 123151
unit _ 123141
L ight</w> 123125
Cal endar 123109
Inter cep 123091
spli t_ 123088
Do t 123083
VO ID</w> 123069
Hand l 123004
initializ ation</w> 122998
r ather</w> 122986
name space 122984
version _ 122965
AC K_ 122961
Exten sions</w> 122917
nd array</w> 122910
V C 122892
exp ir 122857
simp li 122836
OP EN 122832
S ent 122768
get Node 122750
li ve</w> 122745
Stream Reader</w> 122734
SI ZE_ 122707
Fr ames</w> 122701
m ati 122693
Fr ont 122667
uti l/ 122663
F OUND</w> 122654
O u 122626
Python Qt 122623
loc ator</w> 122603
loc als</w> 122602
Que sti 122594
asyn c_ 122576
STR ING_ 122567
Pres ent</w> 122567
s 3 122566
mo ves</w> 122562
5 3 122559
at ype</w> 122539
train ing</w> 122536
5 - 122533
Dic t 122514
ACTI VE_ 122511
c n</w> 122501
Sp an 122449
FI LE 122438
py _ 122433
init y 122348
Det ail</w> 122284
recor d_ 122268
ul d_ 122263
uti lity</w> 122239
7 "</w> 122229
Comp are</w> 122226
Comp ati 122224
0x0 9</w> 122214
Buffer Size</w> 122200
Mi me 122190
cli ents</w> 122143
Q T</w> 122103
In ject</w> 122098
de ep 122097
C are 122094
Spri te</w> 122048
ad o</w> 122046
T L</w> 122037
er ature</w> 122027
dis connect</w> 122021
7 7</w> 121980
et ype</w> 121934
q real</w> 121905
mapp ed</w> 121892
U sing</w> 121891
m gr</w> 121873
io stream</w> 121845
Metri c 121841
py thon_ 121834
re po 121816
int ro 121810
a e 121797
x / 121778
TRAN SL 121769
sor t_ 121761
or ity 121718
main _ 121711
Do es 121704
DE F_ 121703
gate way</w> 121694
scan ner</w> 121680
d y_ 121633
te ll</w> 121627
tion ary 121592
vi sion 121525
cl ang</w> 121512
TA G_ 121472
exp and</w> 121472
p in</w> 121471
Simp le</w> 121460
Lo w 121452
0 c 121435
AT TA 121371
cook ies</w> 121371
indic ates</w> 121366
label _ 121359
fore ach</w> 121332
python / 121266
G ra 121265
Boolean Field</w> 121209
arg 0</w> 121179
Last Error</w> 121146
File System 121133
En ter</w> 121100
S an 121098
dl g</w> 121072
ru le_ 121064
sub mit</w> 121057
m es</w> 121010
i er</w> 121005
occur red</w> 120958
Secon d</w> 120925
CP P 120918
En sure</w> 120905
Int 32</w> 120899
msg s</w> 120896
gp u</w> 120890
q gs 120752
Wor ker 120732
de c</w> 120721
pre pare</w> 120713
Up dat 120706
AL TER</w> 120700
c entr 120698
clo sing</w> 120665
try ing</w> 120658
cal led_ 120641
Valid ate</w> 120580
serializ ation</w> 120546
combin ed</w> 120544
Obj C 120543
00000000 00000000 120542
EXCEP TION</w> 120509
S le 120475
issu es</w> 120466
Deprec ated</w> 120460
Ar ti 120457
2 -201 120442
per mit</w> 120426
PLAY ER</w> 120381
dat ab 120360
VALU ES</w> 120360
c info</w> 120350
squ are</w> 120335
tex ts</w> 120313
tt y 120289
Di st</w> 120287
STATI C_ 120276
Re place</w> 120260
sc enari 120176
LI B</w> 120101
Fil ters</w> 120080
A UR 120049
log y 120045
b s 120024
He alth 120013
cent er 120000
sh ift 119995
Po st</w> 119984
Add res 119983
F P 119934
Disp atch 119919
T P 119918
ut down 119909
Initializ ed</w> 119894
Au th</w> 119893
G it 119862
Main Window</w> 119833
un def</w> 119830
ex actly</w> 119829
he d 119768
An sw 119762
set Current 119753
hd r</w> 119742
dir _ 119732
H EL 119721
bl ack 119719
Game Object</w> 119696
Sec ret</w> 119661
Ad just 119657
Qu ad 119627
ph p</w> 119625
FUN CTION</w> 119592
sp an 119591
repres ented</w> 119591
List View</w> 119585
1 12 119518
Inter val 119510
sp _ 119485
OFF SET</w> 119468
KE N</w> 119465
BOOST_ AUTO_ 119458
begin ning</w> 119452
l at</w> 119419
Non Null</w> 119419
fu n</w> 119416
ti cal 119397
C K 119395
Jet Bra 119392
Uti lity</w> 119385
AT TR_ 119384
Ro und 119381
0x4 0</w> 119358
n x</w> 119337
MO DI 119334
or ter</w> 119331
ho urs</w> 119317
4 09 119280
sh util</w> 119266
addi tion</w> 119261
Ex amples</w> 119248
Ne eded</w> 119246
Produ cer</w> 119228
cassand ra</w> 119193
1 \x 119192
cap ture</w> 119166
Bran ch 119158
E i 119140
zer o 119126
Co st</w> 119125
Categ ory 119124
bi as</w> 119118
symp y</w> 119118
questi on</w> 119112
m_ _</w> 119102
KE T_ 119067
P HAS 119062
gradi ent</w> 119055
U uid</w> 119054
4 .0</w> 119049
tag _ 119029
sol ver</w> 119021
cy cle</w> 119018
TEST_ CASE</w> 119006
Virtual File</w> 119003
track er</w> 118999
registr ation</w> 118987
Execu te 118921
In puts</w> 118920
pp ed</w> 118910
Ve locity</w> 118901
Can cel</w> 118891
k in 118878
Uti l 118867
Quali fied 118851
iter ations</w> 118841
Contro ls</w> 118835
Bran ch</w> 118823
BAS E_ 118809
Suppor ted</w> 118803
m im 118801
f a</w> 118752
cat alog</w> 118741
N V 118718
Enumer ation</w> 118716
sen sor</w> 118715
i v</w> 118695
un expected</w> 118669
di ag</w> 118664
W S_ 118661
IO Error</w> 118658
defini tions</w> 118646
Instruc tion 118531
be an 118527
Request s</w> 118524
q t_ 118492
en der</w> 118490
Own er 118482
L ON 118478
Te le 118478
b 3 118469
O VER 118467
fin ite</w> 118457
MAX_ VALUE</w> 118457
ab ort</w> 118420
Stati c</w> 118406
set Color</w> 118387
Ph ase 118381
p ap 118379
As String</w> 118344
AN G 118334
ic al_ 118332
Op t</w> 118323
sel l</w> 118295
l and 118280
xml ns</w> 118276
ie ve 118275
UM _ 118270
Ad ds</w> 118231
jo int</w> 118210
2. 0f</w> 118198
ver s</w> 118161
18 0</w> 118073
pick le</w> 118054
gu ard</w> 118032
gener ation</w> 117980
9 2</w> 117885
Cre denti 117877
FOR M_ 117871
run time 117857
Ser ies</w> 117824
f at 117779
O FF</w> 117758
B lob</w> 117746
CON TA 117746
flav or</w> 117731
En vironment 117721
ss l 117687
h it 117684
IN PUT</w> 117684
Fix ed</w> 117619
Loa ded</w> 117604
IF T</w> 117598
un pack</w> 117595
Source / 117585
7. 0.0. 117561
qu ality</w> 117555
sub set</w> 117550
tp g</w> 117527
bit coin</w> 117516
7 / 117497
Add SC_ 117492
get Last 117476
Trig ger</w> 117468
get Child 117454
Runtime Error</w> 117435
dynamic_ cast</w> 117428
mar ked</w> 117420
D RO 117407
EMP TY_ 117376
Sk Pdf 117361
lex er</w> 117359
H ard 117333
Seri al</w> 117313
check_ mode</w> 117294
e ps</w> 117257
batch _size</w> 117222
W iz 117220
Q Dom 117217
Un marsh 117206
\ param</w> 117202
Tr y 117199
m_ type</w> 117197
GENE R 117181
o me 117171
INTER N 117158
r v_ 117157
M s</w> 117143
att en 117116
here by</w> 117115
tt ing</w> 117089
Field Name</w> 117085
A E 117051
s And 117039
per cent</w> 116970
S mart 116924
p en 116923
COMM AND_ 116883
st one</w> 116874
W M_ 116826
dir ty</w> 116824
EX I 116806
get ter</w> 116758
person s</w> 116752
AR E 116735
sw ig 116720
B T 116688
m ul 116677
B A</w> 116655
new Value</w> 116647
1 d</w> 116622
bu s 116607
Comm it</w> 116595
col _ 116586
Destro y</w> 116582
tim er 116572
RAN GE</w> 116557
CHAR AC 116538
SUP POR 116518
safe _ 116509
mat h_ 116485
script PubKey</w> 116480
de ad 116464
Coun ter 116441
fin ish 116418
In ner</w> 116381
ation / 116380
y aml</w> 116373
wh ite</w> 116360
n ul 116359
65 5 116346
char _ 116335
T 1</w> 116326
model / 116316
GL int</w> 116299
q l</w> 116278
li k 116265
PI X 116164
v i</w> 116148
She et</w> 116146
bin d_ 116141
Ne ed 116118
Verti cal 116116
erarch y</w> 116106
F amily</w> 116099
fin e</w> 116061
R C</w> 116013
im ent 115997
Comp are 115900
buil t 115899
replace ment</w> 115855
p ar</w> 115836
Ke y_ 115827
dam age</w> 115794
Q_ D</w> 115729
Comple x 115693
L az 115673
aaaa aaaa 115671
Trig ger 115654
W il 115644
H ORIZ 115587
sho uld_ 115569
l st</w> 115562
INDE X_ 115548
NO OP</w> 115537
minec raft</w> 115536
s w</w> 115519
Error Message</w> 115511
cre ates</w> 115506
0x 0000 115490
St ub</w> 115481
rec v 115474
k il 115459
p b</w> 115458
actu al_ 115457
hav ing</w> 115454
s ke 115444
clo se_ 115438
Command s</w> 115421
m r 115383
coun ter 115366
Pu t</w> 115361
add r_ 115354
Invo cation 115353
lo t_ 115339
Tr ans</w> 115317
k 1</w> 115316
c ut 115302
Connec tor 115301
th ough</w> 115296
n l</w> 115273
2 02 115254
Bl ack 115254
Q Graphics 115222
ame _ 115206
World Session</w> 115175
laz y</w> 115105
ta ken</w> 115080
resh ape</w> 115044
Amaz on</w> 115030
individ ual</w> 115000
set Max 114993
E C</w> 114966
D Y 114963
AS E</w> 114959
me m_ 114943
stack _ 114911
T rip 114884
db c</w> 114866
SA X 114833
_p ass 114832
q Debug</w> 114828
M al 114826
g lob</w> 114824
V M_ 114809
STR UC 114790
i de</w> 114776
P ho 114713
imp l 114700
g ate</w> 114686
p w 114664
MP _ 114641
01 00 114614
recur sive</w> 114611
Q Application</w> 114587
p wallet 114571
temp file</w> 114544
R U 114500
em on</w> 114468
s lots</w> 114442
T ic 114430
Inst all 114403
G C</w> 114398
s .java"></w> 114386
i 32</w> 114357
PAT TER 114342
Q Color</w> 114321
po ll 114303
Sc an</w> 114284
Arch ive</w> 114280
FI X 114254
reg s</w> 114251
R C_ 114246
device _ 114218
s Log</w> 114184
JetBra ins</w> 114157
Fail ure 114156
por tions</w> 114140
8 3</w> 114136
file path</w> 114121
is Set 114104
t rip 114072
lay er_ 114068
Object Name</w> 114056
Spa wn 114039
ori g</w> 114027
str n 113952
V 2</w> 113935
ct xt</w> 113889
BEG IN_ 113873
Dis abled</w> 113869
ver tical</w> 113866
sen sor 113860
1 d 113848
Pe er</w> 113846
DI G 113840
Display Name</w> 113838
sequ ences</w> 113823
Boo st</w> 113815
table Name</w> 113794
con v 113766
ual i</w> 113721
sil on</w> 113702
rect angle</w> 113684
g ar 113626
obtain ing</w> 113610
15 0</w> 113607
fec y 113591
ri s</w> 113554
c mp 113532
AL O 113532
p 0</w> 113512
Sel f</w> 113498
sw ap 113493
St ud 113476
b i</w> 113463
ke yp 113457
M B</w> 113444
uld n</w> 113440
milli seconds</w> 113410
0x 25 113401
" 1. 113398
new line</w> 113398
g is</w> 113363
IMP LE 113342
uni form</w> 113260
jav ascrip 113236
tx _ 113177
2 c 113173
Cer tificate 113156
Ex ist</w> 113154
p ool 113153
Connec ted</w> 113140
j un 113114
utf 8</w> 113092
I o 113071
W HI 113067
e ig 113048
Construc ts</w> 113047
Gi ven</w> 113039
regi sters</w> 112969
GL_ TEXTURE_ 112969
get Column 112954
mode s</w> 112924
Scan ner</w> 112906
gra d</w> 112905
att rib</w> 112895
DE SC</w> 112880
e s/ 112860
si de_ 112858
di stance 112841
paralle l</w> 112830
righ t_ 112821
se n</w> 112820
s r</w> 112807
op t_ 112802
T ables</w> 112799
HORIZ ON 112788
Fe e</w> 112787
Task s</w> 112770
WITH _ 112744
invalid _ 112724
v c</w> 112706
j ax 112666
l 1</w> 112663
Validation Error</w> 112662
p ment</w> 112656
01 - 112642
R ate 112625
C RO 112610
LA BE 112578
ste n</w> 112566
out file</w> 112562
200 9 112562
start Time</w> 112539
avail able 112532
I I</w> 112525
Layout Params</w> 112525
vari ance</w> 112517
MP L</w> 112508
add on</w> 112487
aggreg ate</w> 112477
gl Get 112474
we ight 112472
key Set</w> 112466
Pl an</w> 112452
Cap ture 112444
Mock Endpoint</w> 112440
wi ki</w> 112423
CM D_ 112421
OR Y_ 112386
re fs</w> 112372
O Auth 112369
C lock</w> 112366
query set</w> 112358
is EqualTo</w> 112344
contro ls</w> 112321
With out 112307
Wri ter 112292
compar ison</w> 112276
do ing</w> 112273
ALI GN 112259
P atch 112190
ti ck</w> 112190
Bu s</w> 112172
33 0</w> 112152
b c 112132
regi ons</w> 112119
U i 112099
err _ 112096
lock _ 112091
p ag 112075
PORT_ DIP 112062
exter nal_ 112029
m_ d 112022
so und 112011
TEMP L 111984
MILLI SECONDS</w> 111974
Norm aliz 111966
Identi fier 111955
produc t_ 111943
lon g_ 111942
M idd 111930
ELE MENT_ 111923
limit ation</w> 111917
lin ux</w> 111895
DEVI CE_ 111858
con tr 111857
Tim es</w> 111797
Mis sing</w> 111777
Sel f 111727
F all 111700
perform ance</w> 111687
CONTRO L</w> 111659
Al loc</w> 111648
/ open 111629
File s 111550
in correct</w> 111546
Qt Core</w> 111536
Au dio</w> 111531
DRA WIN 111511
/src/test/java/ org/apache/ 111466
0x0 8</w> 111458
012 3456789 111445
E clip 111422
DE CL 111387
ne d_ 111377
C LAI 111376
cur ve</w> 111371
PRI V 111369
base 64</w> 111359
_ ASSER 111357
Mon itor 111301
di al 111300
mac ro</w> 111296
Code c 111282
mon th 111276
C pp 111271
get Size</w> 111250
Clo sed</w> 111228
M ut 111207
uni on</w> 111203
ur and</w> 111187
tra in_ 111182
Ren der</w> 111166
un pack 111162
<DOCUMENT_ID=" k 111129
ST O 111106
ato i</w> 111100
compu ted</w> 111094
abc def 111051
G _S 111037
Expec ted 111006
UL ONG</w> 111005
NE W</w> 110921
Type Name</w> 110921
re si 110897
inter pol 110886
Alig n</w> 110884
enti re</w> 110851
Mon th</w> 110802
Boo t 110798
accep t 110776
pri mary 110774
gre es</w> 110768
U_ ZERO_ 110715
PRO J 110707
7 '</w> 110695
SQ L_ 110687
U_ZERO_ ERROR</w> 110678
Std String</w> 110661
n pos</w> 110650
ST ER_ 110628
be st_ 110606
Assertion Error</w> 110604
i ence</w> 110603
an onym 110584
Mu sic 110576
ul a</w> 110573
skipp ed</w> 110539
ACE_ TEXT</w> 110525
n r</w> 110483
D ONE</w> 110463
_b y_ 110457
in verse</w> 110455
s Map</w> 110439
up rv_ 110437
7 3</w> 110434
Ar ticle</w> 110415
Event Type</w> 110403
Stand ard</w> 110402
INSER T</w> 110402
Transi tion</w> 110390
C riter 110385
queue _ 110384
did n</w> 110333
cel l_ 110329
BIT S</w> 110313
log ical</w> 110309
B ind</w> 110295
Valid ate 110287
C nt</w> 110277
simp le_ 110274
PAS S 110250
ali bab 110245
sp ati 110229
un defined</w> 110211
mu tex 110201
render _ 110198
add Action</w> 110175
par ty/ 110147
St y 110135
send ing</w> 110114
Bl end 110112
i fic 110062
anch or 110039
Exp lo 109968
DRAWIN GS</w> 109966
Cer tificate</w> 109963
guar ante 109963
Sy m 109960
8 3 109958
REQUE ST</w> 109955
16 0</w> 109930
clear _ 109896
D b</w> 109892
Ho wever</w> 109888
a wait</w> 109881
A B</w> 109873
Http Response</w> 109860
indic ating</w> 109859
- 1</w> 109837
Ex ample 109810
bot tom 109786
ret Val</w> 109767
we ap 109740
char t</w> 109717
VER TICAL</w> 109713
Gener ator 109693
k 2</w> 109655
TI T 109655
m_ is 109653
E p 109644
ACE_ TRACE</w> 109637
NEX T</w> 109609
he alth 109603
str ong</w> 109573
ma gic</w> 109572
ing er 109555
_ h 109511
su ite 109453
I B 109403
Pre ferred 109340
Application Context</w> 109327
MA C</w> 109320
_ASSER TE</w> 109316
S P</w> 109315
part ner_ 109306
de bug_ 109300
arch i 109297
ro le 109275
dyn_ cast</w> 109262
ge sti 109260
e ss</w> 109233
7 8</w> 109225
u c 109220
I CON 109188
el t</w> 109186
cont act 109184
5 2 109157
NDB T_ 109130
7 6</w> 109121
PO INT_ 109102
W 64 109094
ARRA Y_ 109083
SP ACE</w> 109079
Rot ation</w> 109060
c x 109058
d k</w> 109052
inter nal_ 109048
E K</w> 109044
Mar ker 109026
S al 109024
Pay load</w> 109001
P G 108972
Lo wer</w> 108967
re name</w> 108950
connec t_ 108844
c ing</w> 108841
8 1</w> 108824
th eta</w> 108823
C C_ 108807
format ted</w> 108799
Gener ated</w> 108786
LIN GS</w> 108772
get ting</w> 108772
Medi a</w> 108761
f p 108724
who m</w> 108723
Load ing</w> 108697
6 9</w> 108669
rid ge 108654
bal ance</w> 108650
attach ment</w> 108648
n pc</w> 108627
pur pose</w> 108625
MEMB ER</w> 108625
condi tion 108562
oper ators</w> 108527
He ight 108458
M Q 108446
C B</w> 108443
Pri vile 108429
re r 108418
se man 108414
Wh en 108397
argum ent 108391
add ing 108384
dro ol 108376
Dis covery 108367
get X</w> 108355
fur n 108346
po w 108334
P atient 108327
X ml</w> 108304
file Path</w> 108301
inspec t</w> 108289
St at</w> 108265
ter m 108222
ASSERT_ EQ</w> 108218
NP C</w> 108210
7 9</w> 108201
File Info</w> 108192
Spell Info</w> 108192
CLAI M</w> 108192
str cpy</w> 108185
Ite ms 108173
Sub stitu 108172
Cook ie 108153
SER I 108125
m_ creature</w> 108116
M T 108114
Se q 108104
COMP I 108092
or ted</w> 108048
st dio</w> 108019
bal an 108015
Event Listener</w> 108013
dep ends</w> 108005
mo v</w> 107967
get Element 107965
w ind 107958
comple tion</w> 107950
fabri c</w> 107950
Ei gen</w> 107949
repl aced</w> 107936
St amp</w> 107923
m as 107921
X Y</w> 107912
6 3 107892
S core 107869
resol ved</w> 107867
Q wt 107838
ang ing</w> 107799
I R</w> 107781
s Request</w> 107743
c trl</w> 107714
extr act_ 107710
Loo k</w> 107704
we ek 107663
G ran 107619
H orizontal 107618
__ file 107611
ar ange</w> 107586
set On 107581
_p age</w> 107576
to Int</w> 107564
inter face 107546
sco res</w> 107535
s sh 107527
In ser 107510
Sw ap 107507
session _ 107506
EX EC 107494
7 1</w> 107486
BRE A 107468
IN PUT_ 107462
p o</w> 107439
oper ation 107429
sp ro 107425
Q Rect</w> 107401
my sql</w> 107382
fig ure</w> 107343
P V 107335
Th umb 107335
as ing</w> 107322
6 - 107305
connec tion_ 107261
roo ts</w> 107260
Inter pol 107255
n i</w> 107228
c riteria</w> 107224
ur i 107218
/ lib/ 107215
Move d 107146
W ave 107131
ID C_ 107070
thir d</w> 107063
google / 107040
Algorith m 107025
Gener al 107021
ac ro 107020
T Type</w> 107019
gi es</w> 106995
View er</w> 106984
COLUM N_ 106958
Q Network 106912
TYP ES</w> 106905
OR DER</w> 106880
FIL TER_ 106880
8 7</w> 106878
DA Y</w> 106868
IT S</w> 106843
spar se_ 106842
modi fiers</w> 106838
THRE AD_ 106815
calcul ate 106782
Rege x 106771
deli miter</w> 106762
component s/ 106760
i os</w> 106748
ord ers</w> 106714
att ach</w> 106669
HE IGHT</w> 106651
invo ked</w> 106650
Co des</w> 106649
in o 106621
DIRE C 106615
shap es</w> 106595
ag ent 106588
OUT PUT</w> 106550
display ed</w> 106545
L atch</w> 106535
Instan ces</w> 106482
pres sed</w> 106467
H AVE_ 106461
ite d 106444
token _ 106422
cent age</w> 106380
simp ly</w> 106376
__file __</w> 106344
spring - 106335
fall back</w> 106263
0 f 106248
W64 LIT</w> 106243
SIG NE 106237
EMP TY</w> 106235
T W 106226
r pc 106226
Action Event</w> 106218
separ ate</w> 106197
FEAT URE_ 106177
let ter</w> 106155
10 9</w> 106137
oper ands</w> 106123
execu te_ 106105
CO D 106104
Sli ce</w> 106101
stra p</w> 106067
wal k</w> 106065
N av 106029
Allow ed</w> 106022
th ro 106003
pro file 105968
NON INFRINGEMENT</w> 105948
Ex change 105938
Se q</w> 105929
Metri c</w> 105925
flo or</w> 105915
G au 105887
Comm un 105865
ext ent</w> 105862
assert_ called_ 105861
el _ 105855
min or</w> 105833
DEA LINGS</w> 105825
agrap h</w> 105801
Call able</w> 105781
th ou 105760
A m 105662
as pec 105630
url parse</w> 105627
z one 105602
ech o</w> 105578
get Resource 105562
al ter 105551
n b</w> 105538
Hoo k</w> 105531
E st 105509
C V 105504
Var s</w> 105484
St age</w> 105474
De sign 105465
d ing_ 105459
b undle 105455
Rout ing 105440
Hel pers</w> 105436
h au 105377
res hol 105366
view er</w> 105363
t cp</w> 105362
in ted</w> 105357
Su bject</w> 105356
enti ty_ 105321
CLI ENT_ 105294
7 4</w> 105292
minu te</w> 105284
PROPER TY_ 105261
\ w</w> 105229
1 b 105223
pre c</w> 105178
se ct</w> 105163
AR M</w> 105152
tr ue 105139
H ere</w> 105138
D T_ 105120
T CHAR</w> 105112
ist ed</w> 105097
Json Property</w> 105086
hand sha 105073
si p 105072
Plan e</w> 105020
sh if 105011
did ates</w> 104966
Pe er 104898
Clean up</w> 104895
se m 104872
prob lems</w> 104869
Media Type</w> 104851
c are</w> 104849
eq _</w> 104803
Speci al 104794
P adding</w> 104792
al g</w> 104786
Ho me 104784
Info s</w> 104777
get Time</w> 104763
get Selected 104756
d ou 104741
exp ort 104741
Tw o</w> 104734
all y 104697
pre view</w> 104669
check point</w> 104667
m_ s 104657
b ir 104639
indic ate</w> 104636
connec tor</w> 104621
fr action</w> 104613
Wrap per 104606
PA TH_ 104596
UT C</w> 104594
N ative</w> 104564
Token izer</w> 104544
ex t_ 104526
retri ev 104524
HO ST</w> 104512
ph ase 104495
Fi x</w> 104475
R UL 104471
av ity</w> 104455
TAR GET</w> 104454
0 d 104433
Tr ust 104425
l ati 104414
g hi 104397
co effici 104365
Posi tive 104350
Analy sis</w> 104328
fro z 104324
m / 104312
G S_ 104259
execu tion 104239
Distribu ted</w> 104238
sub stan 104217
ph i</w> 104206
p attern 104196
Org an 104188
b or 104140
R T_ 104130
ob serv 104129
log in_ 104109
h 1</w> 104083
Construc tor 104063
O GR 104043
Cur ve</w> 104035
Dig ia</w> 104035
pro b</w> 104030
User s</w> 104025
e u 104018
st al 104014
m 2 104000
i an</w> 103995
Descri be 103991
i li 103989
fi t 103975
po wer 103972
rec v</w> 103970
sig ma</w> 103946
se g</w> 103920
19 2</w> 103901
No tes</w> 103892
Re porter</w> 103875
le ts</w> 103870
lik ely</w> 103833
da o</w> 103808
Inspec tor 103806
Ind ent</w> 103795
lo o 103785
Th en</w> 103756
Si de 103737
Co ords</w> 103736
t ar</w> 103731
exc_ info</w> 103724
Resol ve 103714
CACH E_ 103684
bind ings</w> 103667
Del ta 103633
^ =</w> 103596
C XX 103568
fol der 103542
D S_ 103521
debug ger</w> 103518
le af 103505
P F 103494
en v_ 103484
gl Vertex 103481
ternati vely</w> 103475
sub mit 103471
setting s_ 103469
R E</w> 103441
Acces sible 103422
Cre dentials</w> 103416
Bal ance</w> 103405
3 00 103396
cur r_ 103389
J AX 103381
Scripted AI</w> 103356
cache d_ 103326
Requi red 103289
Al ert 103282
Lo w</w> 103251
fol low</w> 103232
Ma j 103202
Mag ic 103196
Web View</w> 103181
t ro 103160
In sig 103150
IS D</w> 103144
AN CE</w> 103108
Vis ual 103099
0. 2</w> 103059
Excep tions</w> 103044
initializ e 103027
x 4</w> 103025
symbo l 103023
node Id</w> 103004
saved InstanceState</w> 102993
D st 102967
Th row</w> 102961
n n 102955
should n</w> 102937
d ense</w> 102900
a 0</w> 102888
GRO UP_ 102836
TYP E 102835
MAR K</w> 102813
m c</w> 102797
FUNC TION 102786
ep iso 102764
Compil er 102756
du p</w> 102754
WRI TE_ 102729
Inspec tion 102729
vari ous</w> 102720
UMM ON_ 102710
X X</w> 102707
r i</w> 102640
The me</w> 102638
furn ished</w> 102627
STRE AM</w> 102605
std lib</w> 102598
A ri 102589
pack et 102575
Micro soft</w> 102570
Char set</w> 102560
HORIZON TAL</w> 102559
consi dered</w> 102546
10 "</w> 102524
get Y</w> 102500
fac t</w> 102495
Test Suite</w> 102491
OW NER</w> 102479
m ech 102436
down load_ 102407
L ar 102405
av en 102390
SC AL 102379
work space</w> 102374
Be en 102356
J S</w> 102353
c ap</w> 102292
is ol 102247
NAMESP ACE_ 102232
Up load 102226
0x7 3</w> 102191
invo ice</w> 102182
Ho t 102176
_S O 102168
Get Current 102149
Prepared Statement</w> 102146
Gradi ent 102140
CF G_ 102118
T or 102117
set ter</w> 102105
200 3</w> 102076
Analy zer</w> 102063
null able</w> 102030
con v</w> 102001
vo lu 101979
s g</w> 101974
produ ct 101973
rout ing</w> 101967
specifi cation</w> 101951
1 c 101931
8 2</w> 101929
Metri cs 101927
he alth</w> 101920
normaliz ed</w> 101900
doc type</w> 101846
iz er 101831
T F 101816
r ng</w> 101814
Secur ity</w> 101806
THRE AD 101782
# #</w> 101775
ss h</w> 101766
in coming</w> 101757
skip _ 101756
pl aces</w> 101746
INVALI D</w> 101721
A A</w> 101719
subli c 101709
gi ves</w> 101690
gover ned</w> 101677
re o 101672
att ack 101658
process ors</w> 101652
h 2</w> 101633
T RE 101630
substan tial</w> 101628
r p 101584
App ly</w> 101573
K S</w> 101560
add on 101554
ance d 101542
get Key 101539
For ward</w> 101539
fab s</w> 101538
con f_ 101535
le ft_ 101510
PRO G 101478
l r</w> 101466
block ing</w> 101462
grap h_ 101435
medi ate</w> 101425
Option al 101413
d p 101406
use d_ 101403
ri er</w> 101382
sublic ense</w> 101374
MEN U</w> 101370
Anch or 101349
verbo sity</w> 101337
i on 101331
l v 101327
lead ing</w> 101327
Min imum 101304
user Id</w> 101292
re t_ 101248
rout ine</w> 101241
butt on_ 101236
bad _ 101235
end Object</w> 101233
min imum 101229
11 4</w> 101227
verti cal 101215
0. 01 101214
en ce_ 101208
read line</w> 101198
Is Valid</w> 101175
choo se</w> 101170
m ass</w> 101166
Me m</w> 101129
Wor ker</w> 101129
ato ms</w> 101102
ONE _ 101095
ad min_ 101090
PROCE SS_ 101078
S ecu 101065
Mon th 101033
ma int 101003
b ridge</w> 100990
h base</w> 100988
NET WOR 100985
B AT 100934
Co ins</w> 100931
sl ash</w> 100916
pri mary_ 100886
3 c</w> 100880
Su g 100875
Index es</w> 100847
sin ess 100824
id get_ 100812
PRO P_ 100801
Gener ated 100799
EX TR 100791
glyp h</w> 100769
T S 100730
REQU I 100678
Gu il 100672
Ref lec 100662
li te</w> 100650
accep ted</w> 100648
name d 100630
view port</w> 100623
H D 100610
De co 100606
Sp acing</w> 100594
Initi al</w> 100584
He ap</w> 100583
Kerne l</w> 100573
s v</w> 100566
get First 100560
proper ty_ 100549
PUB LI 100531
log ical 100498
St a 100479
for med 100476
acqui re</w> 100470
tu ation</w> 100454
ON S</w> 100436
Get Name</w> 100427
Selec tor 100422
Glob als</w> 100403
f l</w> 100379
mem ory 100353
In form 100349
Exp and 100336
an / 100295
adv ance</w> 100269
Http Request</w> 100261
mapp ings</w> 100258
4 00 100222
D UM 100212
fa ke 100196
9 1</w> 100195
A ws</w> 100191
sy mmetri 100161
fil tered</w> 100148
Extr act 100132
cop ied</w> 100109
g b 100102
Descrip tion 100102
EXPECT_ TRUE</w> 100088
x mm 100082
exten ded</w> 100064
fil l_ 100055
rel ated_ 100053
I 2 100047
\ fn</w> 100040
Consum er 100017
Depend ency 99986
N db</w> 99953
set default</w> 99952
package s/ 99935
en v 99913
Y Y_ 99904
ser ved 99902
secur e</w> 99868
read s</w> 99866
s ing_ 99827
bl ack</w> 99825
Callback s</w> 99794
Unexpec ted</w> 99751
LI B 99744
7 2 99732
q t/ 99703
R N 99642
proces ses</w> 99640
RE LE 99634
Po ly</w> 99622
L F 99621
_ add_ 99600
app ly_ 99580
Numer ic 99580
t n</w> 99564
manage d</w> 99563
{ 0</w> 99548
Attribute Value</w> 99542
E DED</w> 99533
Previ ous 99519
G tk 99502
TC_ LOG_ 99494
gra de 99491
V AR</w> 99471
t v 99468
h yper 99441
Cla use</w> 99424
Match es</w> 99422
comm ercial</w> 99411
toler ance</w> 99405
Instan ti 99389
L ang 99384
classi fication</w> 99381
disp atcher</w> 99378
_m anager</w> 99367
re serve</w> 99364
PAR ATOR</w> 99351
_ index</w> 99347
mark up</w> 99336
4 f 99333
math_ ops</w> 99326
process or 99324
S af 99322
get Sub 99317
' 2'</w> 99313
ByteArray OutputStream</w> 99307
st able</w> 99288
From String</w> 99276
m g 99271
Clo ud</w> 99257
APP LE</w> 99252
Custo m</w> 99251
mo unt 99240
c id 99232
M ID 99226
fi d</w> 99219
Upd ated</w> 99216
5 f 99190
QU O 99166
d ru 99159
U sed 99157
de tected</w> 99148
tr ac 99146
check NotNull</w> 99133
xy z</w> 99118
met acl 99081
quanti ty</w> 99062
T mp 99052
CL U 99046
_ is 99020
trans formation</w> 99020
sto res</w> 99017
win 32 99009
INTE GR 99008
Debug ger 99007
0. 9 98995
pro vider 98940
_ in 98939
vec 3</w> 98939
secur ity_ 98930
icon s</w> 98926
B O</w> 98902
DE CL</w> 98896
col l 98887
test_ get_ 98877
d v 98863
to s</w> 98844
Sh utdown</w> 98840
contain ers</w> 98839
f ar</w> 98820
MA P 98752
are n</w> 98746
vi rt</w> 98729
s chedul 98682
co mb 98677
visi ble 98677
Sen der</w> 98674
atu m</w> 98658
sv n</w> 98658
p q 98643
fix ed 98639
M X 98615
numer ic_ 98608
ex ce 98607
Sk Scalar</w> 98582
se ek 98566
Sing leton</w> 98549
Observ able</w> 98544
lock s</w> 98535
l as 98503
G o</w> 98502
X 86 98496
reach ed</w> 98496
Origin al 98484
Charac ters</w> 98453
mon itor 98442
q ty</w> 98441
ER E 98438
_s cope</w> 98437
rg b 98435
addres s_ 98423
un ded 98422
licen sed</w> 98410
KE D</w> 98401
c ity</w> 98384
li sh</w> 98358
mar k_ 98354
applic ations</w> 98348
ST ER</w> 98343
prev out</w> 98340
vis or</w> 98320
Q Point</w> 98274
Distribu tion</w> 98241
As set 98228
ig he 98208
B ad</w> 98207
T mp</w> 98203
get text</w> 98177
trail ing</w> 98177
start Object</w> 98160
D to</w> 98154
CONT ENT_ 98137
un known 98123
SUC CE 98094
inser t_ 98080
b on</w> 98073
name spaces</w> 98065
open ed</w> 98064
BUFF ER 98013
w all</w> 98012
fin al_ 97990
require d_ 97978
Log ging 97910
Pay ment 97884
Compi le 97863
IN C</w> 97851
al s 97849
Spri te 97822
visi t_ 97789
desc r</w> 97782
pr inter</w> 97772
transp ose</w> 97734
RE G</w> 97727
En v 97682
Ang le 97675
LE G 97658
\ c</w> 97655
t s_ 97634
Temp le</w> 97616
Pres sed</w> 97609
e g</w> 97608
Dis able</w> 97607
lib s/ 97575
X 509 97567
sequ ence 97545
pro c 97541
Cast Spell</w> 97539
CON F_ 97530
TOR Y</w> 97493
Sh ell 97486
s core 97471
un ge 97467
rou te 97439
Edge s</w> 97421
um b</w> 97418
si bility 97414
M one 97413
fe e</w> 97400
25 0</w> 97385
D ra 97374
flo ating</w> 97362
cre st</w> 97361
tr ace_ 97320
Iter ator 97297
G C_ 97274
IM S</w> 97250
Posi tions</w> 97245
add_ method</w> 97242
UINT 32</w> 97235
y 0</w> 97211
U Char 97194
function _ 97187
Gr am 97148
HttpServlet Response</w> 97136
Test Utils</w> 97109
f time</w> 97097
C ENT</w> 97090
Sk ASSERT</w> 97080
jour nal</w> 97071
C Wallet 97069
mo ved</w> 97042
up grade</w> 97013
Type Info</w> 96998
over write</w> 96992
_SE T_ 96987
P t</w> 96974
de tect</w> 96962
Stri de</w> 96955
ten ant</w> 96886
CE GUI</w> 96877
Cal c 96876
UP DATE_ 96876
Gener ic</w> 96875
lib s</w> 96873
J Panel</w> 96872
B on 96871
Calcul ate</w> 96867
Ext ent</w> 96850
N UM</w> 96848
Brow ser</w> 96839
w b</w> 96837
We ak 96828
Navig ation 96826
arg 2</w> 96811
n c</w> 96776
Cl one 96775
no mi 96769
specifi es</w> 96769
RESP ON 96721
Addi tional 96700
as y 96695
PO INT 96688
Dic tionary 96681
9 3</w> 96672
spec s</w> 96671
Suf fix</w> 96668
end or</w> 96660
m_ str 96653
charac ter 96648
popu p</w> 96644
GL E_ 96643
spri te</w> 96641
Co ver 96610
0. 01</w> 96586
D _S 96580
S sl 96551
dec im 96551
Parti tion</w> 96542
C Transaction</w> 96531
cont roll 96530
Target s</w> 96480
Sli der</w> 96473
P lot 96471
TO KEN</w> 96461
as set</w> 96413
11 5</w> 96384
On ce</w> 96381
nb sp</w> 96367
Ac tor</w> 96357
_ g 96333
o 1</w> 96299
describ ed</w> 96266
e val_ 96252
\ 3 96248
sel f 96240
Lin ux</w> 96235
For ce</w> 96226
wh y</w> 96221
eng e</w> 96208
MMMM MMMM 96205
Assemb ly 96204
LO N</w> 96203
debug ging</w> 96191
Bound ing 96167
et ree</w> 96154
Comple te 96120
exit_ json</w> 96119
TRANSL ATE_ 96073
syn c_ 96071
RESUL T_ 96071
tra its</w> 96067
P lain 96062
ADD RESS</w> 96053
OS Error</w> 96024
ep silon</w> 96015
Su b</w> 95934
AL_ CONSTANT</w> 95924
ge m 95912
P M 95910
DE SCRIP 95906
Attemp t</w> 95896
m ise</w> 95884
Max imum</w> 95869
rec v_ 95852
Re d 95827
tite m__</w> 95827
bin ary_ 95793
orig _ 95777
EXP ORT</w> 95772
g test</w> 95754
FOR _ 95731
j dk 95720
Re stri 95719
STR _ 95716
fl at</w> 95695
it o 95683
run n 95674
h and</w> 95660
md 5</w> 95654
Cal ls</w> 95643
1 a 95631
pointer s</w> 95627
Tempor ary 95614
primiti ve</w> 95610
s Manager</w> 95609
Map per 95607
camel / 95596
RE COR 95579
dum my 95578
0x0 4 95577
Cli p</w> 95575
imp l/ 95558
sign al_ 95545
hel p 95544
Fin al 95543
publi c_ 95540
render ing</w> 95538
project / 95533
at ory</w> 95527
PAR AM_ 95498
TO P</w> 95478
Fl ush</w> 95473
Liter al 95457
PROPER TY</w> 95413
ip y</w> 95412
pre p 95399
St age 95370
EN C 95363
ro _ 95349
t ouch</w> 95330
Socket Address</w> 95330
pro per</w> 95324
p node</w> 95320
Sh ell</w> 95315
stop ped</w> 95311
SI S</w> 95300
e val 95290
s k</w> 95281
che my</w> 95269
ali ve</w> 95262
j o</w> 95258
Su sp 95235
SETT ING</w> 95221
stop _ 95214
APP LIC 95209
n g 95189
H AS</w> 95162
bo dy_ 95158
OV ERR 95156
L et 95148
WE B 95135
attach ed</w> 95133
CONTRO L_ 95130
seleni um</w> 95117
_ j 95102
ham crest</w> 95076
comm a</w> 95052
tiv ity</w> 95016
Re main 95010
e / 94976
docum ents</w> 94970
F amily 94960
C enter 94900
impor ts</w> 94895
LEVE L</w> 94885
Dl g 94847
zoo m</w> 94839
200 2</w> 94835
re view</w> 94825
13 07</w> 94822
ad ds</w> 94816
z y 94800
ne ss 94800
cl ai 94800
_S p 94781
Get Player</w> 94751
mapredu ce</w> 94750
E 0</w> 94745
p f 94737
h al</w> 94730
pro g</w> 94721
P in 94720
re lev 94720
time stamp 94690
w atch</w> 94684
RE PL 94678
com bo 94632
Accep t</w> 94609
B LO 94588
ad just</w> 94583
I E</w> 94579
EN G 94565
f all</w> 94541
boo lean 94517
sw ift</w> 94517
he ight 94515
LOC AL</w> 94486
A WS</w> 94473
Gu id 94464
W N_ 94439
N i 94438
Does Not 94378
ren g 94366
p w</w> 94362
TOK EN_ 94355
Re ferences</w> 94348
Stro ke</w> 94345
ste p_ 94334
m and 94317
ss l_ 94317
mis c</w> 94310
re fore</w> 94294
combin ation</w> 94275
y s</w> 94268
App le</w> 94267
back ground 94244
Get Data</w> 94235
back up 94227
ta il 94222
coun ters</w> 94221
cryp to</w> 94216
Pro ces 94199
re l_ 94164
abcdef ghi 94160
p ool_ 94148
J ust 94144
fin der</w> 94142
internal / 94138
Memb ers</w> 94124
ban k</w> 94083
ac counts</w> 94059
Add on 94059
ec 2</w> 94051
ta ke 93965
Top ic 93931
max imum 93883
<DOCUMENT_ID=" d 93851
ENAB LE_ 93851
BOO LE 93837
scal ing</w> 93827
edit or 93826
re load</w> 93802
Render ing 93779
h ad</w> 93772
Par k 93743
Move ment 93735
b and 93731
desk top</w> 93727
pwallet Main</w> 93719
is Debug 93709
un link</w> 93705
Table Name</w> 93691
deta il 93688
Struc ture 93644
t le</w> 93642
min im 93638
cro ss 93614
Pri ce</w> 93609
Get Hash</w> 93596
Arch ive 93576
fil led</w> 93574
Eclip se</w> 93561
fo cus 93557
fail ure 93548
Recei ve 93547
Perform ed</w> 93543
re g_ 93528
p a</w> 93506
_ t 93503
l b</w> 93492
pro j</w> 93483
di es</w> 93481
decor ator</w> 93474
T L_ 93467
Ra w</w> 93436
si vely</w> 93413
J S_ 93409
display _ 93396
10 8</w> 93395
u tr 93390
tx t 93384
Camel Context</w> 93376
kerne l_ 93373
compar ator</w> 93370
STD METHO 93358
y cl 93341
0x 32</w> 93337
an ce_ 93309
c ss 93308
DA O</w> 93292
06 5</w> 93292
Co ls</w> 93266
\u 01 93264
cat en 93261
HAND LER</w> 93250
col lap 93231
ci rc 93208
Point F</w> 93202
support s_ 93202
thou ght 93201
ff ff</w> 93200
0211 1- 93188
Sk Path</w> 93186
Ma c</w> 93180
vec 4</w> 93175
Assemb ler</w> 93170
PO W 93166
Sec ret 93161
AN I 93155
o 2</w> 93153
For ward 93140
de mo 93137
collec tor</w> 93129
ima l</w> 93112
e mb 93108
Dir ty</w> 93104
02111- 1307</w> 93093
Kerne l 93071
D L</w> 93070
de cryp 93050
rout ing 93037
P T_ 93028
Fix ture</w> 93026
is dir</w> 93004
lo _ 93000
s am 92983
Can di 92982
Ge st 92973
jack son</w> 92966
Butt ons</w> 92964
get Int 92943
p 2 92934
visi bility</w> 92923
Modi fy 92891
Index ed 92888
a way</w> 92844
IS O</w> 92828
loye e</w> 92828
Re act 92807
Per f 92805
Remo ved</w> 92773
Form Attachment</w> 92746
con cat</w> 92731
me ss 92724
get Absolute 92720
gt k</w> 92716
p Player</w> 92678
Get ter</w> 92675
8 00</w> 92663
inter section</w> 92640
i se 92635
QT_ TRANSLATE_ 92634
R B 92633
b n 92611
str ftime</w> 92607
SCRIP T_ 92588
av g</w> 92585
sc rol 92578
re set_ 92570
spa wn</w> 92562
" 2"</w> 92547
s g 92534
loc ated</w> 92527
sub classes</w> 92507
R S</w> 92500
l ing 92489
get Parent 92480
script s/ 92456
add Item</w> 92426
off set_ 92418
Group Name</w> 92408
9 4</w> 92397
network s</w> 92328
ends With</w> 92308
ra d</w> 92301
Sys Message</w> 92298
happ ens</w> 92291
QT_TRANSLATE_ NOOP</w> 92280
comp ut 92278
Att rib 92254
Ex per 92234
an im</w> 92232
P y</w> 92218
Has Been 92213
d to</w> 92207
de p</w> 92206
CEN TER</w> 92206
Page s</w> 92192
GP U</w> 92173
f av 92172
j j 92162
u / 92146
hoo ks</w> 92139
w ave 92073
art be 92073
Spati al 92053
se cu 92037
inter n 92037
write s</w> 92032
course_ key</w> 91983
ag ing 91980
N I 91940
en c</w> 91940
To k</w> 91937
E K 91931
g wt</w> 91924
b d</w> 91923
attemp ts</w> 91919
und o</w> 91893
AU DI 91890
d ll</w> 91884
Jo in</w> 91865
alig ned</w> 91864
Do cs</w> 91861
pe er 91850
ensu re_ 91846
Q Event</w> 91840
DF S 91836
con t</w> 91833
vec tor_ 91831
alibab a</w> 91812
mis sion 91809
test er</w> 91790
AM P</w> 91787
Flu sh 91785
s_ by_ 91772
c 2 91758
FR AME_ 91747
O L</w> 91724
g it 91716
extr ac 91713
buil tin</w> 91690
rot ate</w> 91687
p Creature</w> 91683
y 2 91623
Secu re 91622
course _id</w> 91611
sho wn</w> 91599
C ard</w> 91597
A 1</w> 91592
k le 91591
F lex 91589
sp ath 91559
if ace</w> 91550
O ld</w> 91529
ca st_ 91521
produc er</w> 91500
IP V 91475
2 .</w> 91467
Laz y 91466
sing le_ 91459
OVERR IDE</w> 91441
per m</w> 91427
perform ed</w> 91426
H at</w> 91421
provid ers</w> 91407
s q</w> 91397
g_ p 91364
H y 91360
set Id</w> 91348
colo ur</w> 91345
Se c</w> 91324
k uali</w> 91319
ben ch</w> 91303
repres ent</w> 91296
k ill</w> 91263
up on</w> 91240
64 '</w> 91238
squ are 91211
projec tion</w> 91206
INTEGR AL_CONSTANT</w> 91176
get State</w> 91158
Wor ds</w> 91155
hel p_ 91154
ast ype</w> 91127
si m</w> 91118
S ou 91115
b ur 91105
get Content 91094
previous ly</w> 91067
dep th 91058
st or</w> 91044
lib _ 91043
7 3 91037
J D 91035
test Get 91018
Dec la 91011
Un signed 90986
possi bly</w> 90982
f al 90951
Siz er</w> 90944
pre sto 90943
ar ity</w> 90916
agree ment</w> 90908
ch all 90898
NOTIC ES</w> 90889
NE T_ 90879
Work flow 90853
De sk 90827
deri v 90808
ti cket</w> 90758
clu sters</w> 90748
S EN 90737
an e 90735
const_ cast</w> 90721
Q Meta 90716
Al bu 90715
Q Icon</w> 90708
Immutable Map</w> 90699
get String 90698
Artifac t 90690
play ers</w> 90652
p n</w> 90641
ist ic</w> 90624
ar row 90616
Interpre ter</w> 90605
R END 90602
Th an</w> 90594
Box Layout</w> 90575
/src/ org/ 90569
ced ure</w> 90548
elap sed</w> 90544
I GN 90539
PK G</w> 90528
V m 90519
0x6 3</w> 90513
Transi tion 90503
er_ id</w> 90501
0x0 5</w> 90494
BUTT ON_ 90494
camel /tree/master/ 90476
Emit ter</w> 90452
VO L 90447
D AR 90442
IN GS</w> 90436
invo cation</w> 90426
1. 2</w> 90419
al gorith 90405
WA Y 90405
4 c 90401
Log in</w> 90394
Compar ison</w> 90393
SPEL L_S 90392
High light 90380
AV E</w> 90373
df s 90367
pl ur 90337
de fs</w> 90329
look up_ 90322
Par ts</w> 90316
BOOST_CHECK_ INTEGRAL_CONSTANT</w> 90308
TC P</w> 90308
sin ess</w> 90248
is a</w> 90238
Re ach 90219
platform / 90217
G H</w> 90213
Poly gon 90211
andro id_ 90199
de f_ 90185
M Bean 90178
B AD_ 90166
Enable d 90163
BO UN 90160
Si bling</w> 90134
[...]
